unsigned char model_tflite[] = {
  0x1c, 0x00, 0x00, 0x00, 0x54, 0x46, 0x4c, 0x33, 0x00, 0x00, 0x12, 0x00,
  0x1c, 0x00, 0x04, 0x00, 0x08, 0x00, 0x0c, 0x00, 0x10, 0x00, 0x14, 0x00,
  0x00, 0x00, 0x18, 0x00, 0x12, 0x00, 0x00, 0x00, 0x03, 0x00, 0x00, 0x00,
  0x6c, 0x06, 0x00, 0x00, 0x10, 0x00, 0x00, 0x00, 0x1c, 0x00, 0x00, 0x00,
  0x2c, 0x00, 0x00, 0x00, 0x0c, 0x00, 0x00, 0x00, 0x01, 0x00, 0x00, 0x00,
  0xe8, 0x00, 0x00, 0x00, 0x01, 0x00, 0x00, 0x00, 0xb0, 0x00, 0x00, 0x00,
  0x0f, 0x00, 0x00, 0x00, 0x54, 0x4f, 0x43, 0x4f, 0x20, 0x43, 0x6f, 0x6e,
  0x76, 0x65, 0x72, 0x74, 0x65, 0x64, 0x2e, 0x00, 0x0c, 0x00, 0x00, 0x00,
  0x84, 0x00, 0x00, 0x00, 0x7c, 0x00, 0x00, 0x00, 0x70, 0x00, 0x00, 0x00,
  0x60, 0x00, 0x00, 0x00, 0x54, 0x00, 0x00, 0x00, 0x4c, 0x00, 0x00, 0x00,
  0x40, 0x00, 0x00, 0x00, 0x34, 0x00, 0x00, 0x00, 0x28, 0x00, 0x00, 0x00,
  0x1c, 0x00, 0x00, 0x00, 0x10, 0x00, 0x00, 0x00, 0x04, 0x00, 0x00, 0x00,
  0xbe, 0xff, 0xff, 0xff, 0x54, 0x00, 0x00, 0x00, 0xc6, 0xff, 0xff, 0xff,
  0x38, 0x01, 0x00, 0x00, 0xce, 0xff, 0xff, 0xff, 0x90, 0x01, 0x00, 0x00,
  0xd6, 0xff, 0xff, 0xff, 0x00, 0x02, 0x00, 0x00, 0xde, 0xff, 0xff, 0xff,
  0xa8, 0x02, 0x00, 0x00, 0xe6, 0xff, 0xff, 0xff, 0x18, 0x03, 0x00, 0x00,
  0xc4, 0xfa, 0xff, 0xff, 0xc8, 0xfa, 0xff, 0xff, 0x04, 0x00, 0x06, 0x00,
  0x04, 0x00, 0x00, 0x00, 0x00, 0x00, 0x06, 0x00, 0x08, 0x00, 0x04, 0x00,
  0x06, 0x00, 0x00, 0x00, 0x6c, 0x04, 0x00, 0x00, 0xe4, 0xfa, 0xff, 0xff,
  0xe8, 0xfa, 0xff, 0xff, 0x05, 0x00, 0x00, 0x00, 0x31, 0x2e, 0x35, 0x2e,
  0x30, 0x00, 0x00, 0x00, 0x60, 0xfb, 0xff, 0xff, 0x08, 0x00, 0x00, 0x00,
  0x0b, 0x00, 0x00, 0x00, 0x13, 0x00, 0x00, 0x00, 0x6d, 0x69, 0x6e, 0x5f,
  0x72, 0x75, 0x6e, 0x74, 0x69, 0x6d, 0x65, 0x5f, 0x76, 0x65, 0x72, 0x73,
  0x69, 0x6f, 0x6e, 0x00, 0x0c, 0x00, 0x14, 0x00, 0x04, 0x00, 0x08, 0x00,
  0x0c, 0x00, 0x10, 0x00, 0x0c, 0x00, 0x00, 0x00, 0x20, 0x00, 0x00, 0x00,
  0x14, 0x00, 0x00, 0x00, 0x08, 0x00, 0x00, 0x00, 0x84, 0x04, 0x00, 0x00,
  0x01, 0x00, 0x00, 0x00, 0x00, 0x00, 0x00, 0x00, 0x01, 0x00, 0x00, 0x00,
  0x01, 0x00, 0x00, 0x00, 0x0a, 0x00, 0x00, 0x00, 0xf0, 0x02, 0x00, 0x00,
  0x10, 0x04, 0x00, 0x00, 0x20, 0x02, 0x00, 0x00, 0xbc, 0x01, 0x00, 0x00,
  0x5c, 0x03, 0x00, 0x00, 0xec, 0x00, 0x00, 0x00, 0x88, 0x00, 0x00, 0x00,
  0x08, 0x03, 0x00, 0x00, 0x08, 0x00, 0x00, 0x00, 0x90, 0x03, 0x00, 0x00,
  0x22, 0xfc, 0xff, 0xff, 0x10, 0x00, 0x00, 0x00, 0x0a, 0x00, 0x00, 0x00,
  0x14, 0x00, 0x00, 0x00, 0x4c, 0x00, 0x00, 0x00, 0x02, 0x00, 0x00, 0x00,
  0x01, 0x00, 0x00, 0x00, 0x05, 0x00, 0x00, 0x00, 0x37, 0x00, 0x00, 0x00,
  0x73, 0x65, 0x71, 0x75, 0x65, 0x6e, 0x74, 0x69, 0x61, 0x6c, 0x5f, 0x35,
  0x34, 0x2f, 0x64, 0x65, 0x6e, 0x73, 0x65, 0x5f, 0x31, 0x33, 0x36, 0x2f,
  0x4d, 0x61, 0x74, 0x4d, 0x75, 0x6c, 0x2f, 0x52, 0x65, 0x61, 0x64, 0x56,
  0x61, 0x72, 0x69, 0x61, 0x62, 0x6c, 0x65, 0x4f, 0x70, 0x2f, 0x74, 0x72,
  0x61, 0x6e, 0x73, 0x70, 0x6f, 0x73, 0x65, 0x00, 0xd4, 0xfb, 0xff, 0xff,
  0x14, 0x00, 0x00, 0x00, 0x6d, 0x62, 0x0f, 0xbf, 0xed, 0x3f, 0x4a, 0x3f,
  0xc1, 0xd2, 0x81, 0x3e, 0x7d, 0x5c, 0x03, 0x3f, 0x02, 0x5a, 0xd3, 0xbd,
  0x9a, 0xfc, 0xff, 0xff, 0x10, 0x00, 0x00, 0x00, 0x09, 0x00, 0x00, 0x00,
  0x10, 0x00, 0x00, 0x00, 0x34, 0x00, 0x00, 0x00, 0x01, 0x00, 0x00, 0x00,
  0x05, 0x00, 0x00, 0x00, 0x23, 0x00, 0x00, 0x00, 0x73, 0x65, 0x71, 0x75,
  0x65, 0x6e, 0x74, 0x69, 0x61, 0x6c, 0x5f, 0x35, 0x34, 0x2f, 0x64, 0x65,
  0x6e, 0x73, 0x65, 0x5f, 0x31, 0x33, 0x35, 0x2f, 0x4d, 0x61, 0x74, 0x4d,
  0x75, 0x6c, 0x5f, 0x62, 0x69, 0x61, 0x73, 0x00, 0x34, 0xfc, 0xff, 0xff,
  0x14, 0x00, 0x00, 0x00, 0xbf, 0x2d, 0xe7, 0xbd, 0x85, 0x7e, 0x1e, 0x3e,
  0xf6, 0x55, 0x05, 0x3e, 0xd1, 0xea, 0x2f, 0x3e, 0x50, 0x99, 0xbd, 0xbd,
  0xfa, 0xfc, 0xff, 0xff, 0x10, 0x00, 0x00, 0x00, 0x08, 0x00, 0x00, 0x00,
  0x14, 0x00, 0x00, 0x00, 0x4c, 0x00, 0x00, 0x00, 0x02, 0x00, 0x00, 0x00,
  0x05, 0x00, 0x00, 0x00, 0x05, 0x00, 0x00, 0x00, 0x37, 0x00, 0x00, 0x00,
  0x73, 0x65, 0x71, 0x75, 0x65, 0x6e, 0x74, 0x69, 0x61, 0x6c, 0x5f, 0x35,
  0x34, 0x2f, 0x64, 0x65, 0x6e, 0x73, 0x65, 0x5f, 0x31, 0x33, 0x35, 0x2f,
  0x4d, 0x61, 0x74, 0x4d, 0x75, 0x6c, 0x2f, 0x52, 0x65, 0x61, 0x64, 0x56,
  0x61, 0x72, 0x69, 0x61, 0x62, 0x6c, 0x65, 0x4f, 0x70, 0x2f, 0x74, 0x72,
  0x61, 0x6e, 0x73, 0x70, 0x6f, 0x73, 0x65, 0x00, 0xac, 0xfc, 0xff, 0xff,
  0x64, 0x00, 0x00, 0x00, 0xb1, 0xa5, 0x95, 0x3e, 0xe5, 0xda, 0xfe, 0x3e,
  0x5b, 0x01, 0xdd, 0xbe, 0x77, 0x01, 0xd4, 0x3e, 0x51, 0x75, 0x1f, 0x3e,
  0x50, 0xd5, 0xd0, 0x3d, 0xd9, 0x65, 0x8e, 0x3e, 0x3b, 0xd1, 0x5b, 0x3f,
  0x51, 0xe6, 0x9a, 0x3e, 0xd4, 0xd9, 0x23, 0xbe, 0x96, 0x29, 0x17, 0x3f,
  0xe6, 0xd8, 0x2f, 0xbf, 0x3f, 0x7f, 0xa3, 0x3e, 0xbd, 0x8f, 0x74, 0xbe,
  0x46, 0x4d, 0xa0, 0x3e, 0x8d, 0x4c, 0xac, 0x3c, 0x07, 0x40, 0xe1, 0xbe,
  0xc6, 0x97, 0x0c, 0x3f, 0x3e, 0xc9, 0x84, 0x3e, 0xb0, 0xae, 0x0d, 0x3f,
  0xf9, 0x1c, 0x4f, 0xbf, 0x5b, 0x17, 0x44, 0x3e, 0xa6, 0x75, 0xfa, 0x3e,
  0xa9, 0xab, 0x33, 0xbf, 0xae, 0x44, 0xc4, 0xbd, 0xc2, 0xfd, 0xff, 0xff,
  0x10, 0x00, 0x00, 0x00, 0x07, 0x00, 0x00, 0x00, 0x10, 0x00, 0x00, 0x00,
  0x34, 0x00, 0x00, 0x00, 0x01, 0x00, 0x00, 0x00, 0x05, 0x00, 0x00, 0x00,
  0x23, 0x00, 0x00, 0x00, 0x73, 0x65, 0x71, 0x75, 0x65, 0x6e, 0x74, 0x69,
  0x61, 0x6c, 0x5f, 0x35, 0x34, 0x2f, 0x64, 0x65, 0x6e, 0x73, 0x65, 0x5f,
  0x31, 0x33, 0x34, 0x2f, 0x4d, 0x61, 0x74, 0x4d, 0x75, 0x6c, 0x5f, 0x62,
  0x69, 0x61, 0x73, 0x00, 0x5c, 0xfd, 0xff, 0xff, 0x14, 0x00, 0x00, 0x00,
  0x80, 0x30, 0x3a, 0x3e, 0xdd, 0x86, 0x50, 0xbe, 0x4c, 0xf0, 0x41, 0x3e,
  0x51, 0x60, 0xc8, 0x3e, 0xbe, 0xbe, 0x35, 0x3e, 0x22, 0xfe, 0xff, 0xff,
  0x10, 0x00, 0x00, 0x00, 0x06, 0x00, 0x00, 0x00, 0x14, 0x00, 0x00, 0x00,
  0x4c, 0x00, 0x00, 0x00, 0x02, 0x00, 0x00, 0x00, 0x05, 0x00, 0x00, 0x00,
  0x05, 0x00, 0x00, 0x00, 0x37, 0x00, 0x00, 0x00, 0x73, 0x65, 0x71, 0x75,
  0x65, 0x6e, 0x74, 0x69, 0x61, 0x6c, 0x5f, 0x35, 0x34, 0x2f, 0x64, 0x65,
  0x6e, 0x73, 0x65, 0x5f, 0x31, 0x33, 0x34, 0x2f, 0x4d, 0x61, 0x74, 0x4d,
  0x75, 0x6c, 0x2f, 0x52, 0x65, 0x61, 0x64, 0x56, 0x61, 0x72, 0x69, 0x61,
  0x62, 0x6c, 0x65, 0x4f, 0x70, 0x2f, 0x74, 0x72, 0x61, 0x6e, 0x73, 0x70,
  0x6f, 0x73, 0x65, 0x00, 0xd4, 0xfd, 0xff, 0xff, 0x64, 0x00, 0x00, 0x00,
  0x11, 0xd0, 0x1e, 0x3f, 0xb3, 0x10, 0xc0, 0x3c, 0x43, 0xb5, 0xba, 0x3e,
  0xdf, 0x8a, 0xe1, 0xbe, 0xd1, 0x9f, 0x48, 0x3f, 0x37, 0x0e, 0x24, 0xbf,
  0x56, 0x4b, 0x9d, 0x3e, 0xa4, 0xbd, 0xaa, 0x3e, 0xe8, 0xb0, 0x0b, 0xbf,
  0xe9, 0x9d, 0x3c, 0xbe, 0x57, 0xda, 0xb0, 0xbd, 0xe8, 0x62, 0x45, 0x3f,
  0xbe, 0x29, 0x98, 0xbe, 0x1e, 0xb8, 0xbf, 0x3e, 0xbf, 0x74, 0xe2, 0x3e,
  0xe5, 0x59, 0x0b, 0xbf, 0x53, 0x8c, 0xc2, 0x3e, 0x07, 0xb8, 0xab, 0x3d,
  0xaf, 0x9a, 0x0c, 0xbd, 0xa6, 0x98, 0x35, 0x3d, 0xf4, 0x57, 0xc9, 0x3e,
  0x6f, 0x88, 0xf5, 0x3e, 0x88, 0xae, 0xfb, 0xbe, 0x34, 0xc0, 0x55, 0x3f,
  0xc5, 0x13, 0x25, 0xbe, 0xea, 0xfe, 0xff, 0xff, 0x10, 0x00, 0x00, 0x00,
  0x05, 0x00, 0x00, 0x00, 0x14, 0x00, 0x00, 0x00, 0x20, 0x00, 0x00, 0x00,
  0x02, 0x00, 0x00, 0x00, 0x01, 0x00, 0x00, 0x00, 0x01, 0x00, 0x00, 0x00,
  0x08, 0x00, 0x00, 0x00, 0x49, 0x64, 0x65, 0x6e, 0x74, 0x69, 0x74, 0x79,
  0x00, 0x00, 0x00, 0x00, 0x70, 0xfe, 0xff, 0xff, 0x1e, 0xff, 0xff, 0xff,
  0x10, 0x00, 0x00, 0x00, 0x04, 0x00, 0x00, 0x00, 0x14, 0x00, 0x00, 0x00,
  0x34, 0x00, 0x00, 0x00, 0x02, 0x00, 0x00, 0x00, 0x01, 0x00, 0x00, 0x00,
  0x05, 0x00, 0x00, 0x00, 0x1c, 0x00, 0x00, 0x00, 0x73, 0x65, 0x71, 0x75,
  0x65, 0x6e, 0x74, 0x69, 0x61, 0x6c, 0x5f, 0x35, 0x34, 0x2f, 0x64, 0x65,
  0x6e, 0x73, 0x65, 0x5f, 0x31, 0x33, 0x35, 0x2f, 0x52, 0x65, 0x6c, 0x75,
  0x00, 0x00, 0x00, 0x00, 0xb8, 0xfe, 0xff, 0xff, 0x66, 0xff, 0xff, 0xff,
  0x10, 0x00, 0x00, 0x00, 0x03, 0x00, 0x00, 0x00, 0x14, 0x00, 0x00, 0x00,
  0x34, 0x00, 0x00, 0x00, 0x02, 0x00, 0x00, 0x00, 0x01, 0x00, 0x00, 0x00,
  0x05, 0x00, 0x00, 0x00, 0x1c, 0x00, 0x00, 0x00, 0x73, 0x65, 0x71, 0x75,
  0x65, 0x6e, 0x74, 0x69, 0x61, 0x6c, 0x5f, 0x35, 0x34, 0x2f, 0x64, 0x65,
  0x6e, 0x73, 0x65, 0x5f, 0x31, 0x33, 0x34, 0x2f, 0x52, 0x65, 0x6c, 0x75,
  0x00, 0x00, 0x00, 0x00, 0x00, 0xff, 0xff, 0xff, 0xae, 0xff, 0xff, 0xff,
  0x10, 0x00, 0x00, 0x00, 0x02, 0x00, 0x00, 0x00, 0x10, 0x00, 0x00, 0x00,
  0x34, 0x00, 0x00, 0x00, 0x01, 0x00, 0x00, 0x00, 0x01, 0x00, 0x00, 0x00,
  0x23, 0x00, 0x00, 0x00, 0x73, 0x65, 0x71, 0x75, 0x65, 0x6e, 0x74, 0x69,
  0x61, 0x6c, 0x5f, 0x35, 0x34, 0x2f, 0x64, 0x65, 0x6e, 0x73, 0x65, 0x5f,
  0x31, 0x33, 0x36, 0x2f, 0x4d, 0x61, 0x74, 0x4d, 0x75, 0x6c, 0x5f, 0x62,
  0x69, 0x61, 0x73, 0x00, 0x48, 0xff, 0xff, 0xff, 0x04, 0x00, 0x00, 0x00,
  0x47, 0xb5, 0x0c, 0x3e, 0x00, 0x00, 0x0e, 0x00, 0x14, 0x00, 0x04, 0x00,
  0x00, 0x00, 0x08, 0x00, 0x0c, 0x00, 0x10, 0x00, 0x0e, 0x00, 0x00, 0x00,
  0x10, 0x00, 0x00, 0x00, 0x01, 0x00, 0x00, 0x00, 0x14, 0x00, 0x00, 0x00,
  0x2c, 0x00, 0x00, 0x00, 0x02, 0x00, 0x00, 0x00, 0x01, 0x00, 0x00, 0x00,
  0x05, 0x00, 0x00, 0x00, 0x0f, 0x00, 0x00, 0x00, 0x64, 0x65, 0x6e, 0x73,
  0x65, 0x5f, 0x31, 0x33, 0x34, 0x5f, 0x69, 0x6e, 0x70, 0x75, 0x74, 0x00,
  0x08, 0x00, 0x0c, 0x00, 0x04, 0x00, 0x08, 0x00, 0x08, 0x00, 0x00, 0x00,
  0x10, 0x00, 0x00, 0x00, 0x04, 0x00, 0x00, 0x00, 0x01, 0x00, 0x00, 0x00,
  0x00, 0x00, 0x7f, 0x43, 0x01, 0x00, 0x00, 0x00, 0x00, 0x00, 0x00, 0x00,
  0x03, 0x00, 0x00, 0x00, 0x98, 0x00, 0x00, 0x00, 0x44, 0x00, 0x00, 0x00,
  0x04, 0x00, 0x00, 0x00, 0x88, 0xff, 0xff, 0xff, 0x00, 0x00, 0x00, 0x08,
  0x10, 0x00, 0x00, 0x00, 0x1c, 0x00, 0x00, 0x00, 0x28, 0x00, 0x00, 0x00,
  0x1c, 0x00, 0x00, 0x00, 0x03, 0x00, 0x00, 0x00, 0x07, 0x00, 0x00, 0x00,
  0x08, 0x00, 0x00, 0x00, 0x09, 0x00, 0x00, 0x00, 0x01, 0x00, 0x00, 0x00,
  0x00, 0x00, 0x00, 0x00, 0x00, 0x00, 0x00, 0x00, 0x04, 0x00, 0x04, 0x00,
  0x04, 0x00, 0x00, 0x00, 0xc4, 0xff, 0xff, 0xff, 0x00, 0x00, 0x00, 0x08,
  0x10, 0x00, 0x00, 0x00, 0x1c, 0x00, 0x00, 0x00, 0x24, 0x00, 0x00, 0x00,
  0x1c, 0x00, 0x00, 0x00, 0x03, 0x00, 0x00, 0x00, 0x04, 0x00, 0x00, 0x00,
  0x05, 0x00, 0x00, 0x00, 0x06, 0x00, 0x00, 0x00, 0x01, 0x00, 0x00, 0x00,
  0x07, 0x00, 0x00, 0x00, 0x00, 0x00, 0x00, 0x00, 0x8e, 0xff, 0xff, 0xff,
  0x00, 0x00, 0x00, 0x01, 0x14, 0x00, 0x18, 0x00, 0x00, 0x00, 0x08, 0x00,
  0x0c, 0x00, 0x07, 0x00, 0x10, 0x00, 0x00, 0x00, 0x00, 0x00, 0x14, 0x00,
  0x14, 0x00, 0x00, 0x00, 0x00, 0x00, 0x00, 0x08, 0x10, 0x00, 0x00, 0x00,
  0x1c, 0x00, 0x00, 0x00, 0x24, 0x00, 0x00, 0x00, 0x1c, 0x00, 0x00, 0x00,
  0x03, 0x00, 0x00, 0x00, 0x01, 0x00, 0x00, 0x00, 0x02, 0x00, 0x00, 0x00,
  0x03, 0x00, 0x00, 0x00, 0x01, 0x00, 0x00, 0x00, 0x04, 0x00, 0x00, 0x00,
  0x00, 0x00, 0x00, 0x00, 0xde, 0xff, 0xff, 0xff, 0x00, 0x00, 0x00, 0x01,
  0x01, 0x00, 0x00, 0x00, 0x04, 0x00, 0x00, 0x00, 0xfa, 0xff, 0xff, 0xff,
  0x00, 0x09, 0x06, 0x00, 0x06, 0x00, 0x05, 0x00, 0x06, 0x00, 0x00, 0x00,
  0x00, 0x09, 0x06, 0x00, 0x08, 0x00, 0x07, 0x00, 0x06, 0x00, 0x00, 0x00,
  0x00, 0x00, 0x00, 0x09
};
unsigned int model_tflite_len = 1720;
