unsigned char DNN_IV_22_tflite[] = {
  0x1c, 0x00, 0x00, 0x00, 0x54, 0x46, 0x4c, 0x33, 0x00, 0x00, 0x12, 0x00,
  0x1c, 0x00, 0x04, 0x00, 0x08, 0x00, 0x0c, 0x00, 0x10, 0x00, 0x14, 0x00,
  0x00, 0x00, 0x18, 0x00, 0x12, 0x00, 0x00, 0x00, 0x03, 0x00, 0x00, 0x00,
  0x1c, 0x20, 0x00, 0x00, 0x10, 0x00, 0x00, 0x00, 0x1c, 0x00, 0x00, 0x00,
  0x2c, 0x00, 0x00, 0x00, 0x0c, 0x00, 0x00, 0x00, 0x01, 0x00, 0x00, 0x00,
  0xe0, 0x00, 0x00, 0x00, 0x01, 0x00, 0x00, 0x00, 0xa8, 0x00, 0x00, 0x00,
  0x0f, 0x00, 0x00, 0x00, 0x54, 0x4f, 0x43, 0x4f, 0x20, 0x43, 0x6f, 0x6e,
  0x76, 0x65, 0x72, 0x74, 0x65, 0x64, 0x2e, 0x00, 0x0b, 0x00, 0x00, 0x00,
  0x7c, 0x00, 0x00, 0x00, 0x74, 0x00, 0x00, 0x00, 0x6c, 0x00, 0x00, 0x00,
  0x64, 0x00, 0x00, 0x00, 0x5c, 0x00, 0x00, 0x00, 0x50, 0x00, 0x00, 0x00,
  0x3c, 0x00, 0x00, 0x00, 0x28, 0x00, 0x00, 0x00, 0x1c, 0x00, 0x00, 0x00,
  0x10, 0x00, 0x00, 0x00, 0x04, 0x00, 0x00, 0x00, 0xce, 0xff, 0xff, 0xff,
  0x50, 0x00, 0x00, 0x00, 0xd6, 0xff, 0xff, 0xff, 0x1c, 0x01, 0x00, 0x00,
  0xde, 0xff, 0xff, 0xff, 0xd4, 0x01, 0x00, 0x00, 0xf6, 0xff, 0xff, 0xff,
  0x74, 0x0a, 0x00, 0x00, 0x00, 0x00, 0x06, 0x00, 0x0a, 0x00, 0x04, 0x00,
  0x06, 0x00, 0x00, 0x00, 0xb4, 0x13, 0x00, 0x00, 0x00, 0x00, 0x06, 0x00,
  0x08, 0x00, 0x04, 0x00, 0x06, 0x00, 0x00, 0x00, 0x6c, 0x14, 0x00, 0x00,
  0x20, 0xe1, 0xff, 0xff, 0x24, 0xe1, 0xff, 0xff, 0x28, 0xe1, 0xff, 0xff,
  0x2c, 0xe1, 0xff, 0xff, 0x30, 0xe1, 0xff, 0xff, 0x05, 0x00, 0x00, 0x00,
  0x31, 0x2e, 0x35, 0x2e, 0x30, 0x00, 0x00, 0x00, 0xa8, 0xe1, 0xff, 0xff,
  0x08, 0x00, 0x00, 0x00, 0x0a, 0x00, 0x00, 0x00, 0x13, 0x00, 0x00, 0x00,
  0x6d, 0x69, 0x6e, 0x5f, 0x72, 0x75, 0x6e, 0x74, 0x69, 0x6d, 0x65, 0x5f,
  0x76, 0x65, 0x72, 0x73, 0x69, 0x6f, 0x6e, 0x00, 0x0c, 0x00, 0x14, 0x00,
  0x04, 0x00, 0x08, 0x00, 0x0c, 0x00, 0x10, 0x00, 0x0c, 0x00, 0x00, 0x00,
  0x20, 0x00, 0x00, 0x00, 0x14, 0x00, 0x00, 0x00, 0x08, 0x00, 0x00, 0x00,
  0x3c, 0x1e, 0x00, 0x00, 0x01, 0x00, 0x00, 0x00, 0x00, 0x00, 0x00, 0x00,
  0x01, 0x00, 0x00, 0x00, 0x01, 0x00, 0x00, 0x00, 0x09, 0x00, 0x00, 0x00,
  0xf4, 0x1c, 0x00, 0x00, 0xc8, 0x1d, 0x00, 0x00, 0x84, 0x13, 0x00, 0x00,
  0xd0, 0x12, 0x00, 0x00, 0x60, 0x1d, 0x00, 0x00, 0x60, 0x09, 0x00, 0x00,
  0x10, 0x1d, 0x00, 0x00, 0xb0, 0x00, 0x00, 0x00, 0x04, 0x00, 0x00, 0x00,
  0x66, 0xe2, 0xff, 0xff, 0x10, 0x00, 0x00, 0x00, 0x09, 0x00, 0x00, 0x00,
  0x10, 0x00, 0x00, 0x00, 0x38, 0x00, 0x00, 0x00, 0x01, 0x00, 0x00, 0x00,
  0x16, 0x00, 0x00, 0x00, 0x24, 0x00, 0x00, 0x00, 0x73, 0x65, 0x71, 0x75,
  0x65, 0x6e, 0x74, 0x69, 0x61, 0x6c, 0x5f, 0x31, 0x32, 0x39, 0x2f, 0x64,
  0x65, 0x6e, 0x73, 0x65, 0x5f, 0x33, 0x32, 0x34, 0x2f, 0x4d, 0x61, 0x74,
  0x4d, 0x75, 0x6c, 0x5f, 0x62, 0x69, 0x61, 0x73, 0x00, 0x00, 0x00, 0x00,
  0x04, 0xe2, 0xff, 0xff, 0x58, 0x00, 0x00, 0x00, 0x00, 0x00, 0x00, 0x00,
  0x00, 0x00, 0x00, 0x00, 0x00, 0x00, 0x00, 0x00, 0x00, 0x00, 0x00, 0x00,
  0x00, 0x00, 0x00, 0x00, 0x00, 0x00, 0x00, 0x00, 0x00, 0x00, 0x00, 0x00,
  0x00, 0x00, 0x00, 0x00, 0x00, 0x00, 0x00, 0x00, 0x00, 0x00, 0x00, 0x00,
  0x00, 0x00, 0x00, 0x00, 0x00, 0x00, 0x00, 0x00, 0x00, 0x00, 0x00, 0x00,
  0x00, 0x00, 0x00, 0x00, 0x00, 0x00, 0x00, 0x00, 0x00, 0x00, 0x00, 0x00,
  0x00, 0x00, 0x00, 0x00, 0x00, 0x00, 0x00, 0x00, 0x00, 0x00, 0x00, 0x00,
  0x00, 0x00, 0x00, 0x00, 0x00, 0x00, 0x00, 0x00, 0x00, 0x00, 0x00, 0x00,
  0x0e, 0xe3, 0xff, 0xff, 0x10, 0x00, 0x00, 0x00, 0x08, 0x00, 0x00, 0x00,
  0x14, 0x00, 0x00, 0x00, 0x50, 0x00, 0x00, 0x00, 0x02, 0x00, 0x00, 0x00,
  0x16, 0x00, 0x00, 0x00, 0x18, 0x00, 0x00, 0x00, 0x38, 0x00, 0x00, 0x00,
  0x73, 0x65, 0x71, 0x75, 0x65, 0x6e, 0x74, 0x69, 0x61, 0x6c, 0x5f, 0x31,
  0x32, 0x39, 0x2f, 0x64, 0x65, 0x6e, 0x73, 0x65, 0x5f, 0x33, 0x32, 0x34,
  0x2f, 0x4d, 0x61, 0x74, 0x4d, 0x75, 0x6c, 0x2f, 0x52, 0x65, 0x61, 0x64,
  0x56, 0x61, 0x72, 0x69, 0x61, 0x62, 0x6c, 0x65, 0x4f, 0x70, 0x2f, 0x74,
  0x72, 0x61, 0x6e, 0x73, 0x70, 0x6f, 0x73, 0x65, 0x00, 0x00, 0x00, 0x00,
  0xc4, 0xe2, 0xff, 0xff, 0x40, 0x08, 0x00, 0x00, 0xf2, 0xac, 0x15, 0xbe,
  0xe2, 0x45, 0x52, 0x3e, 0xf8, 0xc0, 0x30, 0xbd, 0x80, 0x01, 0x90, 0xbc,
  0xd5, 0x2d, 0x5a, 0xbe, 0x2e, 0xa5, 0x4f, 0x3e, 0x5a, 0xde, 0x7d, 0xbe,
  0x66, 0x13, 0x5b, 0x3e, 0x70, 0x0c, 0x83, 0x3c, 0x56, 0xd6, 0x02, 0x3e,
  0x19, 0x04, 0xb8, 0x3e, 0xee, 0x3f, 0x1a, 0x3e, 0x20, 0x28, 0x4e, 0x3d,
  0x27, 0x0b, 0xb7, 0x3e, 0x98, 0x63, 0x0a, 0xbe, 0x53, 0xd8, 0xac, 0x3e,
  0x2b, 0x21, 0xb3, 0xbe, 0xc0, 0xbc, 0x90, 0x3c, 0x94, 0xfc, 0xf0, 0x3d,
  0x00, 0x0f, 0xab, 0xbb, 0x00, 0x11, 0x15, 0xbc, 0xb0, 0xc5, 0x30, 0xbd,
  0x58, 0xa6, 0x05, 0x3d, 0x80, 0x0b, 0x13, 0x3c, 0x68, 0xfa, 0xea, 0xbd,
  0x00, 0x62, 0x33, 0xba, 0x18, 0x71, 0x85, 0xbe, 0x00, 0x1c, 0xe8, 0x3c,
  0xaf, 0xef, 0xae, 0xbe, 0x1c, 0x1d, 0xc5, 0x3d, 0x30, 0xce, 0xea, 0x3c,
  0xc0, 0x2b, 0x6e, 0xbe, 0x40, 0x6d, 0xbc, 0x3d, 0x5c, 0x16, 0x98, 0xbd,
  0xc6, 0xd4, 0x50, 0x3e, 0x6c, 0x2a, 0x74, 0xbe, 0xc8, 0xc7, 0x3c, 0xbe,
  0x50, 0x91, 0x05, 0xbd, 0xa4, 0xde, 0x26, 0xbe, 0x4a, 0x5a, 0x18, 0x3e,
  0x19, 0x63, 0xb2, 0xbe, 0x00, 0x7d, 0x45, 0xbd, 0x50, 0x01, 0xe9, 0x3c,
  0xe8, 0x23, 0x7b, 0x3d, 0x3b, 0x9a, 0xaf, 0xbe, 0x68, 0xc5, 0x1b, 0xbd,
  0xec, 0x45, 0xf0, 0x3d, 0x68, 0x67, 0xb5, 0x3d, 0xf0, 0x54, 0x78, 0x3d,
  0x28, 0xdd, 0xa4, 0xbe, 0x9d, 0x8a, 0x85, 0x3e, 0xf1, 0xc7, 0xa3, 0x3e,
  0xa0, 0xdb, 0xdd, 0xbc, 0x0d, 0xca, 0x3a, 0xbe, 0x70, 0xd9, 0x9e, 0x3d,
  0x28, 0x5e, 0x72, 0xbd, 0xf7, 0x15, 0x82, 0x3e, 0xb8, 0x90, 0x8d, 0xbd,
  0x94, 0xce, 0x79, 0xbe, 0x8a, 0xcf, 0x24, 0x3e, 0x14, 0xa8, 0xfd, 0x3d,
  0x27, 0xdb, 0x9b, 0x3e, 0x5a, 0xef, 0x5c, 0x3e, 0xe5, 0x05, 0x61, 0xbe,
  0x2b, 0x1a, 0xa7, 0x3e, 0xb0, 0x8b, 0xc3, 0xbd, 0xdc, 0xf2, 0xb7, 0xbe,
  0xf5, 0x6a, 0x96, 0xbe, 0xa8, 0xb2, 0xa9, 0xbd, 0x1a, 0x6f, 0x94, 0xbe,
  0xa0, 0xb9, 0xaa, 0xbd, 0x37, 0x02, 0x9e, 0x3e, 0x82, 0x54, 0x86, 0xbe,
  0xee, 0xf5, 0x7d, 0x3e, 0x00, 0x99, 0xe5, 0x3d, 0x11, 0x1d, 0x80, 0x3e,
  0xd2, 0x9a, 0x7f, 0x3e, 0x0e, 0x9f, 0x5a, 0xbe, 0xf1, 0x0c, 0xa2, 0x3e,
  0xf0, 0xbc, 0x3f, 0x3d, 0xe1, 0xe1, 0xaa, 0x3e, 0xa1, 0x56, 0x90, 0xbe,
  0xec, 0x2b, 0x93, 0xbe, 0x78, 0x32, 0x4a, 0xbd, 0x10, 0xf0, 0xa7, 0xbe,
  0xd8, 0x2c, 0xc6, 0x3d, 0x71, 0xe9, 0x8b, 0xbe, 0xfe, 0x83, 0x37, 0x3e,
  0x00, 0xc8, 0x39, 0xbb, 0x6a, 0xd6, 0x17, 0x3e, 0xcf, 0x01, 0x80, 0x3e,
  0xfb, 0xef, 0x29, 0xbe, 0xe0, 0x00, 0xed, 0x3c, 0xc8, 0xf3, 0x46, 0xbd,
  0x98, 0xc8, 0x51, 0x3d, 0x40, 0xed, 0x47, 0x3d, 0xec, 0x5a, 0x96, 0xbe,
  0xf5, 0xc9, 0x89, 0x3e, 0x80, 0x43, 0xfe, 0xbb, 0xb8, 0xe7, 0x1a, 0xbd,
  0xd8, 0xa2, 0x4e, 0xbd, 0xc3, 0x84, 0x70, 0xbe, 0x60, 0x20, 0xbf, 0x3c,
  0x72, 0xe4, 0x30, 0x3e, 0x8e, 0x30, 0x84, 0xbe, 0x62, 0x7f, 0x57, 0xbe,
  0xe0, 0xe9, 0x01, 0x3e, 0x65, 0xc9, 0xb4, 0xbe, 0x90, 0xf8, 0x8d, 0x3c,
  0xbc, 0x20, 0x2a, 0xbe, 0x28, 0x9d, 0x57, 0xbe, 0xd2, 0x95, 0xa0, 0xbe,
  0x7f, 0x8e, 0x0b, 0xbe, 0x5c, 0xb6, 0xad, 0xbe, 0xe0, 0xa9, 0x10, 0xbc,
  0xcd, 0x9c, 0x43, 0xbe, 0x90, 0x60, 0x1a, 0x3d, 0xf9, 0xf5, 0x41, 0xbe,
  0xf8, 0xc7, 0xfb, 0xbd, 0x09, 0xc5, 0x84, 0x3e, 0x7a, 0xc6, 0x2b, 0xbe,
  0xf0, 0x7a, 0xa6, 0xbc, 0xb3, 0xb6, 0x9b, 0x3e, 0x11, 0x14, 0x21, 0xbe,
  0x82, 0xe1, 0x2a, 0x3e, 0x6f, 0x25, 0xa8, 0x3e, 0x93, 0x97, 0x14, 0xbe,
  0x52, 0x3b, 0x5b, 0xbe, 0x11, 0x7f, 0x80, 0x3e, 0x1c, 0xbf, 0xf7, 0x3d,
  0x72, 0x6d, 0xe6, 0xbd, 0xb8, 0x0a, 0xa8, 0xbe, 0x24, 0x35, 0xb1, 0x3d,
  0x20, 0x3d, 0x46, 0xbd, 0xa0, 0x24, 0xf3, 0xbc, 0xbe, 0xb7, 0x82, 0xbe,
  0x4e, 0x05, 0x75, 0x3e, 0xc0, 0x46, 0xb7, 0x3b, 0xce, 0x0b, 0x58, 0xbe,
  0xa0, 0x54, 0x89, 0xbe, 0xc9, 0x61, 0x3e, 0xbe, 0x00, 0xe8, 0x46, 0xba,
  0x57, 0x8d, 0xb2, 0x3e, 0x9a, 0x90, 0x25, 0x3e, 0x60, 0xef, 0xb1, 0xbc,
  0xf8, 0xeb, 0xd3, 0xbd, 0x8e, 0xd3, 0x5a, 0x3e, 0x47, 0x23, 0x89, 0x3e,
  0xc4, 0x9f, 0x9a, 0x3d, 0xac, 0xa7, 0x0a, 0x3e, 0xf6, 0x69, 0xb5, 0xbe,
  0x5a, 0x54, 0x1e, 0xbe, 0xf8, 0xf1, 0x78, 0xbd, 0xcd, 0xb8, 0x81, 0x3e,
  0x0d, 0x30, 0xaa, 0xbe, 0x83, 0x16, 0xa2, 0x3e, 0xa2, 0xd0, 0x1b, 0xbe,
  0x51, 0x33, 0xab, 0x3e, 0xd3, 0x91, 0x20, 0xbe, 0x71, 0x20, 0xa9, 0x3e,
  0xbb, 0x9b, 0x54, 0xbe, 0xb4, 0x3a, 0x09, 0x3e, 0x90, 0x08, 0x35, 0x3d,
  0x2e, 0x79, 0x4c, 0x3e, 0x0d, 0xee, 0x87, 0xbe, 0x04, 0xfe, 0x03, 0xbe,
  0x7c, 0xea, 0xa8, 0xbd, 0xda, 0x00, 0xaf, 0xbe, 0x50, 0x87, 0xd5, 0x3d,
  0x78, 0x98, 0xaf, 0xbd, 0x3a, 0x28, 0x3a, 0x3e, 0x7e, 0x73, 0x0c, 0xbe,
  0xa8, 0x92, 0xa1, 0xbd, 0xc6, 0x40, 0x72, 0x3e, 0x3a, 0xb2, 0x6f, 0xbe,
  0xee, 0xc1, 0x79, 0x3e, 0xed, 0x2e, 0x01, 0xbe, 0xe6, 0x3b, 0x3c, 0x3e,
  0xa8, 0xb2, 0x8c, 0x3d, 0xa2, 0xc2, 0x67, 0x3e, 0xf6, 0xb4, 0x0e, 0xbe,
  0xf3, 0xad, 0x54, 0xbe, 0x0a, 0x8b, 0xfc, 0xbd, 0x2a, 0x31, 0x58, 0x3e,
  0xd4, 0x77, 0xbd, 0xbd, 0xb0, 0xf6, 0xbf, 0xbc, 0xc0, 0x19, 0x4c, 0xbe,
  0xe4, 0x83, 0x3e, 0xbe, 0x40, 0x27, 0x0d, 0x3d, 0xab, 0x22, 0xab, 0x3e,
  0xb9, 0x7a, 0x35, 0xbe, 0xae, 0xab, 0x38, 0x3e, 0xd6, 0xb8, 0x25, 0x3e,
  0x31, 0x4e, 0xab, 0x3e, 0x80, 0x06, 0xfa, 0xbc, 0x64, 0xb5, 0xeb, 0x3d,
  0xa4, 0xa9, 0xbc, 0x3d, 0xc6, 0xe1, 0x64, 0xbe, 0x6e, 0xe0, 0x68, 0x3e,
  0x9f, 0x49, 0x49, 0xbe, 0xc0, 0x18, 0xda, 0xbd, 0xd0, 0x50, 0x5f, 0x3d,
  0xdf, 0x35, 0x81, 0x3e, 0x4c, 0xca, 0x9c, 0xbe, 0x04, 0xa2, 0x02, 0xbe,
  0x23, 0xc5, 0x19, 0xbe, 0x63, 0xd1, 0x1d, 0xbe, 0x61, 0xdd, 0xb4, 0x3e,
  0xfd, 0x02, 0x96, 0x3e, 0xea, 0x9e, 0x5a, 0x3e, 0xd9, 0x2c, 0xa8, 0xbe,
  0xa6, 0xa2, 0x87, 0xbe, 0x17, 0xbb, 0x9d, 0x3e, 0x49, 0xc5, 0xa2, 0x3e,
  0x70, 0x37, 0xe2, 0xbd, 0x78, 0xa2, 0xfc, 0xbd, 0x08, 0x3d, 0x9c, 0xbd,
  0xa1, 0x7f, 0x0a, 0xbe, 0x38, 0x6d, 0xa7, 0xbe, 0x29, 0xe4, 0x91, 0x3e,
  0xef, 0xa0, 0x9f, 0xbe, 0x17, 0x4f, 0xad, 0x3e, 0xc0, 0x4d, 0xfd, 0xbb,
  0x31, 0x82, 0xaf, 0xbe, 0xc4, 0xe6, 0x96, 0xbd, 0x08, 0xfb, 0x98, 0xbd,
  0x90, 0xe9, 0xdb, 0x3d, 0x48, 0x98, 0x4b, 0xbd, 0x54, 0xfd, 0xcf, 0x3d,
  0x38, 0x08, 0x43, 0x3d, 0x76, 0x4a, 0x16, 0x3e, 0xee, 0x56, 0x1b, 0x3e,
  0x7a, 0x39, 0x73, 0x3e, 0xcd, 0x06, 0xa0, 0x3e, 0x8a, 0xb1, 0xa2, 0xbe,
  0x80, 0x32, 0xd8, 0xbd, 0xf4, 0x2d, 0xc2, 0xbd, 0x76, 0xe1, 0x5a, 0xbe,
  0x80, 0x51, 0x49, 0x3c, 0x42, 0xcb, 0x22, 0x3e, 0x28, 0x1b, 0x93, 0x3d,
  0x9a, 0x2d, 0x2d, 0x3e, 0xde, 0x69, 0x4f, 0x3e, 0xe6, 0x95, 0x6b, 0x3e,
  0x97, 0x4f, 0x93, 0x3e, 0x93, 0xd4, 0x8e, 0xbe, 0xf8, 0xd0, 0xa5, 0xbe,
  0xb0, 0x9d, 0xf8, 0xbc, 0xc0, 0xac, 0x55, 0x3d, 0x18, 0x25, 0x80, 0xbe,
  0xd7, 0x9a, 0xa2, 0x3e, 0x60, 0x3a, 0xb1, 0x3d, 0x80, 0xe1, 0xbb, 0x3b,
  0x18, 0xe0, 0x07, 0xbd, 0xf4, 0xa0, 0x94, 0xbe, 0x9e, 0x74, 0x1f, 0x3e,
  0x59, 0x91, 0xa4, 0x3e, 0x8c, 0xb7, 0xf3, 0x3d, 0xe6, 0xd2, 0x24, 0x3e,
  0x5c, 0x4b, 0xb6, 0xbe, 0xe2, 0x9a, 0x0c, 0x3e, 0x29, 0x73, 0x8a, 0x3e,
  0x22, 0x04, 0xfe, 0xbd, 0xce, 0x93, 0x4c, 0x3e, 0xd0, 0x6f, 0x36, 0xbd,
  0xf6, 0xbd, 0x10, 0x3e, 0x98, 0xfa, 0x45, 0xbd, 0x20, 0x6f, 0x42, 0x3c,
  0x60, 0xa8, 0xbe, 0x3d, 0x7a, 0x1e, 0x57, 0x3e, 0x62, 0x9a, 0x74, 0x3e,
  0x2c, 0x93, 0x75, 0xbe, 0x90, 0xf3, 0xb8, 0x3c, 0x36, 0xfc, 0x77, 0x3e,
  0x8f, 0xff, 0xb1, 0x3e, 0x3f, 0x45, 0x5f, 0xbe, 0x9e, 0x6d, 0x5d, 0x3e,
  0x54, 0x37, 0xa4, 0xbd, 0xb8, 0x4c, 0x98, 0x3d, 0x8d, 0xe8, 0x93, 0x3e,
  0x48, 0xd8, 0x91, 0xbd, 0xa9, 0xcc, 0xa5, 0xbe, 0xe8, 0x4f, 0x11, 0xbe,
  0xda, 0x14, 0x6c, 0xbe, 0x8a, 0x83, 0x40, 0xbe, 0xfa, 0xc7, 0x8e, 0xbe,
  0xab, 0xf5, 0x92, 0x3e, 0xf5, 0x9f, 0x5a, 0xbe, 0x64, 0x1d, 0xb7, 0x3d,
  0xb5, 0x96, 0x84, 0x3e, 0x98, 0x8b, 0x1c, 0xbd, 0x20, 0xd8, 0x8b, 0xbc,
  0x59, 0x30, 0xa8, 0x3e, 0xe8, 0x21, 0x94, 0x3d, 0xc8, 0x22, 0x48, 0xbe,
  0xc0, 0xd1, 0xc9, 0xbb, 0x96, 0x3c, 0x7e, 0x3e, 0x5e, 0xab, 0x73, 0x3e,
  0xc8, 0x91, 0xd7, 0x3d, 0xe0, 0x06, 0x27, 0xbc, 0x52, 0x58, 0x0e, 0x3e,
  0x6b, 0xf1, 0x9f, 0x3e, 0xd6, 0xb1, 0x4d, 0xbe, 0x40, 0x40, 0xd6, 0xbc,
  0xcb, 0x31, 0x9e, 0xbe, 0x40, 0x32, 0x71, 0xbe, 0x2b, 0x36, 0xa7, 0x3e,
  0x00, 0x40, 0x4a, 0xb8, 0x31, 0x18, 0x08, 0xbe, 0xef, 0xc7, 0x50, 0xbe,
  0x4d, 0x36, 0x1c, 0xbe, 0xc0, 0x17, 0x15, 0xbd, 0x39, 0xe2, 0x8f, 0xbe,
  0x24, 0x84, 0x97, 0x3d, 0x72, 0x4a, 0x57, 0x3e, 0x4b, 0x7c, 0x5d, 0xbe,
  0x7c, 0x86, 0x97, 0x3d, 0x67, 0xa8, 0x9b, 0x3e, 0xcb, 0x55, 0xb4, 0x3e,
  0xe2, 0xee, 0xb0, 0xbe, 0xdf, 0xcd, 0x91, 0xbe, 0x78, 0x58, 0x84, 0xbd,
  0x80, 0x44, 0xa6, 0x3b, 0xf0, 0xad, 0x73, 0xbd, 0x6c, 0xde, 0xac, 0xbe,
  0xf8, 0xf6, 0x1b, 0xbd, 0xe0, 0xb0, 0x42, 0x3c, 0x45, 0x8a, 0x9c, 0xbe,
  0xd8, 0xf9, 0xd4, 0xbd, 0x10, 0xf6, 0xea, 0x3c, 0x10, 0xf6, 0x6a, 0xbd,
  0x37, 0x20, 0x0d, 0xbe, 0x7f, 0xa2, 0xb5, 0x3e, 0x84, 0xf6, 0x8d, 0x3d,
  0x50, 0xdb, 0x8b, 0x3d, 0x9c, 0x84, 0xde, 0x3d, 0x10, 0x58, 0x57, 0xbe,
  0xc2, 0xc7, 0x16, 0x3e, 0x93, 0x2d, 0xb6, 0xbe, 0xa3, 0x4e, 0x3c, 0xbe,
  0x5b, 0x5e, 0x44, 0xbe, 0x04, 0xf4, 0x93, 0xbe, 0x9d, 0x26, 0xa4, 0x3e,
  0x99, 0x1d, 0x98, 0x3e, 0xd4, 0x65, 0x9f, 0xbe, 0xc1, 0xe2, 0xa6, 0x3e,
  0xce, 0xfb, 0x3c, 0x3e, 0x9e, 0xfe, 0x75, 0x3e, 0x94, 0x2c, 0x55, 0xbe,
  0xb5, 0x8d, 0xab, 0x3e, 0x9a, 0xcf, 0x82, 0xbe, 0x50, 0x73, 0x92, 0x3d,
  0x00, 0x4f, 0xdc, 0x3b, 0xb0, 0x22, 0xb5, 0xbd, 0xcf, 0xa0, 0x92, 0x3e,
  0x59, 0x9e, 0xa1, 0x3e, 0xbe, 0xeb, 0x49, 0x3e, 0x0d, 0xed, 0x08, 0xbe,
  0x02, 0xa4, 0x55, 0x3e, 0xe4, 0xa7, 0xf0, 0x3d, 0x4e, 0x39, 0x12, 0xbe,
  0x95, 0xac, 0x92, 0x3e, 0x81, 0x89, 0xa5, 0x3e, 0xfd, 0xb1, 0xb2, 0x3e,
  0x0e, 0xa4, 0x7b, 0x3e, 0x38, 0x80, 0x7d, 0xbd, 0x97, 0x6c, 0x4c, 0xbe,
  0xd8, 0x18, 0x58, 0x3d, 0xa0, 0xd2, 0x6f, 0x3c, 0x84, 0x97, 0xaf, 0x3d,
  0xec, 0x04, 0xcb, 0x3d, 0x60, 0x5e, 0xb5, 0x3d, 0x8e, 0xe4, 0x7d, 0x3e,
  0x74, 0xf4, 0x97, 0xbe, 0x26, 0xe9, 0xa3, 0xbe, 0x3e, 0x4b, 0x3a, 0x3e,
  0xbb, 0xa3, 0xac, 0x3e, 0x4d, 0xb3, 0x16, 0xbe, 0xa6, 0xee, 0x49, 0xbe,
  0xbf, 0x86, 0x97, 0x3e, 0x51, 0xd5, 0x83, 0xbe, 0xb0, 0xea, 0x8a, 0x3d,
  0x56, 0x47, 0x4b, 0x3e, 0x30, 0x62, 0xe5, 0x3d, 0x70, 0x89, 0xb6, 0xbc,
  0x71, 0xea, 0xb4, 0xbe, 0x76, 0x79, 0x37, 0x3e, 0x21, 0x1c, 0x8a, 0xbe,
  0x98, 0x48, 0xff, 0x3d, 0x42, 0x58, 0x75, 0xbe, 0x2a, 0x0f, 0x79, 0xbe,
  0x0e, 0xc8, 0x35, 0xbe, 0x60, 0xc8, 0x96, 0xbe, 0xfe, 0x6a, 0x21, 0x3e,
  0x80, 0xa3, 0x84, 0xbd, 0xb0, 0xa1, 0x3e, 0xbd, 0x60, 0x8d, 0x89, 0x3c,
  0x00, 0xaa, 0xaa, 0xbb, 0xfc, 0x84, 0xe1, 0x3d, 0x87, 0x6e, 0xb8, 0x3e,
  0xc8, 0xf6, 0x77, 0x3d, 0x5c, 0xf5, 0x94, 0x3d, 0x2c, 0x3c, 0xb6, 0xbd,
  0xbb, 0x0c, 0x94, 0x3e, 0x3e, 0x21, 0x1c, 0x3e, 0xae, 0x75, 0x03, 0xbe,
  0x18, 0x06, 0xbc, 0x3d, 0x60, 0x6f, 0x27, 0xbe, 0x66, 0x4d, 0xa3, 0xbe,
  0x34, 0xc0, 0x91, 0xbe, 0x4c, 0x4b, 0x88, 0xbd, 0x71, 0xd7, 0x96, 0xbe,
  0x70, 0x20, 0x4c, 0x3d, 0xff, 0xa0, 0x43, 0xbe, 0x30, 0x09, 0xf8, 0x3d,
  0xb5, 0x94, 0xb1, 0xbe, 0xb8, 0xe1, 0x25, 0x3d, 0x65, 0x62, 0xb1, 0x3e,
  0xe1, 0xfb, 0x83, 0x3e, 0xd2, 0xd3, 0x21, 0xbe, 0x7d, 0xed, 0x71, 0xbe,
  0x21, 0x87, 0xb8, 0xbe, 0x80, 0x9b, 0xdf, 0xbb, 0x2c, 0xf5, 0x8e, 0xbd,
  0x80, 0x4e, 0x5e, 0xbd, 0x37, 0x30, 0xb5, 0x3e, 0x10, 0xd2, 0x39, 0xbd,
  0x3a, 0x6b, 0x06, 0x3e, 0x24, 0x13, 0xc2, 0xbd, 0xd2, 0x1a, 0x68, 0x3e,
  0xb7, 0x3d, 0x78, 0xbe, 0x7a, 0xe9, 0x6d, 0xbe, 0xd0, 0x0e, 0x86, 0x3d,
  0x7a, 0xb6, 0x0a, 0x3e, 0x60, 0xff, 0xa5, 0x3d, 0x76, 0x2c, 0x3c, 0xbe,
  0x9c, 0x39, 0x74, 0xbe, 0xbb, 0x75, 0x8f, 0x3e, 0xcb, 0x5b, 0x46, 0xbe,
  0x90, 0xa0, 0x1d, 0xbe, 0x2b, 0x69, 0xa2, 0x3e, 0xba, 0xba, 0x1d, 0x3e,
  0x2c, 0xa8, 0xa6, 0xbd, 0x35, 0xb5, 0x9b, 0x3e, 0x38, 0x16, 0xae, 0xbd,
  0x00, 0x14, 0xdc, 0xb9, 0x45, 0xc4, 0x9c, 0x3e, 0x00, 0x70, 0xb5, 0x3a,
  0xfa, 0xdb, 0x44, 0x3e, 0xc7, 0x9f, 0xa8, 0x3e, 0x1e, 0x10, 0x9c, 0xbe,
  0xd6, 0x5b, 0x5d, 0xbe, 0x0c, 0xe0, 0x85, 0x3d, 0x0d, 0xca, 0x83, 0x3e,
  0x7e, 0x75, 0x97, 0xbe, 0x2d, 0xe6, 0x8a, 0xbe, 0xcd, 0xca, 0x26, 0xbe,
  0x2a, 0x7b, 0x7a, 0x3e, 0x7c, 0xcf, 0x78, 0xbe, 0x9e, 0x04, 0x56, 0x3e,
  0x22, 0x8c, 0x50, 0x3e, 0x00, 0x15, 0x77, 0xbe, 0x30, 0x19, 0x90, 0xbc,
  0x0b, 0xe5, 0x81, 0x3e, 0x59, 0xb3, 0x98, 0x3e, 0xdc, 0xfe, 0x8b, 0xbe,
  0x00, 0xc6, 0x64, 0x3a, 0x11, 0x1c, 0xa5, 0x3e, 0x80, 0x59, 0x87, 0x3d,
  0x9a, 0xaf, 0x76, 0x3e, 0x94, 0xda, 0xea, 0xbd, 0xa7, 0x36, 0xb4, 0x3e,
  0x94, 0x6d, 0x96, 0xbe, 0x6e, 0x13, 0x53, 0x3e, 0xc0, 0x7f, 0x49, 0xbc,
  0x89, 0x59, 0x56, 0xbe, 0xe8, 0x7b, 0x1e, 0x3d, 0x96, 0xbe, 0xb5, 0xbe,
  0x08, 0x52, 0x20, 0xbd, 0xb0, 0x2d, 0xb4, 0xbd, 0xab, 0xa4, 0x4e, 0xbe,
  0xd9, 0xe4, 0x84, 0x3e, 0x5d, 0x5e, 0x06, 0xbe, 0xea, 0xa3, 0x19, 0x3e,
  0x86, 0xfb, 0x04, 0xbe, 0x94, 0x75, 0x84, 0xbe, 0x0d, 0x31, 0xa7, 0x3e,
  0xb4, 0xe0, 0x05, 0x3e, 0x38, 0x8e, 0x4c, 0x3d, 0x00, 0x21, 0x77, 0xbc,
  0x60, 0x9e, 0x03, 0x3e, 0xdc, 0x03, 0xa8, 0xbe, 0xcd, 0x54, 0x52, 0xbe,
  0xd4, 0xc7, 0xc3, 0xbd, 0xde, 0x8e, 0x6d, 0x3e, 0x49, 0x96, 0x9b, 0x3e,
  0x6a, 0xa3, 0x33, 0x3e, 0x76, 0x73, 0x58, 0x3e, 0xe1, 0xc9, 0x95, 0x3e,
  0x67, 0xe9, 0x61, 0xbe, 0xea, 0x25, 0x48, 0x3e, 0x5c, 0x41, 0x53, 0xbe,
  0x52, 0xc8, 0xb4, 0xbe, 0x1c, 0x63, 0x95, 0xbd, 0xb4, 0x88, 0xb4, 0xbd,
  0x6d, 0x09, 0x9c, 0x3e, 0x30, 0x03, 0x4f, 0xbd, 0x36, 0x6b, 0x1e, 0x3e,
  0x25, 0x26, 0x83, 0xbe, 0x1c, 0x94, 0x87, 0xbe, 0x32, 0x10, 0x4f, 0x3e,
  0xab, 0x73, 0xaa, 0xbe, 0xea, 0x35, 0x10, 0x3e, 0xd1, 0xed, 0x94, 0x3e,
  0x9c, 0x3d, 0xb6, 0xbd, 0x4a, 0xfc, 0x93, 0xbe, 0xd5, 0x2e, 0xb2, 0xbe,
  0x70, 0xce, 0x14, 0x3d, 0xce, 0x7d, 0x76, 0x3e, 0xe8, 0x8e, 0x5d, 0x3d,
  0x3c, 0x46, 0xf6, 0xbd, 0xcf, 0x37, 0x20, 0xbe, 0x60, 0xd2, 0x74, 0xbd,
  0xa9, 0x17, 0xa9, 0x3e, 0x3f, 0x6a, 0x9d, 0x3e, 0x20, 0x78, 0x25, 0x3c,
  0x48, 0xb9, 0x94, 0xbd, 0x22, 0x67, 0x28, 0x3e, 0xb6, 0xeb, 0xff, 0xff,
  0x10, 0x00, 0x00, 0x00, 0x07, 0x00, 0x00, 0x00, 0x14, 0x00, 0x00, 0x00,
  0x50, 0x00, 0x00, 0x00, 0x02, 0x00, 0x00, 0x00, 0x18, 0x00, 0x00, 0x00,
  0x18, 0x00, 0x00, 0x00, 0x38, 0x00, 0x00, 0x00, 0x73, 0x65, 0x71, 0x75,
  0x65, 0x6e, 0x74, 0x69, 0x61, 0x6c, 0x5f, 0x31, 0x32, 0x39, 0x2f, 0x64,
  0x65, 0x6e, 0x73, 0x65, 0x5f, 0x33, 0x32, 0x33, 0x2f, 0x4d, 0x61, 0x74,
  0x4d, 0x75, 0x6c, 0x2f, 0x52, 0x65, 0x61, 0x64, 0x56, 0x61, 0x72, 0x69,
  0x61, 0x62, 0x6c, 0x65, 0x4f, 0x70, 0x2f, 0x74, 0x72, 0x61, 0x6e, 0x73,
  0x70, 0x6f, 0x73, 0x65, 0x00, 0x00, 0x00, 0x00, 0x6c, 0xeb, 0xff, 0xff,
  0x00, 0x09, 0x00, 0x00, 0x90, 0xb9, 0xe9, 0xbd, 0x5e, 0x79, 0x77, 0x3e,
  0xc2, 0x2d, 0x18, 0x3e, 0x2b, 0x34, 0xb1, 0xbe, 0xf2, 0x25, 0x56, 0x3e,
  0x3e, 0x86, 0x28, 0xbe, 0x20, 0x74, 0x62, 0xbe, 0xf2, 0x5e, 0x25, 0xbe,
  0x1c, 0x9b, 0xe1, 0x3d, 0x48, 0x92, 0x03, 0xbe, 0xe8, 0x58, 0x90, 0x3d,
  0xae, 0x65, 0x89, 0xbe, 0xa3, 0x14, 0x5f, 0xbe, 0x47, 0xc0, 0x86, 0x3e,
  0xdc, 0x17, 0x08, 0x3e, 0x10, 0xab, 0xa0, 0xbe, 0x75, 0xae, 0xa6, 0x3e,
  0x40, 0xaa, 0xb5, 0xbc, 0x00, 0x1a, 0x51, 0x3d, 0x6c, 0xe4, 0xc6, 0x3d,
  0x74, 0xdb, 0xe6, 0x3d, 0x00, 0xf4, 0xa6, 0xba, 0xd5, 0x4c, 0x17, 0xbe,
  0xe0, 0x91, 0xe7, 0xbc, 0xce, 0x53, 0x71, 0x3e, 0xac, 0x3d, 0xe8, 0xbd,
  0x5e, 0x82, 0x69, 0x3e, 0x9e, 0xb9, 0x67, 0xbe, 0x82, 0x2c, 0x73, 0xbe,
  0x05, 0x27, 0xaf, 0xbe, 0x80, 0x20, 0x8f, 0x3c, 0x30, 0xed, 0x2d, 0xbe,
  0xf0, 0x1d, 0x77, 0xbd, 0x80, 0x4d, 0x5e, 0xbb, 0x68, 0xb0, 0x46, 0xbd,
  0xd6, 0x5c, 0x26, 0x3e, 0xa3, 0xaa, 0x5a, 0xbe, 0xf2, 0x47, 0x19, 0x3e,
  0x8a, 0xec, 0x34, 0x3e, 0x5b, 0xbd, 0xa5, 0x3e, 0x5a, 0xcb, 0x5f, 0x3e,
  0xc4, 0xb5, 0xba, 0xbd, 0xe0, 0x9d, 0x13, 0x3c, 0x65, 0x1f, 0x4b, 0xbe,
  0xb7, 0xe2, 0x07, 0xbe, 0xf1, 0xa7, 0x84, 0xbe, 0x0d, 0x4d, 0x83, 0x3e,
  0x87, 0x52, 0x82, 0x3e, 0x60, 0xfb, 0x5b, 0x3c, 0xa0, 0x18, 0xf4, 0x3c,
  0x50, 0x61, 0x72, 0x3d, 0x5a, 0x6a, 0xdb, 0xbd, 0xdc, 0xa5, 0xd7, 0x3d,
  0x15, 0xba, 0xac, 0xbe, 0x70, 0x78, 0x8d, 0x3c, 0x68, 0x8f, 0xf1, 0xbd,
  0xe7, 0x4c, 0x95, 0x3e, 0x24, 0x99, 0xad, 0xbe, 0x58, 0x0c, 0x7d, 0x3d,
  0x15, 0x8e, 0x4a, 0xbe, 0x05, 0xe8, 0xb3, 0x3e, 0xf0, 0xdd, 0x83, 0xbd,
  0x10, 0x3a, 0x66, 0xbd, 0x2c, 0x6d, 0xae, 0xbd, 0x6f, 0x2d, 0x86, 0xbe,
  0xe0, 0x4e, 0xf3, 0x3d, 0x33, 0xdc, 0x02, 0xbe, 0x20, 0xe5, 0x1a, 0xbc,
  0x06, 0x2d, 0x3c, 0x3e, 0xb0, 0x5d, 0xdb, 0x3c, 0x62, 0xa1, 0x67, 0x3e,
  0xae, 0x71, 0x8b, 0xbe, 0x7a, 0x98, 0x7b, 0xbe, 0x26, 0x4e, 0x91, 0xbe,
  0x00, 0x08, 0xc6, 0xbb, 0xa0, 0x2e, 0x06, 0x3e, 0x3c, 0x7f, 0x07, 0xbe,
  0xa0, 0xc9, 0xcb, 0xbc, 0x00, 0xdb, 0x56, 0xbc, 0xd8, 0x41, 0xa2, 0x3d,
  0x61, 0x36, 0xaf, 0x3e, 0x9d, 0x93, 0x97, 0x3e, 0x66, 0x6a, 0x51, 0x3e,
  0x74, 0x3c, 0x83, 0xbe, 0x05, 0x68, 0x9a, 0xbe, 0xca, 0x89, 0x3e, 0x3e,
  0x76, 0xed, 0x65, 0x3e, 0xd2, 0xcf, 0x53, 0x3e, 0xc5, 0xdb, 0x7e, 0xbe,
  0xb2, 0xfe, 0x86, 0xbe, 0xae, 0x89, 0x32, 0xbe, 0x32, 0xbb, 0x26, 0xbe,
  0x56, 0x57, 0x09, 0x3e, 0x87, 0x6d, 0xaa, 0x3e, 0x1c, 0x64, 0xc8, 0x3d,
  0xc0, 0x56, 0x16, 0x3c, 0xd4, 0xce, 0xcd, 0x3d, 0xfc, 0xbc, 0xa4, 0xbe,
  0x54, 0xfe, 0xd1, 0x3d, 0xce, 0x0a, 0x1c, 0x3e, 0x89, 0x18, 0x98, 0xbe,
  0x2a, 0xb4, 0x52, 0x3e, 0x2c, 0xc1, 0xcf, 0xbd, 0x70, 0xc3, 0x9b, 0x3d,
  0x32, 0xb5, 0x74, 0x3e, 0x7a, 0xa4, 0x01, 0x3e, 0x76, 0x70, 0x0d, 0xbe,
  0x14, 0xb2, 0xad, 0xbe, 0x5e, 0xa9, 0x99, 0xbe, 0x01, 0xde, 0xa1, 0xbe,
  0x73, 0x83, 0xb0, 0x3e, 0x19, 0x9b, 0xab, 0xbe, 0x8a, 0xda, 0x75, 0x3e,
  0xe8, 0x02, 0x0b, 0x3d, 0xfe, 0x02, 0x30, 0x3e, 0x43, 0xfc, 0x82, 0xbe,
  0xea, 0xb8, 0x3c, 0x3e, 0x50, 0xdd, 0x2c, 0x3d, 0x80, 0xf7, 0x4e, 0x3d,
  0xdc, 0x74, 0x9a, 0xbe, 0xbc, 0x7b, 0x88, 0x3d, 0x0b, 0x8b, 0x9c, 0xbe,
  0xb6, 0xf2, 0x07, 0x3e, 0x9a, 0xac, 0xdb, 0xbd, 0x39, 0x73, 0xb3, 0x3e,
  0xa1, 0x08, 0x0d, 0xbe, 0x8a, 0x44, 0x6d, 0xbe, 0xdd, 0x92, 0x94, 0x3e,
  0x14, 0x62, 0xe8, 0x3d, 0x51, 0xc5, 0xb2, 0x3e, 0x09, 0x45, 0xb2, 0x3e,
  0xd5, 0xab, 0x84, 0x3e, 0x90, 0xed, 0x85, 0xbe, 0x83, 0xb5, 0xab, 0x3e,
  0x58, 0xba, 0xb6, 0x3d, 0x50, 0x82, 0x97, 0x3d, 0x18, 0x32, 0x95, 0xbe,
  0xa0, 0xca, 0x73, 0xbc, 0xd2, 0x58, 0x04, 0xbe, 0x64, 0x8e, 0x98, 0xbd,
  0x13, 0xfe, 0x67, 0xbe, 0x44, 0xa2, 0x40, 0xbe, 0xc6, 0xc9, 0x4a, 0x3e,
  0xe9, 0x47, 0x9b, 0x3e, 0xb0, 0xe6, 0xa1, 0xbe, 0xcc, 0x03, 0x68, 0xbe,
  0x8c, 0xf9, 0x9c, 0xbd, 0x66, 0xeb, 0x07, 0x3e, 0x18, 0x1f, 0xc4, 0xbd,
  0x5e, 0x59, 0x65, 0x3e, 0x08, 0x8e, 0x45, 0x3d, 0x1c, 0x2a, 0xad, 0xbd,
  0xb4, 0x63, 0xd7, 0x3d, 0x47, 0xe6, 0x0e, 0xbe, 0x9e, 0x49, 0xd4, 0xbd,
  0x30, 0x85, 0x08, 0xbd, 0x80, 0x69, 0x9c, 0xbe, 0xb5, 0x71, 0x9f, 0x3e,
  0xe5, 0x21, 0xab, 0x3e, 0x00, 0xa8, 0x73, 0xbc, 0x18, 0x0e, 0x57, 0x3d,
  0xa2, 0x04, 0x55, 0x3e, 0x40, 0x21, 0x28, 0x3d, 0x66, 0xaa, 0x1a, 0xbe,
  0xda, 0xdb, 0x69, 0x3e, 0xab, 0xf2, 0xb1, 0xbe, 0xe0, 0xf4, 0x07, 0xbc,
  0x68, 0xf5, 0x4b, 0xbe, 0x72, 0x83, 0x71, 0x3e, 0xfe, 0x42, 0x84, 0xbe,
  0x1a, 0xe5, 0x1b, 0x3e, 0x28, 0x68, 0x5b, 0x3d, 0x80, 0xc6, 0x06, 0xbe,
  0x27, 0x67, 0x84, 0xbe, 0x8c, 0xcf, 0xd8, 0xbd, 0xe6, 0x2a, 0xf6, 0xbd,
  0xd1, 0x2a, 0x9f, 0xbe, 0x8b, 0x5f, 0x88, 0x3e, 0xbc, 0x8b, 0x88, 0xbd,
  0x56, 0xa9, 0x73, 0xbe, 0x4d, 0x3d, 0xa5, 0x3e, 0xce, 0x1c, 0x3f, 0xbe,
  0xbb, 0x39, 0x50, 0xbe, 0xe8, 0xd7, 0x16, 0x3d, 0xad, 0x65, 0x9c, 0x3e,
  0x80, 0xde, 0xdf, 0x3c, 0x50, 0x96, 0x16, 0x3d, 0x58, 0xe8, 0x7d, 0x3d,
  0x08, 0x8d, 0xdf, 0x3d, 0x1f, 0x6e, 0x9a, 0x3e, 0x5d, 0x15, 0x60, 0xbe,
  0xe7, 0x01, 0x9b, 0x3e, 0xce, 0xbf, 0x06, 0x3e, 0x90, 0x91, 0xf3, 0xbc,
  0xde, 0x2a, 0x68, 0x3e, 0xbc, 0xd5, 0xcd, 0x3d, 0x46, 0x22, 0x40, 0x3e,
  0x40, 0x82, 0x33, 0xbd, 0x54, 0xd6, 0xb7, 0xbd, 0x40, 0x45, 0xe3, 0xbc,
  0xce, 0x21, 0x3a, 0x3e, 0xa5, 0x89, 0xa0, 0x3e, 0x07, 0x13, 0x9f, 0x3e,
  0x9f, 0xa4, 0x93, 0x3e, 0x40, 0x0c, 0x03, 0xbd, 0x00, 0xe7, 0x4a, 0xbc,
  0xb6, 0x10, 0x86, 0xbe, 0x80, 0xb3, 0xd3, 0x3b, 0x7a, 0x4f, 0x74, 0x3e,
  0xc0, 0xa7, 0x2c, 0x3d, 0x00, 0xb7, 0x8a, 0xbb, 0x8b, 0x56, 0x4c, 0xbe,
  0x78, 0xa5, 0x8e, 0xbe, 0x78, 0xb3, 0x9b, 0x3d, 0x8a, 0x55, 0x24, 0xbe,
  0xae, 0x3f, 0x4b, 0xbe, 0xee, 0x3a, 0x10, 0xbe, 0x00, 0x0c, 0xce, 0xbd,
  0x35, 0xc8, 0x1a, 0xbe, 0x71, 0x86, 0x30, 0xbe, 0x72, 0xfa, 0x03, 0xbe,
  0x9d, 0xf9, 0xa5, 0xbe, 0xe8, 0x6f, 0x45, 0x3d, 0x52, 0xd2, 0x02, 0xbe,
  0xa0, 0x6a, 0x1f, 0xbc, 0xc2, 0x38, 0x11, 0x3e, 0x0f, 0x4c, 0xb2, 0x3e,
  0xb1, 0xa4, 0xb1, 0x3e, 0x86, 0xa2, 0x79, 0x3e, 0x2a, 0x53, 0x37, 0x3e,
  0x8c, 0xec, 0xce, 0xbd, 0xb2, 0x3d, 0x74, 0x3e, 0xcb, 0xd0, 0xa2, 0x3e,
  0xfa, 0x61, 0x5e, 0x3e, 0x7a, 0xa6, 0x63, 0x3e, 0x13, 0x5d, 0x8a, 0x3e,
  0x6e, 0xb1, 0xae, 0xbe, 0xf8, 0x69, 0x62, 0xbd, 0x12, 0x5d, 0x5e, 0x3e,
  0xea, 0xaf, 0x14, 0x3e, 0x82, 0x4e, 0xfd, 0xbd, 0xd7, 0x3b, 0x8d, 0xbe,
  0x31, 0x92, 0xa6, 0x3e, 0x01, 0x33, 0x8c, 0x3e, 0x6c, 0x18, 0xa7, 0xbd,
  0xf4, 0xf7, 0x82, 0xbe, 0x68, 0x5b, 0x58, 0x3d, 0xcc, 0x6d, 0xf5, 0xbd,
  0xb9, 0xbf, 0xa2, 0x3e, 0x9f, 0x74, 0x96, 0x3e, 0xa0, 0xcf, 0x52, 0xbe,
  0x42, 0xb1, 0x4b, 0x3e, 0x07, 0xd8, 0xac, 0x3e, 0x5f, 0x86, 0x85, 0x3e,
  0x28, 0x29, 0xe5, 0xbd, 0xb5, 0x75, 0xa7, 0xbe, 0xd0, 0x79, 0x95, 0xbc,
  0x14, 0x0a, 0x06, 0xbe, 0x90, 0xb4, 0xc4, 0xbd, 0x30, 0x3f, 0xec, 0xbc,
  0x16, 0xd6, 0x7b, 0x3e, 0xd6, 0xc9, 0x23, 0x3e, 0xb5, 0x9e, 0x12, 0xbe,
  0x2e, 0xb7, 0xd7, 0xbd, 0x34, 0xa5, 0x8b, 0x3d, 0x6c, 0x0a, 0xb5, 0x3d,
  0x5b, 0x40, 0xad, 0x3e, 0x60, 0x1e, 0x84, 0xbd, 0xce, 0x47, 0x5d, 0xbe,
  0x40, 0x50, 0x05, 0x3d, 0xad, 0x6b, 0xaf, 0xbe, 0x90, 0xe1, 0xc2, 0xbc,
  0x80, 0x39, 0x20, 0xbd, 0x7a, 0x47, 0x58, 0x3e, 0xb9, 0xcc, 0xb0, 0xbe,
  0x90, 0x3f, 0xaa, 0xbe, 0x95, 0x96, 0x61, 0xbe, 0x10, 0x58, 0x7e, 0xbd,
  0x82, 0xc8, 0x74, 0xbe, 0x14, 0x5e, 0xc9, 0x3d, 0x62, 0x89, 0x27, 0x3e,
  0x4f, 0x20, 0x9b, 0x3e, 0x33, 0x91, 0x94, 0x3e, 0x16, 0xf6, 0x18, 0x3e,
  0x24, 0x97, 0xad, 0xbd, 0x55, 0x7e, 0xa1, 0x3e, 0x4f, 0x09, 0x96, 0x3e,
  0x2c, 0x70, 0xf2, 0xbd, 0xd9, 0xfe, 0x9b, 0x3e, 0x00, 0x41, 0xae, 0xbe,
  0x7f, 0xce, 0x87, 0x3e, 0x50, 0x8e, 0x27, 0xbe, 0xf3, 0xbf, 0x19, 0xbe,
  0xdb, 0xad, 0x0c, 0xbe, 0x63, 0x27, 0x48, 0xbe, 0xec, 0x75, 0x8c, 0x3d,
  0x5c, 0x11, 0x80, 0xbe, 0x21, 0x14, 0x03, 0xbe, 0xea, 0xf8, 0x29, 0x3e,
  0x04, 0x9e, 0x0f, 0x3e, 0x7d, 0xcd, 0x9a, 0x3e, 0x24, 0x1d, 0x97, 0xbd,
  0x08, 0xe3, 0xef, 0xbd, 0x0c, 0xb2, 0xa6, 0xbe, 0x68, 0xd6, 0x39, 0xbd,
  0x00, 0x7f, 0x73, 0xbd, 0xc1, 0xc1, 0x8e, 0xbe, 0x00, 0xf5, 0xaa, 0x3b,
  0xc0, 0xed, 0xc3, 0x3c, 0x88, 0x85, 0xb6, 0xbd, 0x57, 0x3e, 0x84, 0xbe,
  0xfa, 0x82, 0x49, 0x3e, 0x90, 0x10, 0x15, 0x3e, 0xf9, 0x7e, 0x8a, 0x3e,
  0xb0, 0x8b, 0x31, 0x3d, 0x10, 0xfe, 0xba, 0x3d, 0x27, 0x13, 0x9f, 0xbe,
  0x4a, 0xa8, 0x5a, 0x3e, 0xb0, 0x3c, 0xd3, 0x3c, 0x5e, 0x18, 0x68, 0x3e,
  0xf8, 0x35, 0xdd, 0x3d, 0xc4, 0xb4, 0xc0, 0xbd, 0xf8, 0xa7, 0x83, 0xbe,
  0x40, 0x2f, 0x8b, 0xbd, 0x37, 0x76, 0x75, 0xbe, 0x3f, 0x49, 0xb2, 0xbe,
  0xd0, 0x1a, 0xb2, 0xbd, 0x6a, 0x42, 0x69, 0x3e, 0x54, 0x1e, 0xea, 0x3d,
  0x6f, 0x58, 0xae, 0x3e, 0x30, 0xd0, 0x89, 0xbe, 0x4a, 0xb4, 0x47, 0x3e,
  0x6e, 0xf1, 0x71, 0x3e, 0x31, 0x84, 0x87, 0x3e, 0x40, 0xb4, 0xd3, 0xbb,
  0xc6, 0xf9, 0x36, 0x3e, 0xa0, 0x64, 0xda, 0x3c, 0xc6, 0x44, 0x7e, 0x3e,
  0xe8, 0xba, 0x09, 0x3d, 0xe5, 0xf7, 0x8d, 0xbe, 0x00, 0x1e, 0x9d, 0xbe,
  0x86, 0xc7, 0x55, 0x3e, 0x50, 0xa9, 0x77, 0xbd, 0xad, 0xfd, 0x9f, 0x3e,
  0xf0, 0x72, 0xe7, 0x3c, 0xe0, 0xaf, 0x96, 0x3c, 0x68, 0x43, 0xed, 0x3d,
  0x26, 0x64, 0x27, 0x3e, 0x72, 0x25, 0xf2, 0xbd, 0x3c, 0xd9, 0x8a, 0x3d,
  0xde, 0x33, 0x0e, 0x3e, 0xdb, 0xec, 0x1c, 0xbe, 0x47, 0x6c, 0x78, 0xbe,
  0xfe, 0x5a, 0x50, 0x3e, 0xdc, 0x26, 0x84, 0xbe, 0xef, 0xa5, 0x9c, 0x3e,
  0x58, 0x1f, 0x91, 0x3d, 0xa9, 0x5c, 0xa0, 0x3e, 0xf4, 0x0c, 0x93, 0xbd,
  0xb4, 0xad, 0x9e, 0xbe, 0x76, 0x17, 0x1a, 0x3e, 0xeb, 0x90, 0x0a, 0xbe,
  0x86, 0xbd, 0x6c, 0xbe, 0x81, 0xa5, 0xa5, 0x3e, 0x6c, 0x66, 0xb9, 0xbd,
  0xe6, 0x84, 0xa3, 0xbe, 0x32, 0x32, 0x54, 0x3e, 0x5b, 0x4f, 0x1f, 0xbe,
  0x7f, 0x34, 0x25, 0xbe, 0xf4, 0xc5, 0x7b, 0xbe, 0x79, 0xdc, 0x82, 0x3e,
  0x4b, 0x2c, 0xa9, 0x3e, 0x18, 0x2d, 0x08, 0xbe, 0xf8, 0xef, 0x6c, 0xbd,
  0x08, 0x44, 0x19, 0x3d, 0x95, 0x50, 0xb4, 0x3e, 0xd8, 0x0d, 0x46, 0xbd,
  0x80, 0x61, 0x93, 0xbd, 0xc6, 0xa0, 0x81, 0xbe, 0x9e, 0x93, 0x11, 0x3e,
  0xe8, 0x86, 0xa9, 0xbd, 0x48, 0x40, 0x85, 0x3d, 0x70, 0x1b, 0x54, 0xbe,
  0xb5, 0xd9, 0x86, 0x3e, 0x66, 0x91, 0x9a, 0xbe, 0x19, 0x16, 0x8a, 0x3e,
  0x50, 0x95, 0xd8, 0x3c, 0x87, 0x00, 0x8a, 0x3e, 0xf7, 0xb2, 0x8d, 0x3e,
  0xf1, 0x1b, 0x9c, 0x3e, 0x0e, 0xa7, 0x67, 0xbe, 0x49, 0x5a, 0x7d, 0xbe,
  0xcd, 0x1e, 0xb1, 0xbe, 0x0d, 0x08, 0x89, 0x3e, 0xeb, 0xc4, 0xae, 0x3e,
  0x00, 0x79, 0x67, 0xbb, 0xaa, 0x18, 0x62, 0x3e, 0x90, 0xe7, 0xbd, 0xbc,
  0x45, 0xff, 0x0e, 0xbe, 0xb8, 0x4b, 0x91, 0xbe, 0xc6, 0xc0, 0x5f, 0x3e,
  0x9c, 0x60, 0x97, 0xbe, 0x00, 0x9c, 0xe9, 0x3d, 0x5a, 0x6a, 0x4f, 0x3e,
  0x6a, 0x85, 0x7b, 0x3e, 0xd7, 0xb4, 0x0b, 0xbe, 0xc4, 0x31, 0xb0, 0x3d,
  0x2c, 0x6d, 0x3f, 0xbe, 0x80, 0x5b, 0x17, 0xbd, 0xb8, 0x15, 0x03, 0x3e,
  0xca, 0xd7, 0x95, 0xbe, 0x9c, 0xba, 0x31, 0xbe, 0x40, 0x83, 0x01, 0x3d,
  0x96, 0x8d, 0x21, 0x3e, 0xa0, 0xcb, 0x0d, 0x3c, 0xb4, 0x7d, 0xed, 0x3d,
  0xce, 0x29, 0x56, 0x3e, 0x50, 0xff, 0xd9, 0x3c, 0xd4, 0xac, 0x8e, 0xbe,
  0xd0, 0xeb, 0x95, 0xbe, 0x4e, 0x24, 0xd6, 0xbd, 0x22, 0x9b, 0x82, 0xbe,
  0xe3, 0xb6, 0x80, 0xbe, 0x75, 0x0b, 0x97, 0x3e, 0x2c, 0xe1, 0x63, 0xbe,
  0xbe, 0xe3, 0x7a, 0x3e, 0x3e, 0x65, 0x71, 0x3e, 0x3e, 0x5a, 0x32, 0x3e,
  0xfa, 0xfb, 0x27, 0x3e, 0x40, 0xce, 0x8a, 0x3c, 0x7f, 0xb5, 0xaa, 0xbe,
  0xb2, 0x5b, 0x95, 0xbe, 0x16, 0x29, 0x16, 0x3e, 0x1a, 0x5e, 0x6d, 0xbe,
  0xeb, 0x5d, 0xb4, 0x3e, 0x32, 0x8d, 0x14, 0x3e, 0x90, 0x71, 0xbf, 0xbd,
  0x1c, 0xa4, 0x29, 0xbe, 0x38, 0xc6, 0xa5, 0xbe, 0x84, 0x27, 0x88, 0xbe,
  0x39, 0xec, 0x49, 0xbe, 0x40, 0x1c, 0x0f, 0x3d, 0xf0, 0x9e, 0x36, 0xbe,
  0x57, 0x73, 0x96, 0x3e, 0x68, 0x41, 0x52, 0xbd, 0x18, 0x82, 0x1f, 0xbd,
  0xf8, 0xdd, 0x0e, 0xbe, 0xba, 0x18, 0x5e, 0x3e, 0xb0, 0xd4, 0x0e, 0x3e,
  0xdc, 0x5e, 0xad, 0xbe, 0x8f, 0xf9, 0x75, 0xbe, 0xb0, 0x62, 0x0a, 0x3e,
  0xaa, 0x2e, 0xa1, 0xbe, 0xe8, 0x26, 0x3e, 0x3d, 0xc4, 0xc2, 0xfc, 0x3d,
  0xf0, 0x97, 0x9e, 0xbe, 0xe5, 0x0b, 0xa5, 0xbe, 0xba, 0x77, 0x6f, 0xbe,
  0xc3, 0xd7, 0x82, 0x3e, 0x10, 0xe8, 0x8f, 0xbe, 0x70, 0x18, 0xac, 0xbc,
  0x0b, 0xa7, 0x8d, 0xbe, 0x86, 0xdb, 0x7f, 0x3e, 0xe0, 0x23, 0x72, 0xbe,
  0x18, 0x13, 0x95, 0xbe, 0xc0, 0x43, 0xf3, 0xbc, 0x7c, 0x00, 0xf1, 0x3d,
  0x40, 0xef, 0x2f, 0xbd, 0x80, 0x84, 0x0e, 0x3e, 0x18, 0xc5, 0x9c, 0xbe,
  0x62, 0xe3, 0x4c, 0x3e, 0x24, 0xfe, 0x85, 0x3d, 0xe8, 0xe7, 0x99, 0xbd,
  0x44, 0x00, 0xa5, 0xbd, 0x70, 0x43, 0xd8, 0x3c, 0x31, 0xac, 0x95, 0x3e,
  0x6b, 0xd3, 0xaa, 0x3e, 0x18, 0xc7, 0x98, 0x3d, 0xe9, 0xf1, 0x7a, 0xbe,
  0x04, 0xd1, 0x13, 0x3e, 0x88, 0x06, 0x69, 0xbd, 0xa8, 0x9f, 0xf8, 0x3d,
  0xf0, 0xd9, 0xfd, 0x3c, 0xa0, 0x0e, 0xcb, 0x3c, 0xfc, 0x3f, 0x19, 0xbe,
  0xb2, 0x84, 0xf0, 0xbd, 0xc7, 0x7b, 0x82, 0x3e, 0x40, 0x10, 0x95, 0xbd,
  0x48, 0xfe, 0xa2, 0xbd, 0x90, 0xf8, 0x58, 0xbd, 0xb9, 0x69, 0xa9, 0x3e,
  0x38, 0xe6, 0xcb, 0x3d, 0xb9, 0xed, 0x45, 0xbe, 0x18, 0xee, 0xae, 0x3d,
  0x59, 0x51, 0x90, 0x3e, 0x41, 0xe3, 0xa5, 0x3e, 0x86, 0xd9, 0x5c, 0x3e,
  0x6e, 0x57, 0x50, 0xbe, 0xa0, 0x26, 0x42, 0x3d, 0xe0, 0x6e, 0xaa, 0xbe,
  0xfb, 0xd3, 0xb4, 0xbe, 0xd3, 0x46, 0x86, 0x3e, 0x9f, 0x51, 0x95, 0x3e,
  0x6e, 0xd8, 0x44, 0xbe, 0xb0, 0x2e, 0x31, 0x3d, 0x73, 0xc6, 0x98, 0x3e,
  0x02, 0xbc, 0x0a, 0xbe, 0xc8, 0x37, 0xd5, 0x3d, 0x08, 0x3e, 0x0e, 0xbe,
  0x06, 0x5c, 0x72, 0xbe, 0x80, 0xe3, 0x9c, 0xbc, 0x90, 0xd8, 0x80, 0xbe,
  0x70, 0x47, 0xe9, 0xbc, 0x2a, 0x8e, 0x77, 0x3e, 0xde, 0x52, 0x4a, 0x3e,
  0x97, 0xc1, 0xa1, 0x3e, 0x6b, 0x0d, 0x3c, 0xbe, 0xb8, 0x40, 0xa9, 0xbe,
  0xb1, 0xe8, 0xa2, 0x3e, 0x50, 0xbe, 0x9e, 0x3d, 0xc2, 0xbc, 0xb2, 0xbe,
  0x95, 0xc1, 0x95, 0xbe, 0xe1, 0xfd, 0xaf, 0x3e, 0x8a, 0x8b, 0x31, 0x3e,
  0x4e, 0x70, 0x33, 0x3e, 0x58, 0x28, 0x27, 0xbd, 0x84, 0x9c, 0xce, 0xbd,
  0x8a, 0x79, 0x49, 0xbe, 0x89, 0x77, 0x8a, 0x3e, 0x02, 0x93, 0x4c, 0x3e,
  0x38, 0xf1, 0x5e, 0xbe, 0x21, 0x1e, 0x85, 0x3e, 0x12, 0x8a, 0x1a, 0xbe,
  0x06, 0x44, 0xf7, 0xbd, 0x4f, 0x4e, 0x8a, 0x3e, 0x90, 0xe9, 0x94, 0xbc,
  0x82, 0x0a, 0x2a, 0x3e, 0xa0, 0x76, 0x54, 0xbc, 0x80, 0x6a, 0x4a, 0xbc,
  0xb6, 0x04, 0x20, 0x3e, 0x22, 0x0c, 0x34, 0x3e, 0xce, 0x30, 0xf2, 0xbd,
  0x67, 0x05, 0x82, 0x3e, 0xdb, 0x5e, 0x8e, 0x3e, 0xa3, 0xc3, 0xae, 0x3e,
  0x81, 0xcd, 0x4e, 0xbe, 0xce, 0x0a, 0x0f, 0x3e, 0xc2, 0x79, 0x86, 0xbe,
  0x0c, 0xb3, 0x91, 0x3d, 0x83, 0xb4, 0x9d, 0x3e, 0x5e, 0x76, 0x1e, 0x3e,
  0xf9, 0x45, 0xb2, 0x3e, 0x20, 0x8d, 0x11, 0xbe, 0x82, 0x68, 0x0d, 0x3e,
  0x59, 0xda, 0x85, 0x3e, 0xbc, 0x9a, 0x8d, 0xbe, 0x8e, 0x25, 0x66, 0x3e,
  0x9e, 0x26, 0x79, 0x3e, 0xa6, 0x92, 0x8b, 0xbe, 0x59, 0x53, 0x2d, 0xbe,
  0x30, 0x37, 0xd9, 0x3d, 0x21, 0x42, 0xa3, 0x3e, 0x92, 0x1c, 0x39, 0x3e,
  0x0e, 0xea, 0x9b, 0xbe, 0xe5, 0x0f, 0xb3, 0x3e, 0x40, 0x5d, 0xc5, 0xbc,
  0x4d, 0x89, 0x26, 0xbe, 0x96, 0xd2, 0x5f, 0x3e, 0xf9, 0x0c, 0x17, 0xbe,
  0x00, 0x5d, 0xdf, 0xbb, 0x9b, 0xa2, 0x97, 0xbe, 0x10, 0xf4, 0xb7, 0x3c,
  0x7c, 0x00, 0xf1, 0x3d, 0xf1, 0xb6, 0x89, 0xbe, 0x46, 0x14, 0x62, 0x3e,
  0xdd, 0x7c, 0xa2, 0x3e, 0x1e, 0xf5, 0xff, 0xff, 0x10, 0x00, 0x00, 0x00,
  0x06, 0x00, 0x00, 0x00, 0x10, 0x00, 0x00, 0x00, 0x38, 0x00, 0x00, 0x00,
  0x01, 0x00, 0x00, 0x00, 0x18, 0x00, 0x00, 0x00, 0x24, 0x00, 0x00, 0x00,
  0x73, 0x65, 0x71, 0x75, 0x65, 0x6e, 0x74, 0x69, 0x61, 0x6c, 0x5f, 0x31,
  0x32, 0x39, 0x2f, 0x64, 0x65, 0x6e, 0x73, 0x65, 0x5f, 0x33, 0x32, 0x32,
  0x2f, 0x4d, 0x61, 0x74, 0x4d, 0x75, 0x6c, 0x5f, 0x62, 0x69, 0x61, 0x73,
  0x00, 0x00, 0x00, 0x00, 0xbc, 0xf4, 0xff, 0xff, 0x60, 0x00, 0x00, 0x00,
  0x00, 0x00, 0x00, 0x00, 0x00, 0x00, 0x00, 0x00, 0x00, 0x00, 0x00, 0x00,
  0x00, 0x00, 0x00, 0x00, 0x00, 0x00, 0x00, 0x00, 0x00, 0x00, 0x00, 0x00,
  0x00, 0x00, 0x00, 0x00, 0x00, 0x00, 0x00, 0x00, 0x00, 0x00, 0x00, 0x00,
  0x00, 0x00, 0x00, 0x00, 0x00, 0x00, 0x00, 0x00, 0x00, 0x00, 0x00, 0x00,
  0x00, 0x00, 0x00, 0x00, 0x00, 0x00, 0x00, 0x00, 0x00, 0x00, 0x00, 0x00,
  0x00, 0x00, 0x00, 0x00, 0x00, 0x00, 0x00, 0x00, 0x00, 0x00, 0x00, 0x00,
  0x00, 0x00, 0x00, 0x00, 0x00, 0x00, 0x00, 0x00, 0x00, 0x00, 0x00, 0x00,
  0x00, 0x00, 0x00, 0x00, 0x00, 0x00, 0x00, 0x00, 0x00, 0x00, 0x00, 0x00,
  0xce, 0xf5, 0xff, 0xff, 0x10, 0x00, 0x00, 0x00, 0x05, 0x00, 0x00, 0x00,
  0x14, 0x00, 0x00, 0x00, 0x50, 0x00, 0x00, 0x00, 0x02, 0x00, 0x00, 0x00,
  0x18, 0x00, 0x00, 0x00, 0x18, 0x00, 0x00, 0x00, 0x38, 0x00, 0x00, 0x00,
  0x73, 0x65, 0x71, 0x75, 0x65, 0x6e, 0x74, 0x69, 0x61, 0x6c, 0x5f, 0x31,
  0x32, 0x39, 0x2f, 0x64, 0x65, 0x6e, 0x73, 0x65, 0x5f, 0x33, 0x32, 0x32,
  0x2f, 0x4d, 0x61, 0x74, 0x4d, 0x75, 0x6c, 0x2f, 0x52, 0x65, 0x61, 0x64,
  0x56, 0x61, 0x72, 0x69, 0x61, 0x62, 0x6c, 0x65, 0x4f, 0x70, 0x2f, 0x74,
  0x72, 0x61, 0x6e, 0x73, 0x70, 0x6f, 0x73, 0x65, 0x00, 0x00, 0x00, 0x00,
  0x84, 0xf5, 0xff, 0xff, 0x00, 0x09, 0x00, 0x00, 0xff, 0xba, 0xa6, 0x3e,
  0x9e, 0xbb, 0x7f, 0x3e, 0xaf, 0x81, 0x29, 0xbe, 0x03, 0x13, 0x8b, 0x3e,
  0x68, 0xa9, 0xc8, 0xbd, 0xd0, 0x19, 0x04, 0xbd, 0x58, 0xa4, 0x1d, 0xbd,
  0xa0, 0x94, 0x0f, 0xbe, 0x31, 0x92, 0xb3, 0xbe, 0x94, 0xf7, 0xc5, 0xbd,
  0x7a, 0x38, 0x08, 0x3e, 0x1a, 0x13, 0x8f, 0xbe, 0xc0, 0x66, 0xd7, 0xbd,
  0x70, 0x27, 0x07, 0xbd, 0x00, 0x6d, 0x7f, 0xbc, 0xa6, 0x65, 0x86, 0xbe,
  0x13, 0xff, 0x94, 0x3e, 0x2b, 0x47, 0x96, 0x3e, 0x08, 0x1a, 0xb0, 0xbd,
  0xfc, 0xd4, 0x95, 0xbe, 0xad, 0x3d, 0xa0, 0x3e, 0x58, 0xec, 0x83, 0x3d,
  0xf4, 0xb8, 0xf4, 0x3d, 0x00, 0x97, 0x09, 0xbe, 0xf5, 0xc9, 0x95, 0x3e,
  0xdc, 0x2b, 0x14, 0x3e, 0xc0, 0xed, 0xd9, 0x3d, 0x2f, 0x58, 0x8e, 0xbe,
  0x66, 0xc2, 0x15, 0x3e, 0xfc, 0xfc, 0xc3, 0xbd, 0x26, 0x2f, 0x2f, 0x3e,
  0xa0, 0x0d, 0xbb, 0x3c, 0xda, 0x82, 0x69, 0x3e, 0x90, 0x72, 0xae, 0x3d,
  0x23, 0xa8, 0x96, 0x3e, 0x9c, 0xcf, 0xc4, 0x3d, 0x30, 0x5c, 0xd1, 0x3c,
  0x00, 0x31, 0xee, 0x3d, 0xb8, 0x5d, 0xb9, 0xbd, 0xde, 0x3f, 0x1e, 0x3e,
  0xc8, 0x45, 0xa8, 0x3d, 0x58, 0x85, 0x8e, 0xbd, 0x6a, 0xaf, 0x62, 0x3e,
  0x40, 0x63, 0xb7, 0x3d, 0x28, 0x01, 0xca, 0xbd, 0x14, 0xb3, 0xd2, 0xbd,
  0x05, 0x79, 0x96, 0x3e, 0x12, 0x0d, 0x50, 0xbe, 0x98, 0x31, 0x38, 0x3d,
  0x7e, 0x67, 0x3c, 0x3e, 0x8e, 0xbf, 0xdb, 0xbd, 0xae, 0xde, 0x5f, 0x3e,
  0xd9, 0x7d, 0xb2, 0x3e, 0x62, 0x50, 0xb4, 0xbe, 0x4d, 0x47, 0x91, 0x3e,
  0x26, 0xe0, 0xb4, 0xbe, 0x00, 0x63, 0x87, 0xbc, 0xcf, 0xab, 0x0a, 0xbe,
  0x68, 0x25, 0x55, 0x3d, 0xb6, 0x29, 0xf1, 0xbd, 0x8f, 0x84, 0x35, 0xbe,
  0xb1, 0x2f, 0x9c, 0x3e, 0xf0, 0x4c, 0xe1, 0xbc, 0x00, 0xb8, 0x16, 0x3d,
  0x57, 0x5d, 0xa3, 0x3e, 0x26, 0x3e, 0xd8, 0xbd, 0xec, 0xce, 0xd5, 0xbd,
  0x60, 0x18, 0x53, 0x3d, 0x71, 0xc2, 0x22, 0xbe, 0x76, 0x9d, 0x7d, 0xbe,
  0x64, 0x4d, 0xff, 0xbd, 0x5a, 0xff, 0xa9, 0xbe, 0x98, 0x98, 0xb2, 0xbd,
  0xef, 0x00, 0xad, 0x3e, 0x8e, 0x21, 0x25, 0x3e, 0x50, 0xf2, 0x44, 0xbd,
  0xe0, 0xbf, 0xbf, 0x3d, 0xce, 0x99, 0x2f, 0xbe, 0x74, 0x6b, 0xd3, 0xbd,
  0xc0, 0xcf, 0x20, 0xbd, 0x2c, 0xfe, 0x96, 0xbd, 0x04, 0x59, 0x12, 0x3e,
  0x06, 0xf2, 0x4f, 0xbe, 0x6d, 0x39, 0x64, 0xbe, 0xf0, 0x5b, 0x04, 0xbd,
  0xe6, 0x18, 0x71, 0xbe, 0xa6, 0x4e, 0x62, 0x3e, 0x9a, 0xbd, 0x1a, 0xbe,
  0x63, 0xc9, 0x8a, 0x3e, 0x63, 0x09, 0x99, 0x3e, 0xb0, 0xef, 0xaf, 0x3c,
  0xb2, 0x2c, 0xfa, 0xbd, 0x68, 0x7a, 0x9c, 0xbe, 0x57, 0x4b, 0x91, 0xbe,
  0x98, 0xa9, 0x39, 0x3d, 0xca, 0xe9, 0x95, 0xbe, 0x60, 0x41, 0x9e, 0x3d,
  0xfe, 0x28, 0xa8, 0xbe, 0x00, 0xcf, 0x36, 0x3b, 0xaa, 0x6c, 0x3e, 0x3e,
  0xf1, 0xcf, 0xb1, 0xbe, 0xfa, 0x81, 0x21, 0x3e, 0xf8, 0x55, 0xb3, 0xbe,
  0xd4, 0xfc, 0x80, 0x3d, 0x59, 0x1e, 0x9f, 0x3e, 0x78, 0x2e, 0xbe, 0x3d,
  0x54, 0x36, 0xcb, 0x3d, 0x8c, 0x8e, 0x9c, 0xbe, 0x80, 0xe0, 0xaa, 0x3d,
  0xc8, 0x5c, 0xfa, 0x3d, 0x59, 0x9d, 0xa3, 0x3e, 0x10, 0x8d, 0xf6, 0x3c,
  0x90, 0x9c, 0xde, 0x3c, 0x02, 0xd9, 0x19, 0x3e, 0x96, 0xf5, 0x1d, 0x3e,
  0xa2, 0xd3, 0x49, 0x3e, 0xde, 0xdf, 0x2d, 0x3e, 0xf0, 0x5a, 0x8c, 0x3c,
  0xd2, 0x2d, 0x71, 0xbe, 0x08, 0x43, 0xaf, 0xbe, 0x00, 0x78, 0xdc, 0x3c,
  0xa0, 0xf0, 0xe7, 0x3c, 0x97, 0x0e, 0x96, 0x3e, 0x5c, 0xb9, 0xfa, 0xbd,
  0x1d, 0x48, 0xaa, 0x3e, 0x62, 0xd3, 0xdf, 0xbd, 0x3e, 0x65, 0x21, 0xbe,
  0x4a, 0x5e, 0x7b, 0x3e, 0x2c, 0xdb, 0xa3, 0x3d, 0xf2, 0xf3, 0x71, 0x3e,
  0xc4, 0x41, 0x8b, 0xbd, 0xb0, 0xe4, 0x8a, 0xbd, 0x7a, 0xb6, 0x5b, 0x3e,
  0x60, 0x73, 0x30, 0xbc, 0x26, 0xd3, 0x01, 0x3e, 0x66, 0xc7, 0x21, 0x3e,
  0xba, 0x7b, 0x4d, 0xbe, 0x84, 0xbd, 0x91, 0xbe, 0x08, 0xb5, 0x14, 0x3d,
  0x69, 0xd6, 0x30, 0xbe, 0x93, 0x7d, 0x3e, 0xbe, 0xb9, 0xa5, 0x94, 0x3e,
  0xc2, 0x26, 0x38, 0x3e, 0x21, 0xc0, 0x60, 0xbe, 0x09, 0x87, 0x94, 0x3e,
  0x1e, 0xc0, 0x2f, 0x3e, 0x88, 0xae, 0x72, 0xbe, 0x80, 0xfc, 0xc7, 0x3c,
  0x5e, 0xf3, 0x8f, 0xbe, 0xc1, 0xd9, 0xb3, 0x3e, 0xe5, 0x02, 0xb1, 0x3e,
  0xfe, 0x71, 0x47, 0x3e, 0x70, 0x57, 0xab, 0xbc, 0x12, 0xad, 0x3c, 0x3e,
  0xc0, 0x3f, 0xea, 0x3c, 0x3f, 0x79, 0xa7, 0x3e, 0xaa, 0xe0, 0x1b, 0x3e,
  0x68, 0x70, 0xd8, 0x3d, 0x8c, 0xc8, 0xa5, 0x3d, 0xf5, 0xac, 0x99, 0x3e,
  0x1e, 0xe3, 0x5e, 0x3e, 0xd0, 0x2b, 0xa9, 0x3d, 0x80, 0xd0, 0x64, 0x3b,
  0x64, 0xfc, 0xaa, 0xbd, 0x8d, 0xd9, 0xa7, 0xbe, 0x14, 0x63, 0xdc, 0x3d,
  0x62, 0x9f, 0xf0, 0xbd, 0xb2, 0x68, 0x9e, 0xbe, 0xf7, 0xfa, 0x51, 0xbe,
  0x3e, 0xdc, 0x23, 0x3e, 0xfc, 0xe6, 0x5a, 0xbe, 0xc2, 0x1c, 0x9a, 0xbe,
  0x10, 0x9c, 0x87, 0x3d, 0x3e, 0x79, 0x90, 0xbe, 0xe6, 0xdf, 0xb1, 0xbe,
  0xe6, 0xae, 0x5f, 0x3e, 0x0b, 0x43, 0x24, 0xbe, 0x88, 0xa4, 0x37, 0xbd,
  0xab, 0xfe, 0xa7, 0x3e, 0xca, 0x4b, 0x8e, 0xbe, 0x85, 0x24, 0x19, 0xbe,
  0x6c, 0x1f, 0xc5, 0x3d, 0xdd, 0x0e, 0x86, 0xbe, 0x92, 0xdf, 0xa8, 0xbe,
  0x16, 0xa2, 0x97, 0xbe, 0xf4, 0x65, 0xb0, 0x3d, 0x1a, 0x7f, 0x25, 0x3e,
  0xf6, 0x7b, 0x6d, 0x3e, 0xde, 0x58, 0x24, 0x3e, 0x00, 0x70, 0xe4, 0xb9,
  0xe9, 0x08, 0x88, 0x3e, 0xa8, 0x77, 0x49, 0x3d, 0x78, 0x4f, 0x59, 0xbe,
  0x79, 0x71, 0x5a, 0xbe, 0xff, 0x2d, 0xb1, 0x3e, 0xa0, 0x18, 0x54, 0xbc,
  0xcb, 0x99, 0xb1, 0xbe, 0xb8, 0x4d, 0x87, 0x3d, 0x72, 0xb7, 0x25, 0xbe,
  0xc0, 0x63, 0xa3, 0xbd, 0x69, 0x74, 0xa3, 0x3e, 0x03, 0xf3, 0xb3, 0xbe,
  0x2a, 0x2c, 0xdd, 0xbd, 0xd7, 0xd1, 0x88, 0x3e, 0x00, 0x43, 0xf5, 0x3c,
  0x94, 0xe2, 0xb2, 0xbe, 0x61, 0x8d, 0x8b, 0x3e, 0xfc, 0xcd, 0xad, 0xbd,
  0x45, 0xfa, 0x8e, 0x3e, 0x14, 0x76, 0xa2, 0x3d, 0x08, 0x29, 0x91, 0xbd,
  0xde, 0xf5, 0x58, 0xbe, 0xe5, 0xb6, 0x96, 0xbe, 0xf7, 0xd2, 0x9f, 0xbe,
  0xc5, 0xbd, 0x4a, 0xbe, 0x06, 0xdb, 0x10, 0x3e, 0xe3, 0x48, 0x61, 0xbe,
  0xcd, 0xd1, 0x33, 0xbe, 0x7e, 0xf5, 0x3a, 0xbe, 0x20, 0x8e, 0xe9, 0x3d,
  0x70, 0xbb, 0xed, 0x3c, 0xdc, 0xdc, 0x5f, 0xbe, 0xbf, 0x55, 0xad, 0x3e,
  0xde, 0xf8, 0x21, 0x3e, 0xa0, 0x65, 0xe2, 0xbc, 0x3e, 0x1e, 0xf2, 0xbd,
  0x68, 0xd0, 0x66, 0xbe, 0x30, 0xf0, 0xea, 0x3c, 0x46, 0xd1, 0x75, 0xbe,
  0x00, 0xe2, 0xbc, 0x3b, 0xfa, 0x79, 0x97, 0xbe, 0xac, 0xd5, 0xf9, 0x3d,
  0xcc, 0x66, 0xdc, 0x3d, 0x59, 0xb8, 0xa0, 0x3e, 0x34, 0x77, 0xc5, 0x3d,
  0x22, 0x72, 0x3c, 0x3e, 0xec, 0xc2, 0x1b, 0xbe, 0x0a, 0x79, 0x00, 0xbe,
  0xf5, 0x5e, 0x23, 0xbe, 0x19, 0x9b, 0xa0, 0xbe, 0xde, 0x04, 0x1e, 0x3e,
  0xad, 0x7d, 0x72, 0xbe, 0x50, 0xef, 0x16, 0xbd, 0x89, 0x56, 0x1b, 0xbe,
  0x02, 0x06, 0x8d, 0xbe, 0x58, 0xa2, 0x49, 0xbd, 0x0e, 0x6c, 0x58, 0x3e,
  0xb0, 0xa6, 0x8f, 0x3c, 0xc4, 0x62, 0xec, 0x3d, 0x99, 0x7c, 0xa8, 0x3e,
  0xc2, 0x81, 0x24, 0x3e, 0x40, 0x34, 0x11, 0x3d, 0xf8, 0x9e, 0x16, 0x3d,
  0x16, 0x93, 0xdd, 0xbd, 0x68, 0xd8, 0xd9, 0x3d, 0x72, 0x52, 0x30, 0x3e,
  0x55, 0xb1, 0x9d, 0xbe, 0xf0, 0x75, 0x7b, 0xbd, 0xa4, 0xad, 0x9b, 0x3d,
  0x6a, 0x0d, 0x02, 0x3e, 0x52, 0x01, 0x48, 0x3e, 0x44, 0xfe, 0xf8, 0x3d,
  0x78, 0x2a, 0xbf, 0xbd, 0x73, 0x30, 0x99, 0xbe, 0x80, 0x60, 0xbc, 0xbd,
  0xcb, 0x05, 0x82, 0xbe, 0x4a, 0x25, 0x73, 0x3e, 0x4a, 0x40, 0x83, 0xbe,
  0x90, 0x27, 0x91, 0xbd, 0x1b, 0xbb, 0x37, 0xbe, 0x7e, 0x70, 0xe0, 0xbd,
  0xa2, 0xf1, 0xe3, 0xbd, 0x53, 0xaa, 0x84, 0x3e, 0x64, 0x84, 0x38, 0xbe,
  0x9a, 0xbe, 0x1d, 0xbe, 0xb6, 0x5c, 0x00, 0x3e, 0xe6, 0x37, 0x9f, 0xbe,
  0x60, 0x88, 0x73, 0x3d, 0xb0, 0xec, 0xe9, 0xbc, 0xd8, 0xbd, 0x3f, 0xbd,
  0x72, 0xe6, 0x5c, 0x3e, 0x72, 0x92, 0x16, 0x3e, 0xd0, 0x46, 0x65, 0x3d,
  0xca, 0xe3, 0xa0, 0xbe, 0xb9, 0x74, 0x99, 0x3e, 0xfc, 0x2a, 0x9a, 0x3d,
  0x6b, 0xe1, 0x8c, 0xbe, 0xbc, 0xc9, 0x44, 0xbe, 0x36, 0x64, 0x53, 0x3e,
  0xae, 0x09, 0xec, 0xbd, 0xb8, 0xa1, 0x2c, 0xbd, 0x8f, 0x88, 0x57, 0xbe,
  0x40, 0x7d, 0xd2, 0x3d, 0x33, 0x32, 0x9f, 0xbe, 0x30, 0xd3, 0x64, 0xbd,
  0xc0, 0xa8, 0xf2, 0xbb, 0x14, 0xac, 0xac, 0x3d, 0x14, 0x24, 0x08, 0x3e,
  0xba, 0x79, 0xd8, 0xbd, 0xa4, 0xb9, 0xd3, 0x3d, 0x72, 0xa5, 0x46, 0x3e,
  0xb1, 0x51, 0x0b, 0xbe, 0x00, 0x05, 0x5b, 0xbc, 0x40, 0x94, 0x6b, 0xbd,
  0xac, 0x98, 0x97, 0xbe, 0x72, 0x1d, 0x32, 0x3e, 0x52, 0xd5, 0x10, 0x3e,
  0x18, 0x9a, 0xa8, 0xbe, 0xe4, 0xc5, 0x8a, 0x3d, 0xde, 0xc8, 0x45, 0x3e,
  0xb6, 0x7d, 0x8f, 0xbe, 0x68, 0x6c, 0x8b, 0xbe, 0xec, 0x9d, 0x0c, 0x3e,
  0x4c, 0xa0, 0xd2, 0xbd, 0x71, 0xfd, 0x1a, 0xbe, 0x00, 0x00, 0x0c, 0xb7,
  0xe2, 0x45, 0x2e, 0x3e, 0xfa, 0xc3, 0x3f, 0x3e, 0x00, 0xb9, 0xd5, 0xba,
  0xf7, 0xf4, 0x81, 0xbe, 0x30, 0xab, 0x0f, 0xbd, 0xf6, 0x7d, 0x73, 0xbe,
  0x7a, 0x15, 0xb3, 0xbe, 0x82, 0xd9, 0x59, 0x3e, 0x35, 0xfd, 0x98, 0x3e,
  0x60, 0xe0, 0x9f, 0x3c, 0xb1, 0x87, 0xac, 0xbe, 0x8c, 0x74, 0x66, 0xbe,
  0xbf, 0xb6, 0xb2, 0xbe, 0x4f, 0x90, 0x82, 0xbe, 0x04, 0x47, 0x3e, 0xbe,
  0xc0, 0x74, 0x7d, 0x3d, 0x5a, 0xf0, 0x6c, 0x3e, 0x2f, 0x0f, 0x9d, 0xbe,
  0x40, 0x12, 0xc1, 0xbc, 0xda, 0xaf, 0x91, 0xbe, 0x68, 0xd3, 0x84, 0xbe,
  0x05, 0x0f, 0x9f, 0xbe, 0x66, 0x30, 0x55, 0x3e, 0x57, 0x2a, 0x41, 0xbe,
  0xc2, 0x4b, 0x47, 0x3e, 0xe4, 0x60, 0xce, 0xbd, 0x12, 0xce, 0x31, 0x3e,
  0xbe, 0xff, 0x66, 0x3e, 0x8e, 0xa6, 0x3f, 0x3e, 0x58, 0x96, 0x18, 0x3d,
  0x8f, 0x03, 0x82, 0xbe, 0x58, 0xf1, 0x00, 0x3d, 0x69, 0x34, 0xa0, 0x3e,
  0x30, 0xfb, 0x88, 0x3d, 0xc5, 0xd3, 0xa1, 0x3e, 0xfa, 0x51, 0x54, 0x3e,
  0x2c, 0x2e, 0xa7, 0xbd, 0x88, 0x92, 0x9a, 0xbd, 0x61, 0xcd, 0x2b, 0xbe,
  0xda, 0xba, 0xb1, 0xbe, 0x4c, 0x55, 0xe7, 0x3d, 0xfc, 0x98, 0xa7, 0x3d,
  0x4b, 0x60, 0xad, 0x3e, 0x4a, 0xa6, 0x34, 0x3e, 0x89, 0x02, 0x36, 0xbe,
  0x19, 0x83, 0x0c, 0xbe, 0x8a, 0xd5, 0x54, 0x3e, 0x9a, 0x64, 0xa5, 0xbe,
  0xc1, 0xc7, 0x92, 0xbe, 0x87, 0x92, 0xae, 0xbe, 0xba, 0xc6, 0x33, 0x3e,
  0xa4, 0x45, 0x80, 0xbd, 0x51, 0x75, 0x30, 0xbe, 0xdb, 0x5a, 0xa7, 0x3e,
  0xf0, 0xa0, 0x69, 0x3d, 0xe9, 0x4a, 0x9a, 0x3e, 0x50, 0x27, 0x0f, 0xbe,
  0xe1, 0x9d, 0x96, 0x3e, 0x61, 0x92, 0xb1, 0x3e, 0x37, 0xdb, 0xa8, 0x3e,
  0x76, 0x6b, 0x0f, 0x3e, 0x4d, 0x88, 0x8c, 0xbe, 0x46, 0x2b, 0x3c, 0xbe,
  0xa4, 0x24, 0xea, 0x3d, 0x7e, 0x76, 0x0d, 0x3e, 0x19, 0xb2, 0x92, 0x3e,
  0x1e, 0x05, 0x86, 0xbe, 0xda, 0xf3, 0xe6, 0xbd, 0x73, 0xd4, 0x4d, 0xbe,
  0x80, 0x18, 0xc1, 0xbb, 0x51, 0x24, 0x95, 0x3e, 0x39, 0x4a, 0xb3, 0x3e,
  0xff, 0xaa, 0x9c, 0x3e, 0xc8, 0xbb, 0x86, 0x3d, 0x17, 0xb4, 0x4a, 0xbe,
  0x70, 0x4c, 0x12, 0x3d, 0xb1, 0xd4, 0x8d, 0x3e, 0xe7, 0x0c, 0x94, 0x3e,
  0x33, 0xb1, 0x86, 0x3e, 0xc2, 0x61, 0x47, 0x3e, 0xe0, 0x24, 0xca, 0xbc,
  0x23, 0x80, 0x4f, 0xbe, 0x78, 0x35, 0x10, 0xbe, 0xf6, 0x0e, 0x2b, 0x3e,
  0xb1, 0x2f, 0x0e, 0xbe, 0xe4, 0x88, 0xc1, 0x3d, 0xeb, 0x29, 0x31, 0xbe,
  0x00, 0xc4, 0xca, 0xb9, 0x07, 0x56, 0x88, 0x3e, 0x23, 0x5d, 0x07, 0xbe,
  0x6e, 0x84, 0x18, 0x3e, 0x30, 0x15, 0x81, 0xbe, 0x05, 0xb3, 0xa2, 0xbe,
  0xe4, 0x55, 0x87, 0x3d, 0xce, 0x29, 0xb1, 0xbe, 0x80, 0xd9, 0x60, 0x3d,
  0x14, 0xd3, 0xab, 0x3d, 0x1d, 0x70, 0xa7, 0x3e, 0xf8, 0x63, 0x4c, 0xbd,
  0x66, 0x64, 0x82, 0xbe, 0x86, 0x65, 0x69, 0x3e, 0x57, 0x0b, 0xb0, 0x3e,
  0x2c, 0x49, 0xcc, 0xbd, 0x26, 0xc7, 0x6e, 0x3e, 0xb6, 0x90, 0x87, 0xbe,
  0x45, 0x0f, 0x39, 0xbe, 0x25, 0xbb, 0x4d, 0xbe, 0x98, 0xbd, 0x45, 0x3d,
  0x7d, 0xe0, 0x86, 0x3e, 0x02, 0xdb, 0x31, 0x3e, 0xd4, 0xe5, 0xa9, 0xbd,
  0xa0, 0xde, 0x33, 0x3d, 0x66, 0xda, 0x2b, 0x3e, 0x92, 0x7e, 0x19, 0x3e,
  0xf7, 0x4b, 0x94, 0x3e, 0xe1, 0x52, 0xa4, 0x3e, 0xd2, 0x64, 0x7b, 0x3e,
  0xec, 0x7e, 0xf1, 0xbd, 0x41, 0x56, 0x89, 0x3e, 0x35, 0x63, 0x97, 0xbe,
  0x07, 0x41, 0x42, 0xbe, 0x7a, 0x75, 0x50, 0x3e, 0x9a, 0x79, 0x6f, 0x3e,
  0x78, 0x8f, 0xfa, 0x3d, 0xf5, 0x49, 0x9c, 0x3e, 0xf0, 0x09, 0xd5, 0xbc,
  0x3e, 0xb2, 0x55, 0xbe, 0x1e, 0x2b, 0x6f, 0xbe, 0x2a, 0x25, 0x50, 0x3e,
  0x80, 0x0c, 0xa0, 0xbb, 0xa8, 0xb4, 0x3f, 0x3d, 0xf4, 0x25, 0xee, 0x3d,
  0x26, 0x83, 0x0f, 0x3e, 0x88, 0x0f, 0x2c, 0xbd, 0x3a, 0x5f, 0x3c, 0x3e,
  0xf1, 0xed, 0xa0, 0xbe, 0x34, 0xdb, 0x7c, 0xbe, 0x24, 0x4d, 0x4e, 0xbe,
  0x60, 0xbb, 0xd1, 0xbd, 0x00, 0xa8, 0xbd, 0x3b, 0xcc, 0xda, 0xad, 0x3d,
  0xb0, 0xa3, 0x80, 0xbe, 0xc0, 0x54, 0x7a, 0xbc, 0x60, 0x4f, 0x9b, 0xbd,
  0x87, 0x61, 0x26, 0xbe, 0x4c, 0x33, 0xe1, 0x3d, 0x70, 0x11, 0xbe, 0x3c,
  0xd0, 0x31, 0xfa, 0x3d, 0x20, 0x8c, 0x26, 0x3c, 0x69, 0x58, 0xb1, 0xbe,
  0x7a, 0xc8, 0x23, 0x3e, 0x0e, 0xd9, 0x35, 0x3e, 0x55, 0xcf, 0x21, 0xbe,
  0xf3, 0x61, 0x8c, 0x3e, 0x2f, 0x79, 0x3d, 0xbe, 0x40, 0x29, 0xc8, 0x3d,
  0x51, 0xff, 0x86, 0x3e, 0x38, 0x96, 0x1f, 0xbe, 0x1e, 0x8b, 0x59, 0x3e,
  0x7f, 0x9c, 0x8e, 0x3e, 0xe8, 0x06, 0x7c, 0xbd, 0x92, 0xcd, 0x0f, 0xbe,
  0xec, 0x20, 0x14, 0x3e, 0x6a, 0x44, 0xd7, 0xbd, 0x8f, 0x09, 0x8e, 0x3e,
  0x50, 0xa7, 0x55, 0x3d, 0x90, 0xb2, 0x07, 0x3d, 0x7e, 0x79, 0x1e, 0x3e,
  0x39, 0x2a, 0xad, 0x3e, 0x00, 0xca, 0x5d, 0xbb, 0x72, 0x06, 0x20, 0x3e,
  0xcf, 0xa9, 0x21, 0xbe, 0x00, 0xa2, 0xa7, 0xbd, 0x64, 0x2e, 0x8f, 0xbe,
  0xb8, 0x85, 0x70, 0x3d, 0x1a, 0xa9, 0x19, 0xbe, 0x20, 0xa5, 0x94, 0x3d,
  0x4b, 0xb2, 0x82, 0xbe, 0xfc, 0x1c, 0x88, 0xbe, 0x51, 0x51, 0x8b, 0x3e,
  0x5c, 0xb3, 0x94, 0x3d, 0x46, 0x99, 0x94, 0xbe, 0xa2, 0x8a, 0x5d, 0x3e,
  0x80, 0x9b, 0xa6, 0xbe, 0xb0, 0x4c, 0xde, 0x3c, 0x58, 0xb3, 0x0a, 0x3e,
  0xd1, 0xca, 0x22, 0xbe, 0x80, 0x82, 0x7b, 0xbd, 0x39, 0xb0, 0x89, 0xbe,
  0x28, 0x17, 0x13, 0x3e, 0x51, 0xfb, 0x97, 0x3e, 0x70, 0xf6, 0x86, 0x3d,
  0x86, 0xd6, 0xe2, 0xbd, 0x2c, 0x15, 0xa6, 0xbe, 0xfe, 0x9d, 0x47, 0x3e,
  0xfd, 0xc5, 0xa5, 0x3e, 0xdc, 0xc8, 0x9a, 0xbe, 0x98, 0x9b, 0x61, 0xbd,
  0x68, 0xc8, 0x81, 0xbe, 0x32, 0x11, 0xa3, 0xbe, 0x4b, 0x2a, 0x8b, 0xbe,
  0x2b, 0x75, 0x59, 0xbe, 0x9f, 0x37, 0x56, 0xbe, 0x42, 0xb7, 0x19, 0x3e,
  0xf2, 0x2b, 0x0c, 0x3e, 0x18, 0x6b, 0x65, 0xbe, 0x80, 0x2d, 0xb9, 0xbd,
  0x00, 0x3e, 0x54, 0x3d, 0xc9, 0x2c, 0xaa, 0x3e, 0x74, 0xc9, 0xe3, 0x3d,
  0xf0, 0x60, 0x0f, 0x3d, 0x0f, 0x33, 0x84, 0xbe, 0xa4, 0x1b, 0xfd, 0x3d,
  0xac, 0x38, 0xdb, 0x3d, 0x55, 0xe7, 0x31, 0xbe, 0x1e, 0xcc, 0x94, 0xbe,
  0xb0, 0x37, 0xc9, 0xbc, 0x40, 0x19, 0xbe, 0xbd, 0x20, 0x67, 0x05, 0x3c,
  0x40, 0x44, 0xe9, 0x3c, 0x0d, 0xda, 0x29, 0xbe, 0xc4, 0xfa, 0xea, 0xbd,
  0x46, 0x11, 0x18, 0x3e, 0xc0, 0xa3, 0x8c, 0x3b, 0x00, 0xa4, 0x84, 0x3b,
  0xa0, 0xd4, 0x4a, 0x3c, 0xde, 0xe8, 0x44, 0x3e, 0x50, 0x58, 0x31, 0xbd,
  0xc2, 0x0d, 0xe0, 0xbd, 0x20, 0x1d, 0x56, 0xbc, 0x8a, 0x22, 0x80, 0xbe,
  0xf2, 0xfe, 0x87, 0xbe, 0x7b, 0xbd, 0x07, 0xbe, 0x36, 0x0d, 0xa5, 0xbe,
  0xe6, 0x88, 0x81, 0xbe, 0x60, 0x05, 0xff, 0xbc, 0x42, 0x11, 0xe8, 0xbd,
  0xb0, 0x4f, 0xfc, 0x3d, 0xec, 0x00, 0xd4, 0xbd, 0xf6, 0xcb, 0x62, 0x3e,
  0xdc, 0x6d, 0xbf, 0x3d, 0x0c, 0xa9, 0xea, 0x3d, 0xaf, 0x04, 0x20, 0xbe,
  0x70, 0x18, 0xc7, 0xbc, 0xda, 0x00, 0x37, 0x3e, 0xa6, 0x03, 0x62, 0x3e,
  0x64, 0xa1, 0x8a, 0xbe, 0x18, 0x39, 0x7c, 0xbd, 0x22, 0x10, 0x2d, 0x3e,
  0xb2, 0x74, 0x03, 0x3e, 0xbe, 0x1a, 0x23, 0xbe, 0x10, 0xf8, 0xd7, 0x3d,
  0xce, 0x38, 0x37, 0x3e, 0xa9, 0x53, 0xab, 0x3e, 0x98, 0x92, 0x4d, 0x3d,
  0xf8, 0xa4, 0x4e, 0x3d, 0x9b, 0xbf, 0x78, 0xbe, 0x72, 0x6c, 0xf9, 0xbd,
  0x4a, 0xff, 0x57, 0x3e, 0x1a, 0x0f, 0x44, 0xbe, 0x36, 0xff, 0xff, 0xff,
  0x10, 0x00, 0x00, 0x00, 0x04, 0x00, 0x00, 0x00, 0x14, 0x00, 0x00, 0x00,
  0x20, 0x00, 0x00, 0x00, 0x02, 0x00, 0x00, 0x00, 0x01, 0x00, 0x00, 0x00,
  0x16, 0x00, 0x00, 0x00, 0x08, 0x00, 0x00, 0x00, 0x49, 0x64, 0x65, 0x6e,
  0x74, 0x69, 0x74, 0x79, 0x00, 0x00, 0x00, 0x00, 0xbc, 0xfe, 0xff, 0xff,
  0x6a, 0xff, 0xff, 0xff, 0x10, 0x00, 0x00, 0x00, 0x03, 0x00, 0x00, 0x00,
  0x14, 0x00, 0x00, 0x00, 0x34, 0x00, 0x00, 0x00, 0x02, 0x00, 0x00, 0x00,
  0x01, 0x00, 0x00, 0x00, 0x18, 0x00, 0x00, 0x00, 0x1d, 0x00, 0x00, 0x00,
  0x73, 0x65, 0x71, 0x75, 0x65, 0x6e, 0x74, 0x69, 0x61, 0x6c, 0x5f, 0x31,
  0x32, 0x39, 0x2f, 0x64, 0x65, 0x6e, 0x73, 0x65, 0x5f, 0x33, 0x32, 0x33,
  0x2f, 0x52, 0x65, 0x6c, 0x75, 0x00, 0x00, 0x00, 0x04, 0xff, 0xff, 0xff,
  0xb2, 0xff, 0xff, 0xff, 0x10, 0x00, 0x00, 0x00, 0x02, 0x00, 0x00, 0x00,
  0x14, 0x00, 0x00, 0x00, 0x38, 0x00, 0x00, 0x00, 0x02, 0x00, 0x00, 0x00,
  0x01, 0x00, 0x00, 0x00, 0x18, 0x00, 0x00, 0x00, 0x1d, 0x00, 0x00, 0x00,
  0x73, 0x65, 0x71, 0x75, 0x65, 0x6e, 0x74, 0x69, 0x61, 0x6c, 0x5f, 0x31,
  0x32, 0x39, 0x2f, 0x64, 0x65, 0x6e, 0x73, 0x65, 0x5f, 0x33, 0x32, 0x32,
  0x2f, 0x52, 0x65, 0x6c, 0x75, 0x00, 0x00, 0x00, 0x04, 0x00, 0x06, 0x00,
  0x04, 0x00, 0x00, 0x00, 0x00, 0x00, 0x0e, 0x00, 0x14, 0x00, 0x04, 0x00,
  0x00, 0x00, 0x08, 0x00, 0x0c, 0x00, 0x10, 0x00, 0x0e, 0x00, 0x00, 0x00,
  0x10, 0x00, 0x00, 0x00, 0x01, 0x00, 0x00, 0x00, 0x14, 0x00, 0x00, 0x00,
  0x2c, 0x00, 0x00, 0x00, 0x02, 0x00, 0x00, 0x00, 0x01, 0x00, 0x00, 0x00,
  0x18, 0x00, 0x00, 0x00, 0x0f, 0x00, 0x00, 0x00, 0x64, 0x65, 0x6e, 0x73,
  0x65, 0x5f, 0x33, 0x32, 0x32, 0x5f, 0x69, 0x6e, 0x70, 0x75, 0x74, 0x00,
  0x08, 0x00, 0x0c, 0x00, 0x04, 0x00, 0x08, 0x00, 0x08, 0x00, 0x00, 0x00,
  0x10, 0x00, 0x00, 0x00, 0x04, 0x00, 0x00, 0x00, 0x01, 0x00, 0x00, 0x00,
  0x00, 0x00, 0x7f, 0x43, 0x01, 0x00, 0x00, 0x00, 0x00, 0x00, 0x00, 0x00,
  0x03, 0x00, 0x00, 0x00, 0x98, 0x00, 0x00, 0x00, 0x44, 0x00, 0x00, 0x00,
  0x04, 0x00, 0x00, 0x00, 0x88, 0xff, 0xff, 0xff, 0x00, 0x00, 0x00, 0x08,
  0x10, 0x00, 0x00, 0x00, 0x1c, 0x00, 0x00, 0x00, 0x28, 0x00, 0x00, 0x00,
  0x1c, 0x00, 0x00, 0x00, 0x03, 0x00, 0x00, 0x00, 0x06, 0x00, 0x00, 0x00,
  0x07, 0x00, 0x00, 0x00, 0x08, 0x00, 0x00, 0x00, 0x01, 0x00, 0x00, 0x00,
  0x00, 0x00, 0x00, 0x00, 0x00, 0x00, 0x00, 0x00, 0x04, 0x00, 0x04, 0x00,
  0x04, 0x00, 0x00, 0x00, 0xc4, 0xff, 0xff, 0xff, 0x00, 0x00, 0x00, 0x08,
  0x10, 0x00, 0x00, 0x00, 0x1c, 0x00, 0x00, 0x00, 0x24, 0x00, 0x00, 0x00,
  0x1c, 0x00, 0x00, 0x00, 0x03, 0x00, 0x00, 0x00, 0x04, 0x00, 0x00, 0x00,
  0x05, 0x00, 0x00, 0x00, 0x03, 0x00, 0x00, 0x00, 0x01, 0x00, 0x00, 0x00,
  0x06, 0x00, 0x00, 0x00, 0x00, 0x00, 0x00, 0x00, 0x8e, 0xff, 0xff, 0xff,
  0x00, 0x00, 0x00, 0x01, 0x14, 0x00, 0x18, 0x00, 0x00, 0x00, 0x08, 0x00,
  0x0c, 0x00, 0x07, 0x00, 0x10, 0x00, 0x00, 0x00, 0x00, 0x00, 0x14, 0x00,
  0x14, 0x00, 0x00, 0x00, 0x00, 0x00, 0x00, 0x08, 0x10, 0x00, 0x00, 0x00,
  0x1c, 0x00, 0x00, 0x00, 0x24, 0x00, 0x00, 0x00, 0x1c, 0x00, 0x00, 0x00,
  0x03, 0x00, 0x00, 0x00, 0x01, 0x00, 0x00, 0x00, 0x02, 0x00, 0x00, 0x00,
  0x03, 0x00, 0x00, 0x00, 0x01, 0x00, 0x00, 0x00, 0x04, 0x00, 0x00, 0x00,
  0x00, 0x00, 0x00, 0x00, 0xde, 0xff, 0xff, 0xff, 0x00, 0x00, 0x00, 0x01,
  0x01, 0x00, 0x00, 0x00, 0x04, 0x00, 0x00, 0x00, 0xfa, 0xff, 0xff, 0xff,
  0x00, 0x09, 0x06, 0x00, 0x06, 0x00, 0x05, 0x00, 0x06, 0x00, 0x00, 0x00,
  0x00, 0x09, 0x06, 0x00, 0x08, 0x00, 0x07, 0x00, 0x06, 0x00, 0x00, 0x00,
  0x00, 0x00, 0x00, 0x09
};
unsigned int DNN_IV_22_tflite_len = 8296;
