unsigned char ANN_hybrid_22_tflite[] = {
  0x1c, 0x00, 0x00, 0x00, 0x54, 0x46, 0x4c, 0x33, 0x00, 0x00, 0x12, 0x00,
  0x1c, 0x00, 0x04, 0x00, 0x08, 0x00, 0x0c, 0x00, 0x10, 0x00, 0x14, 0x00,
  0x00, 0x00, 0x18, 0x00, 0x12, 0x00, 0x00, 0x00, 0x03, 0x00, 0x00, 0x00,
  0x58, 0x18, 0x00, 0x00, 0x10, 0x00, 0x00, 0x00, 0x1c, 0x00, 0x00, 0x00,
  0x2c, 0x00, 0x00, 0x00, 0x0c, 0x00, 0x00, 0x00, 0x01, 0x00, 0x00, 0x00,
  0xcc, 0x00, 0x00, 0x00, 0x01, 0x00, 0x00, 0x00, 0x94, 0x00, 0x00, 0x00,
  0x0f, 0x00, 0x00, 0x00, 0x54, 0x4f, 0x43, 0x4f, 0x20, 0x43, 0x6f, 0x6e,
  0x76, 0x65, 0x72, 0x74, 0x65, 0x64, 0x2e, 0x00, 0x09, 0x00, 0x00, 0x00,
  0x68, 0x00, 0x00, 0x00, 0x60, 0x00, 0x00, 0x00, 0x58, 0x00, 0x00, 0x00,
  0x50, 0x00, 0x00, 0x00, 0x44, 0x00, 0x00, 0x00, 0x30, 0x00, 0x00, 0x00,
  0x1c, 0x00, 0x00, 0x00, 0x10, 0x00, 0x00, 0x00, 0x04, 0x00, 0x00, 0x00,
  0xd6, 0xff, 0xff, 0xff, 0x44, 0x00, 0x00, 0x00, 0xde, 0xff, 0xff, 0xff,
  0x08, 0x01, 0x00, 0x00, 0xf6, 0xff, 0xff, 0xff, 0xc0, 0x01, 0x00, 0x00,
  0x00, 0x00, 0x06, 0x00, 0x0a, 0x00, 0x04, 0x00, 0x06, 0x00, 0x00, 0x00,
  0xf0, 0x0a, 0x00, 0x00, 0x00, 0x00, 0x06, 0x00, 0x08, 0x00, 0x04, 0x00,
  0x06, 0x00, 0x00, 0x00, 0xb0, 0x0b, 0x00, 0x00, 0x98, 0xe8, 0xff, 0xff,
  0x9c, 0xe8, 0xff, 0xff, 0xa0, 0xe8, 0xff, 0xff, 0xa4, 0xe8, 0xff, 0xff,
  0x05, 0x00, 0x00, 0x00, 0x31, 0x2e, 0x35, 0x2e, 0x30, 0x00, 0x00, 0x00,
  0x18, 0xe9, 0xff, 0xff, 0x08, 0x00, 0x00, 0x00, 0x08, 0x00, 0x00, 0x00,
  0x13, 0x00, 0x00, 0x00, 0x6d, 0x69, 0x6e, 0x5f, 0x72, 0x75, 0x6e, 0x74,
  0x69, 0x6d, 0x65, 0x5f, 0x76, 0x65, 0x72, 0x73, 0x69, 0x6f, 0x6e, 0x00,
  0x0c, 0x00, 0x14, 0x00, 0x04, 0x00, 0x08, 0x00, 0x0c, 0x00, 0x10, 0x00,
  0x0c, 0x00, 0x00, 0x00, 0x20, 0x00, 0x00, 0x00, 0x14, 0x00, 0x00, 0x00,
  0x08, 0x00, 0x00, 0x00, 0xcc, 0x16, 0x00, 0x00, 0x01, 0x00, 0x00, 0x00,
  0x00, 0x00, 0x00, 0x00, 0x01, 0x00, 0x00, 0x00, 0x01, 0x00, 0x00, 0x00,
  0x07, 0x00, 0x00, 0x00, 0xcc, 0x15, 0x00, 0x00, 0x58, 0x16, 0x00, 0x00,
  0xcc, 0x0a, 0x00, 0x00, 0x10, 0x0a, 0x00, 0x00, 0xf0, 0x15, 0x00, 0x00,
  0xb0, 0x00, 0x00, 0x00, 0x04, 0x00, 0x00, 0x00, 0xce, 0xe9, 0xff, 0xff,
  0x10, 0x00, 0x00, 0x00, 0x07, 0x00, 0x00, 0x00, 0x10, 0x00, 0x00, 0x00,
  0x38, 0x00, 0x00, 0x00, 0x01, 0x00, 0x00, 0x00, 0x16, 0x00, 0x00, 0x00,
  0x24, 0x00, 0x00, 0x00, 0x73, 0x65, 0x71, 0x75, 0x65, 0x6e, 0x74, 0x69,
  0x61, 0x6c, 0x5f, 0x31, 0x33, 0x30, 0x2f, 0x64, 0x65, 0x6e, 0x73, 0x65,
  0x5f, 0x33, 0x32, 0x36, 0x2f, 0x4d, 0x61, 0x74, 0x4d, 0x75, 0x6c, 0x5f,
  0x62, 0x69, 0x61, 0x73, 0x00, 0x00, 0x00, 0x00, 0x70, 0xe9, 0xff, 0xff,
  0x58, 0x00, 0x00, 0x00, 0x00, 0x00, 0x00, 0x00, 0x00, 0x00, 0x00, 0x00,
  0x00, 0x00, 0x00, 0x00, 0x00, 0x00, 0x00, 0x00, 0x00, 0x00, 0x00, 0x00,
  0x00, 0x00, 0x00, 0x00, 0x00, 0x00, 0x00, 0x00, 0x00, 0x00, 0x00, 0x00,
  0x00, 0x00, 0x00, 0x00, 0x00, 0x00, 0x00, 0x00, 0x00, 0x00, 0x00, 0x00,
  0x00, 0x00, 0x00, 0x00, 0x00, 0x00, 0x00, 0x00, 0x00, 0x00, 0x00, 0x00,
  0x00, 0x00, 0x00, 0x00, 0x00, 0x00, 0x00, 0x00, 0x00, 0x00, 0x00, 0x00,
  0x00, 0x00, 0x00, 0x00, 0x00, 0x00, 0x00, 0x00, 0x00, 0x00, 0x00, 0x00,
  0x00, 0x00, 0x00, 0x00, 0x00, 0x00, 0x00, 0x00, 0x76, 0xea, 0xff, 0xff,
  0x10, 0x00, 0x00, 0x00, 0x06, 0x00, 0x00, 0x00, 0x14, 0x00, 0x00, 0x00,
  0x50, 0x00, 0x00, 0x00, 0x02, 0x00, 0x00, 0x00, 0x16, 0x00, 0x00, 0x00,
  0x1a, 0x00, 0x00, 0x00, 0x38, 0x00, 0x00, 0x00, 0x73, 0x65, 0x71, 0x75,
  0x65, 0x6e, 0x74, 0x69, 0x61, 0x6c, 0x5f, 0x31, 0x33, 0x30, 0x2f, 0x64,
  0x65, 0x6e, 0x73, 0x65, 0x5f, 0x33, 0x32, 0x36, 0x2f, 0x4d, 0x61, 0x74,
  0x4d, 0x75, 0x6c, 0x2f, 0x52, 0x65, 0x61, 0x64, 0x56, 0x61, 0x72, 0x69,
  0x61, 0x62, 0x6c, 0x65, 0x4f, 0x70, 0x2f, 0x74, 0x72, 0x61, 0x6e, 0x73,
  0x70, 0x6f, 0x73, 0x65, 0x00, 0x00, 0x00, 0x00, 0x30, 0xea, 0xff, 0xff,
  0xf0, 0x08, 0x00, 0x00, 0x3e, 0x23, 0x8b, 0xbe, 0x00, 0x4d, 0xb6, 0x3a,
  0x80, 0x28, 0x91, 0x3b, 0xe5, 0x71, 0xb4, 0xbe, 0xaa, 0x4a, 0x85, 0xbe,
  0x74, 0x3a, 0x49, 0xbe, 0x83, 0x16, 0xa1, 0x3e, 0x3d, 0x21, 0x6f, 0xbe,
  0x7a, 0xd2, 0x7c, 0xbe, 0x3c, 0xd6, 0xb4, 0x3d, 0x0a, 0xd3, 0x2d, 0x3e,
  0x14, 0xff, 0xfe, 0xbd, 0x68, 0x4c, 0xd4, 0x3d, 0xa9, 0x4a, 0x96, 0x3e,
  0xf8, 0xa3, 0x33, 0xbe, 0x00, 0xa0, 0x75, 0xb9, 0x44, 0xa5, 0xb9, 0xbd,
  0xae, 0xd9, 0xd6, 0xbd, 0xdf, 0x74, 0xaa, 0x3e, 0xf0, 0x66, 0xdd, 0xbd,
  0xb9, 0x21, 0x06, 0xbe, 0x74, 0x51, 0x84, 0xbe, 0xe0, 0xec, 0x03, 0x3e,
  0x0a, 0xcd, 0x93, 0xbe, 0x1e, 0xfc, 0x45, 0x3e, 0x60, 0xb1, 0x5f, 0x3c,
  0x73, 0xf1, 0x08, 0xbe, 0xf9, 0x55, 0x32, 0xbe, 0x78, 0xc9, 0xac, 0xbd,
  0x1c, 0x8d, 0x86, 0x3d, 0x0a, 0x2a, 0x5d, 0xbe, 0x22, 0x01, 0x96, 0xbe,
  0x78, 0xef, 0x02, 0xbe, 0xd6, 0xbf, 0x59, 0x3e, 0xd2, 0x5a, 0x52, 0x3e,
  0x5b, 0x07, 0xab, 0xbe, 0x21, 0x39, 0x8f, 0x3e, 0x0e, 0x0b, 0x50, 0x3e,
  0x61, 0x03, 0x87, 0x3e, 0x00, 0x61, 0xe8, 0xbb, 0x4d, 0xf5, 0xa4, 0xbe,
  0x29, 0x96, 0x86, 0x3e, 0xc9, 0x2e, 0xab, 0x3e, 0x44, 0x68, 0x00, 0xbe,
  0x14, 0x0e, 0x9f, 0xbd, 0xaf, 0xaf, 0xb3, 0x3e, 0xe8, 0x30, 0x77, 0xbe,
  0x45, 0x7d, 0xa8, 0xbe, 0xa2, 0x5c, 0x2f, 0x3e, 0xce, 0x4c, 0x1e, 0x3e,
  0xfc, 0x7d, 0xa7, 0x3d, 0xfc, 0x1f, 0x40, 0xbe, 0xd5, 0x78, 0x98, 0x3e,
  0x7e, 0x66, 0x01, 0x3e, 0x08, 0x0c, 0x18, 0x3d, 0x9c, 0x74, 0xa9, 0xbd,
  0xa6, 0xe3, 0x2f, 0x3e, 0x07, 0xc2, 0xb0, 0xbe, 0x69, 0xca, 0x9a, 0x3e,
  0x48, 0x8e, 0xc3, 0xbd, 0x90, 0x2c, 0xe2, 0xbc, 0x60, 0x42, 0x9d, 0x3d,
  0xa4, 0xa3, 0x91, 0xbe, 0xc4, 0xfa, 0x8b, 0xbe, 0x07, 0x55, 0x94, 0x3e,
  0x93, 0x02, 0xb3, 0x3e, 0x08, 0xc6, 0xf9, 0x3d, 0x60, 0x64, 0x86, 0xbd,
  0x30, 0x26, 0x17, 0xbe, 0xa2, 0xe1, 0xb1, 0xbe, 0x00, 0x1a, 0xd5, 0x3c,
  0xe4, 0xca, 0xa5, 0x3d, 0x8a, 0xfd, 0xd7, 0xbd, 0x3a, 0xae, 0x2b, 0x3e,
  0xe0, 0x7b, 0x84, 0x3c, 0x24, 0x35, 0x0b, 0x3e, 0xba, 0x0e, 0x69, 0x3e,
  0x3a, 0x78, 0x18, 0x3e, 0x07, 0x7d, 0x93, 0xbe, 0x00, 0xa7, 0xba, 0xba,
  0x72, 0xf9, 0x54, 0xbe, 0xec, 0xc0, 0x00, 0x3e, 0xc0, 0xb7, 0x4c, 0xbd,
  0xe0, 0xcf, 0x25, 0xbd, 0xf4, 0xf0, 0x4d, 0xbe, 0xa0, 0x09, 0xcb, 0xbc,
  0x4b, 0x00, 0x8a, 0xbe, 0xc0, 0x6f, 0xa3, 0xbe, 0x12, 0x68, 0x5c, 0xbe,
  0xa9, 0xb4, 0x32, 0xbe, 0xf0, 0x41, 0x18, 0xbd, 0xc0, 0x68, 0xeb, 0x3c,
  0x30, 0xd5, 0xbb, 0xbc, 0xdb, 0x34, 0xa2, 0x3e, 0xb2, 0x3d, 0x62, 0x3e,
  0x85, 0x24, 0x32, 0xbe, 0xdb, 0xae, 0x28, 0xbe, 0x48, 0x94, 0x3d, 0xbd,
  0xa8, 0xfa, 0x0e, 0x3e, 0x00, 0x1f, 0xa5, 0xba, 0x71, 0x50, 0x87, 0x3e,
  0x07, 0xcc, 0x8c, 0x3e, 0x40, 0x66, 0xed, 0x3c, 0xef, 0xab, 0x83, 0xbe,
  0x59, 0x0b, 0xa0, 0xbe, 0x21, 0x49, 0x8d, 0x3e, 0x82, 0x95, 0x63, 0x3e,
  0x26, 0xf9, 0x3e, 0x3e, 0xab, 0x3d, 0x97, 0x3e, 0x06, 0x29, 0xb1, 0xbe,
  0xb3, 0x1d, 0xae, 0x3e, 0x08, 0xdd, 0x39, 0x3d, 0x5a, 0x63, 0x63, 0x3e,
  0xe8, 0xcc, 0x31, 0xbd, 0x50, 0x22, 0x65, 0xbd, 0x28, 0xd8, 0x03, 0xbd,
  0xb8, 0x22, 0x0a, 0xbe, 0x5e, 0x44, 0x58, 0x3e, 0x38, 0x7c, 0x37, 0x3d,
  0x7a, 0x46, 0x85, 0xbe, 0x88, 0x73, 0x68, 0xbd, 0x00, 0x5c, 0xcb, 0x3b,
  0x02, 0x25, 0xa5, 0xbe, 0x6e, 0x5f, 0x84, 0xbe, 0x77, 0xb4, 0x9e, 0x3e,
  0xac, 0xf4, 0xa6, 0xbd, 0x50, 0xbc, 0x87, 0x3c, 0xf8, 0xc1, 0x77, 0xbd,
  0x37, 0xc6, 0x8c, 0x3e, 0x9a, 0xc7, 0x68, 0x3e, 0xc6, 0xb0, 0x46, 0x3e,
  0xcf, 0xb0, 0x05, 0xbe, 0xa7, 0x5f, 0x75, 0xbe, 0xb5, 0x22, 0xa3, 0x3e,
  0x60, 0xc6, 0x36, 0xbc, 0x20, 0x2e, 0xbb, 0x3c, 0x10, 0xa2, 0xb2, 0xbe,
  0x64, 0xe6, 0xfc, 0x3d, 0xc0, 0xd6, 0x36, 0x3d, 0xbe, 0xb9, 0x25, 0xbe,
  0xc4, 0xe2, 0xc8, 0xbd, 0x60, 0x58, 0xa9, 0xbe, 0x8e, 0x84, 0x5b, 0x3e,
  0xb0, 0x6f, 0xe7, 0x3d, 0x70, 0xc4, 0x5a, 0x3d, 0x8e, 0x3f, 0xdf, 0xbd,
  0x32, 0x69, 0xa8, 0xbe, 0xd7, 0xcb, 0xb4, 0xbe, 0xa3, 0x9b, 0xab, 0xbe,
  0x6d, 0x2d, 0x14, 0xbe, 0x08, 0x1c, 0x6f, 0xbd, 0xab, 0xa6, 0x80, 0x3e,
  0x7b, 0xc5, 0xa8, 0x3e, 0x82, 0x37, 0x8d, 0xbe, 0x42, 0x8c, 0x6a, 0xbe,
  0xa1, 0xf4, 0x84, 0x3e, 0x60, 0x13, 0x43, 0xbc, 0x84, 0x6e, 0x12, 0x3e,
  0x36, 0xb2, 0x3e, 0x3e, 0x15, 0xfb, 0xaa, 0x3e, 0x1e, 0xc2, 0x64, 0xbe,
  0xe2, 0x6e, 0x5f, 0x3e, 0x64, 0x6e, 0xaf, 0x3d, 0x90, 0xec, 0x09, 0x3e,
  0x0c, 0x9a, 0xbf, 0x3d, 0x73, 0x7d, 0x8c, 0xbe, 0x3e, 0x3e, 0x60, 0x3e,
  0x03, 0x45, 0xa4, 0x3e, 0x50, 0x00, 0x7a, 0xbd, 0xa7, 0xa0, 0xa9, 0xbe,
  0x6a, 0x48, 0x1f, 0x3e, 0x05, 0x01, 0xaa, 0x3e, 0x44, 0xba, 0xc9, 0xbd,
  0xf8, 0x18, 0x7b, 0x3d, 0x4d, 0x98, 0xa2, 0x3e, 0xbe, 0xf7, 0x7e, 0xbe,
  0x7a, 0xa0, 0x78, 0x3e, 0xe9, 0x7e, 0xa5, 0xbe, 0xe0, 0xe1, 0x33, 0xbd,
  0xde, 0xa7, 0xdb, 0xbd, 0xfe, 0x7c, 0x82, 0xbe, 0xca, 0x68, 0x52, 0x3e,
  0xd0, 0x72, 0xbd, 0xbd, 0x74, 0x26, 0xb0, 0xbd, 0x24, 0xff, 0xea, 0xbd,
  0x8c, 0x67, 0x86, 0xbd, 0xb0, 0xba, 0xbc, 0x3c, 0xa4, 0x57, 0xb4, 0xbe,
  0x77, 0x97, 0x37, 0xbe, 0x64, 0xb9, 0xec, 0x3d, 0x80, 0x74, 0x88, 0x3c,
  0x00, 0x3c, 0x71, 0xba, 0xbb, 0x20, 0xb2, 0xbe, 0x0a, 0x34, 0x07, 0x3e,
  0xd5, 0xf9, 0x9b, 0xbe, 0x19, 0x03, 0x8c, 0x3e, 0x60, 0x0f, 0x85, 0xbe,
  0xb6, 0xb4, 0x3a, 0x3e, 0x30, 0xce, 0x7d, 0xbd, 0x20, 0xc0, 0xa4, 0xbe,
  0xd0, 0xf3, 0x37, 0x3d, 0xb5, 0x55, 0x8c, 0xbe, 0x08, 0x8c, 0x9b, 0xbe,
  0xd0, 0x2e, 0x96, 0xbc, 0x3c, 0xe4, 0x10, 0xbe, 0xda, 0x10, 0x1c, 0x3e,
  0xfe, 0x48, 0x1e, 0x3e, 0xfb, 0x48, 0x93, 0x3e, 0xab, 0x40, 0x88, 0x3e,
  0xac, 0x65, 0x3d, 0xbe, 0x69, 0x11, 0x91, 0x3e, 0x92, 0x54, 0x4a, 0x3e,
  0x54, 0xd3, 0x93, 0xbe, 0x23, 0x9a, 0x89, 0x3e, 0x90, 0x80, 0x2d, 0xbd,
  0xa0, 0x74, 0x75, 0xbe, 0x64, 0xd8, 0x7e, 0xbe, 0x5e, 0x1e, 0x4a, 0x3e,
  0xa5, 0xd9, 0xa0, 0x3e, 0xf0, 0x34, 0xa0, 0xbd, 0x3c, 0xaf, 0xc8, 0x3d,
  0xe2, 0x7c, 0x09, 0x3e, 0xe4, 0x3c, 0xe9, 0xbd, 0x70, 0x36, 0x11, 0xbe,
  0x36, 0x75, 0x5a, 0x3e, 0xa9, 0xd9, 0x92, 0x3e, 0xc6, 0x40, 0x1b, 0x3e,
  0x60, 0x69, 0x64, 0xbe, 0xc0, 0x88, 0x4e, 0xbd, 0x9c, 0xf7, 0x08, 0x3e,
  0x58, 0x7c, 0xa2, 0x3d, 0x60, 0xe1, 0xe9, 0x3d, 0x70, 0x8c, 0xa5, 0x3c,
  0xe0, 0x46, 0xa9, 0x3c, 0x0b, 0x71, 0xa5, 0x3e, 0xf7, 0x4f, 0x3a, 0xbe,
  0xc6, 0x26, 0x7f, 0x3e, 0xdd, 0xb8, 0x8f, 0x3e, 0xf3, 0xec, 0x8c, 0x3e,
  0x18, 0x90, 0x68, 0x3d, 0xe6, 0x43, 0x4b, 0xbe, 0xa2, 0x64, 0x38, 0x3e,
  0xf2, 0xf3, 0x22, 0x3e, 0xa8, 0x0a, 0xa8, 0x3d, 0x58, 0x51, 0xde, 0x3d,
  0xe0, 0xa5, 0x43, 0xbd, 0x08, 0xdf, 0x8a, 0xbd, 0xa8, 0xfc, 0x3d, 0x3d,
  0xfc, 0x4d, 0x17, 0xbe, 0x5d, 0xd3, 0x8e, 0x3e, 0x91, 0xdb, 0x1a, 0xbe,
  0xa2, 0xb8, 0x5d, 0xbe, 0xfe, 0x9f, 0x67, 0x3e, 0x90, 0x47, 0x23, 0x3d,
  0x32, 0x64, 0x59, 0x3e, 0x9c, 0xb0, 0x8e, 0x3d, 0x9c, 0xf4, 0xe9, 0xbd,
  0xce, 0x14, 0x50, 0xbe, 0x80, 0xdd, 0x0b, 0x3e, 0x4b, 0xee, 0xab, 0xbe,
  0xfe, 0x4b, 0x20, 0xbe, 0xaa, 0x4b, 0xda, 0xbd, 0x5a, 0xaf, 0x21, 0x3e,
  0x08, 0x9c, 0x0e, 0xbe, 0xb3, 0x91, 0x99, 0x3e, 0x24, 0xd0, 0xee, 0x3d,
  0xb6, 0x91, 0x48, 0x3e, 0x80, 0x76, 0x79, 0xbe, 0xa2, 0x7e, 0x50, 0x3e,
  0x54, 0x84, 0xb3, 0xbe, 0xf2, 0xc6, 0x4a, 0x3e, 0x02, 0x9f, 0x0c, 0x3e,
  0x60, 0x48, 0xa2, 0x3d, 0x38, 0x52, 0xb1, 0x3d, 0x80, 0x79, 0xda, 0xbc,
  0xb8, 0x45, 0x4c, 0x3d, 0x80, 0x89, 0x74, 0x3d, 0xf2, 0xd9, 0x62, 0x3e,
  0x9c, 0x68, 0xa3, 0x3d, 0xc0, 0x9e, 0x4f, 0x3d, 0x70, 0x7e, 0xca, 0xbd,
  0x6f, 0x92, 0xa7, 0xbe, 0x54, 0x42, 0x47, 0xbe, 0x21, 0xe8, 0xab, 0x3e,
  0xe2, 0x3b, 0x1c, 0xbe, 0x38, 0xce, 0x04, 0x3d, 0x50, 0xbd, 0x06, 0x3e,
  0xb0, 0xaa, 0x9d, 0x3c, 0x9a, 0xa9, 0x6b, 0x3e, 0x46, 0xe7, 0x5d, 0x3e,
  0x53, 0x91, 0x9d, 0x3e, 0x12, 0x21, 0x3f, 0x3e, 0xcc, 0xca, 0x95, 0xbe,
  0x0c, 0xd5, 0xdc, 0x3d, 0x14, 0x6d, 0xef, 0x3d, 0x00, 0x58, 0xdf, 0x3b,
  0x6b, 0xf1, 0x8d, 0x3e, 0x00, 0x74, 0xb5, 0x3b, 0x5e, 0xf1, 0x1b, 0x3e,
  0xf2, 0xf9, 0x1c, 0x3e, 0x5c, 0xa2, 0xc9, 0x3d, 0x9e, 0xdc, 0x18, 0x3e,
  0xb3, 0x8c, 0x90, 0xbe, 0xd0, 0x32, 0xf9, 0x3d, 0x40, 0xb7, 0x8f, 0x3d,
  0xce, 0x3c, 0x79, 0x3e, 0x57, 0xb2, 0xb4, 0x3e, 0x86, 0x38, 0xd7, 0xbd,
  0xb0, 0x1a, 0x6f, 0xbd, 0x6a, 0x69, 0x27, 0x3e, 0x9b, 0x21, 0x85, 0x3e,
  0xdf, 0x55, 0x2c, 0xbe, 0x25, 0x91, 0x9c, 0x3e, 0x25, 0x20, 0x94, 0x3e,
  0xe1, 0x72, 0x4f, 0xbe, 0x69, 0x0d, 0xa5, 0x3e, 0xdd, 0x20, 0x9f, 0xbe,
  0xc7, 0xb2, 0x88, 0x3e, 0x88, 0x85, 0xf5, 0x3d, 0x88, 0x7d, 0x98, 0xbe,
  0xda, 0x30, 0x20, 0x3e, 0x18, 0x42, 0x29, 0xbd, 0x68, 0x69, 0xb0, 0x3d,
  0x9d, 0x9e, 0x91, 0xbe, 0x9a, 0xe8, 0xdd, 0xbd, 0x26, 0xd0, 0x71, 0xbe,
  0xac, 0x5b, 0x4c, 0xbe, 0x42, 0xdb, 0x48, 0x3e, 0xf8, 0x99, 0x94, 0xbe,
  0xcd, 0x86, 0x01, 0xbe, 0xe8, 0x6d, 0x23, 0xbd, 0x14, 0xbe, 0xcd, 0xbd,
  0x5c, 0x6b, 0xd5, 0xbd, 0x6e, 0xcd, 0x7e, 0xbe, 0xa1, 0x6a, 0x3b, 0xbe,
  0x80, 0x69, 0x95, 0xbc, 0xb3, 0x51, 0x0a, 0xbe, 0x48, 0x61, 0x72, 0xbe,
  0xe1, 0x8f, 0x88, 0xbe, 0xd6, 0x7d, 0x74, 0x3e, 0xc0, 0xba, 0xc6, 0x3c,
  0xce, 0x9d, 0x4c, 0xbe, 0xcc, 0x86, 0xe7, 0xbd, 0xf2, 0xbc, 0x4c, 0x3e,
  0x10, 0x4c, 0x92, 0xbc, 0x2a, 0x1c, 0x22, 0x3e, 0x4b, 0x91, 0x0e, 0xbe,
  0xac, 0xf3, 0x55, 0xbe, 0xb2, 0x68, 0x34, 0x3e, 0x9b, 0xef, 0x9d, 0x3e,
  0x0c, 0xc1, 0xab, 0xbe, 0x1a, 0x72, 0x5c, 0xbe, 0x66, 0x5a, 0xb1, 0xbe,
  0x4d, 0x5b, 0x9f, 0x3e, 0x8d, 0x02, 0x37, 0xbe, 0x82, 0x72, 0x1f, 0x3e,
  0xf5, 0xbc, 0x34, 0xbe, 0x00, 0xd5, 0x6c, 0xbd, 0xc0, 0xc6, 0x44, 0xbe,
  0x7e, 0xf4, 0x6e, 0xbe, 0x8f, 0x79, 0x17, 0xbe, 0x00, 0xac, 0x59, 0x3d,
  0x78, 0x38, 0x61, 0xbe, 0x90, 0xa7, 0xa8, 0xbe, 0x3f, 0x22, 0x8e, 0x3e,
  0x3f, 0xab, 0x4b, 0xbe, 0xee, 0x78, 0x70, 0x3e, 0xe0, 0x14, 0x58, 0x3d,
  0x2e, 0xe0, 0x26, 0x3e, 0x9a, 0x07, 0xd7, 0xbd, 0xcc, 0x83, 0x6a, 0xbe,
  0x5a, 0xc5, 0x1f, 0x3e, 0x08, 0x8b, 0x1f, 0x3d, 0x00, 0x47, 0xc9, 0xbd,
  0x20, 0x74, 0xa8, 0x3c, 0xad, 0xef, 0x86, 0x3e, 0xfc, 0x04, 0xcc, 0x3d,
  0x0a, 0x49, 0x72, 0xbe, 0x7a, 0x82, 0x58, 0xbe, 0x07, 0x29, 0x71, 0xbe,
  0x9c, 0xff, 0xaf, 0x3d, 0x91, 0x4e, 0x26, 0xbe, 0x00, 0xcd, 0x51, 0xbd,
  0xa9, 0x86, 0x5b, 0xbe, 0xc0, 0xc3, 0x93, 0xbc, 0x48, 0x28, 0x94, 0x3d,
  0x88, 0xbd, 0xd6, 0xbd, 0x44, 0x41, 0x80, 0x3d, 0x6c, 0x4f, 0xd7, 0x3d,
  0xae, 0x65, 0x50, 0x3e, 0x54, 0x99, 0x94, 0x3d, 0x40, 0x43, 0xcb, 0x3b,
  0x9e, 0x15, 0x0e, 0x3e, 0xa6, 0x94, 0x3a, 0x3e, 0x81, 0x2b, 0x21, 0xbe,
  0xd6, 0xc0, 0x60, 0xbe, 0x96, 0x56, 0x51, 0x3e, 0x90, 0xa9, 0x8a, 0xbd,
  0x59, 0x9a, 0xa8, 0x3e, 0x28, 0xe5, 0x9e, 0xbd, 0x42, 0x77, 0x73, 0x3e,
  0x7d, 0xd2, 0xb2, 0x3e, 0x80, 0xd1, 0x0a, 0x3d, 0xe2, 0xb5, 0x6a, 0x3e,
  0x8b, 0x9a, 0xa5, 0xbe, 0xc2, 0x3e, 0x74, 0x3e, 0x98, 0x14, 0x7d, 0xbe,
  0xa2, 0xf0, 0x54, 0x3e, 0x2d, 0x11, 0x83, 0x3e, 0x9f, 0xc2, 0x97, 0xbe,
  0xe0, 0xfd, 0x21, 0x3d, 0xc0, 0x4c, 0x3a, 0xbd, 0x3a, 0x6a, 0x1f, 0x3e,
  0x49, 0x3f, 0xa2, 0xbe, 0x3a, 0x3a, 0x5a, 0x3e, 0xea, 0x06, 0x2e, 0x3e,
  0xeb, 0x6a, 0x37, 0xbe, 0x44, 0xa9, 0x8e, 0x3d, 0xc9, 0x3d, 0xb0, 0x3e,
  0x18, 0x2b, 0xca, 0xbd, 0x02, 0x32, 0x78, 0xbe, 0xd7, 0x12, 0xb1, 0x3e,
  0xb2, 0xe0, 0xae, 0xbe, 0x6e, 0x12, 0x71, 0x3e, 0x10, 0x16, 0xcf, 0x3c,
  0xc9, 0x3a, 0x83, 0x3e, 0x3c, 0x16, 0x62, 0xbe, 0x3b, 0x62, 0x80, 0x3e,
  0xe2, 0x40, 0x73, 0xbe, 0x3c, 0x99, 0xb3, 0x3d, 0xd6, 0xf2, 0x61, 0x3e,
  0xbb, 0x98, 0x03, 0xbe, 0x50, 0x13, 0xba, 0x3c, 0xd0, 0xba, 0x96, 0x3d,
  0x15, 0x1f, 0x97, 0x3e, 0xee, 0x45, 0x5c, 0xbe, 0xa6, 0x97, 0x03, 0x3e,
  0x3c, 0x01, 0xa7, 0xbe, 0xf1, 0xce, 0x84, 0xbe, 0x7a, 0x8c, 0x4c, 0x3e,
  0x6e, 0xc4, 0x66, 0xbe, 0x70, 0x1f, 0x06, 0x3d, 0x53, 0xc4, 0x3f, 0xbe,
  0x5a, 0x47, 0x35, 0x3e, 0x79, 0x26, 0xac, 0x3e, 0x4b, 0xa5, 0x83, 0x3e,
  0x0f, 0x94, 0x40, 0xbe, 0x61, 0x44, 0xa4, 0x3e, 0xab, 0xb8, 0x97, 0x3e,
  0x98, 0x66, 0xc1, 0xbd, 0xd8, 0xc9, 0x70, 0x3d, 0x4e, 0x43, 0x78, 0x3e,
  0xb1, 0x1e, 0x9c, 0x3e, 0x5f, 0xa7, 0x9a, 0xbe, 0x90, 0xdb, 0x0e, 0xbe,
  0x6f, 0x14, 0xa5, 0x3e, 0x81, 0x06, 0x85, 0x3e, 0x90, 0xb8, 0x59, 0xbe,
  0xb5, 0xeb, 0xa4, 0x3e, 0xb6, 0x1e, 0x79, 0x3e, 0x40, 0xcd, 0xe1, 0xbb,
  0x45, 0x2f, 0x8c, 0xbe, 0x54, 0x4f, 0xe7, 0xbd, 0x2a, 0x3c, 0x78, 0x3e,
  0xa5, 0xda, 0xae, 0xbe, 0x5e, 0x83, 0x49, 0x3e, 0xd4, 0x9f, 0x8b, 0xbe,
  0x05, 0x4b, 0x74, 0xbe, 0xe0, 0x47, 0x4a, 0x3c, 0xc0, 0x86, 0x60, 0xbd,
  0x86, 0x62, 0x4c, 0x3e, 0xea, 0x8b, 0x57, 0x3e, 0xb7, 0x45, 0x8b, 0xbe,
  0xe1, 0x42, 0x88, 0x3e, 0x42, 0x87, 0x4a, 0xbe, 0xd1, 0x87, 0xa7, 0xbe,
  0x94, 0x6a, 0x12, 0x3e, 0xe3, 0xfa, 0x1c, 0xbe, 0x00, 0x5e, 0x45, 0xbc,
  0x1b, 0x93, 0xb0, 0x3e, 0x0a, 0x69, 0x2a, 0x3e, 0xdc, 0xe4, 0x07, 0x3e,
  0xba, 0x20, 0x57, 0x3e, 0x90, 0xd7, 0xbf, 0xbc, 0x64, 0xf8, 0xdb, 0x3d,
  0x8a, 0x26, 0x28, 0xbe, 0xaa, 0x1b, 0x81, 0xbe, 0x90, 0x4f, 0x45, 0x3d,
  0x4a, 0xf0, 0x27, 0x3e, 0x06, 0x62, 0x3d, 0x3e, 0xf2, 0x49, 0x67, 0x3e,
  0x56, 0x47, 0x81, 0xbe, 0x0a, 0x33, 0x04, 0x3e, 0x8c, 0x8f, 0xa8, 0x3d,
  0x96, 0xc4, 0x4c, 0xbe, 0xeb, 0xe5, 0xad, 0xbe, 0x9d, 0xbb, 0x48, 0xbe,
  0x40, 0xc4, 0xe7, 0xbc, 0x1b, 0xca, 0xb4, 0xbe, 0x3f, 0xe7, 0x8f, 0xbe,
  0xc9, 0xa9, 0x8c, 0x3e, 0x24, 0x86, 0x7a, 0xbe, 0xe0, 0xbd, 0x6d, 0xbe,
  0x42, 0xee, 0x01, 0x3e, 0x3b, 0xa8, 0x3c, 0xbe, 0xe4, 0x8f, 0x95, 0xbd,
  0x82, 0x10, 0x27, 0x3e, 0x28, 0xa0, 0xb7, 0x3d, 0xd4, 0xb8, 0x89, 0xbe,
  0x03, 0xe0, 0x9d, 0xbe, 0x14, 0xfe, 0xa8, 0xbd, 0x37, 0x60, 0xae, 0x3e,
  0x21, 0x26, 0x97, 0x3e, 0x62, 0x96, 0x1f, 0x3e, 0x4a, 0x18, 0x37, 0x3e,
  0x48, 0x26, 0x6f, 0x3d, 0x50, 0xc6, 0xf0, 0x3d, 0xfc, 0x2c, 0x83, 0xbd,
  0xfc, 0x8e, 0xce, 0xbd, 0xce, 0x03, 0x5d, 0x3e, 0xf4, 0x86, 0x8d, 0x3d,
  0x80, 0x63, 0xc6, 0xbd, 0x2e, 0xb0, 0x63, 0xbe, 0x8b, 0x11, 0x85, 0x3e,
  0x9b, 0xcc, 0x33, 0xbe, 0xc2, 0x71, 0x0f, 0x3e, 0xae, 0xcb, 0x59, 0x3e,
  0x21, 0xf9, 0xb0, 0x3e, 0x75, 0x5a, 0xb2, 0x3e, 0xc8, 0x16, 0x93, 0xbe,
  0xbe, 0x9a, 0x89, 0xbe, 0xb8, 0x17, 0x3d, 0xbd, 0xdd, 0xdf, 0xaf, 0x3e,
  0x08, 0xb8, 0x8c, 0xbe, 0x0c, 0xd2, 0xf1, 0xbd, 0x42, 0x6e, 0x21, 0xbe,
  0x95, 0x16, 0x20, 0xbe, 0x77, 0x26, 0x92, 0x3e, 0x50, 0x26, 0xa9, 0x3c,
  0x86, 0xe7, 0x22, 0xbe, 0x02, 0xce, 0x7e, 0x3e, 0x08, 0x6c, 0x07, 0xbe,
  0xd1, 0xa3, 0xa2, 0xbe, 0x3a, 0x1a, 0x67, 0x3e, 0x72, 0x38, 0x73, 0x3e,
  0xc0, 0x29, 0xe4, 0x3b, 0xbe, 0x1f, 0x09, 0xbe, 0xda, 0x94, 0x5a, 0xbe,
  0x90, 0xfc, 0x00, 0x3e, 0xe0, 0x5c, 0x07, 0x3c, 0xc6, 0x7c, 0x76, 0xbe,
  0xa0, 0x67, 0xe9, 0x3d, 0xed, 0x13, 0xa8, 0x3e, 0x32, 0x68, 0x78, 0x3e,
  0x52, 0xd7, 0x12, 0x3e, 0x4a, 0x1a, 0x57, 0x3e, 0x08, 0xf7, 0x3f, 0x3d,
  0xf6, 0x71, 0x1a, 0x3e, 0x37, 0xbb, 0x96, 0x3e, 0x8e, 0x27, 0xe7, 0xbd,
  0x84, 0x32, 0x93, 0x3d, 0x26, 0xb1, 0x81, 0xbe, 0xa5, 0x64, 0x84, 0x3e,
  0x0f, 0x22, 0xa5, 0xbe, 0xdd, 0xcd, 0x55, 0xbe, 0x02, 0x38, 0xe0, 0xbd,
  0xa1, 0x57, 0x82, 0xbe, 0xfc, 0xa5, 0x95, 0x3d, 0x08, 0x29, 0x7d, 0xbe,
  0x01, 0x0e, 0xa5, 0xbe, 0x58, 0xbf, 0xc6, 0x3d, 0xe4, 0x95, 0xf0, 0x3d,
  0xce, 0xf3, 0xff, 0xff, 0x10, 0x00, 0x00, 0x00, 0x05, 0x00, 0x00, 0x00,
  0x10, 0x00, 0x00, 0x00, 0x38, 0x00, 0x00, 0x00, 0x01, 0x00, 0x00, 0x00,
  0x1a, 0x00, 0x00, 0x00, 0x24, 0x00, 0x00, 0x00, 0x73, 0x65, 0x71, 0x75,
  0x65, 0x6e, 0x74, 0x69, 0x61, 0x6c, 0x5f, 0x31, 0x33, 0x30, 0x2f, 0x64,
  0x65, 0x6e, 0x73, 0x65, 0x5f, 0x33, 0x32, 0x35, 0x2f, 0x4d, 0x61, 0x74,
  0x4d, 0x75, 0x6c, 0x5f, 0x62, 0x69, 0x61, 0x73, 0x00, 0x00, 0x00, 0x00,
  0x70, 0xf3, 0xff, 0xff, 0x68, 0x00, 0x00, 0x00, 0x00, 0x00, 0x00, 0x00,
  0x00, 0x00, 0x00, 0x00, 0x00, 0x00, 0x00, 0x00, 0x00, 0x00, 0x00, 0x00,
  0x00, 0x00, 0x00, 0x00, 0x00, 0x00, 0x00, 0x00, 0x00, 0x00, 0x00, 0x00,
  0x00, 0x00, 0x00, 0x00, 0x00, 0x00, 0x00, 0x00, 0x00, 0x00, 0x00, 0x00,
  0x00, 0x00, 0x00, 0x00, 0x00, 0x00, 0x00, 0x00, 0x00, 0x00, 0x00, 0x00,
  0x00, 0x00, 0x00, 0x00, 0x00, 0x00, 0x00, 0x00, 0x00, 0x00, 0x00, 0x00,
  0x00, 0x00, 0x00, 0x00, 0x00, 0x00, 0x00, 0x00, 0x00, 0x00, 0x00, 0x00,
  0x00, 0x00, 0x00, 0x00, 0x00, 0x00, 0x00, 0x00, 0x00, 0x00, 0x00, 0x00,
  0x00, 0x00, 0x00, 0x00, 0x00, 0x00, 0x00, 0x00, 0x00, 0x00, 0x00, 0x00,
  0x00, 0x00, 0x00, 0x00, 0x86, 0xf4, 0xff, 0xff, 0x10, 0x00, 0x00, 0x00,
  0x04, 0x00, 0x00, 0x00, 0x14, 0x00, 0x00, 0x00, 0x50, 0x00, 0x00, 0x00,
  0x02, 0x00, 0x00, 0x00, 0x1a, 0x00, 0x00, 0x00, 0x1a, 0x00, 0x00, 0x00,
  0x38, 0x00, 0x00, 0x00, 0x73, 0x65, 0x71, 0x75, 0x65, 0x6e, 0x74, 0x69,
  0x61, 0x6c, 0x5f, 0x31, 0x33, 0x30, 0x2f, 0x64, 0x65, 0x6e, 0x73, 0x65,
  0x5f, 0x33, 0x32, 0x35, 0x2f, 0x4d, 0x61, 0x74, 0x4d, 0x75, 0x6c, 0x2f,
  0x52, 0x65, 0x61, 0x64, 0x56, 0x61, 0x72, 0x69, 0x61, 0x62, 0x6c, 0x65,
  0x4f, 0x70, 0x2f, 0x74, 0x72, 0x61, 0x6e, 0x73, 0x70, 0x6f, 0x73, 0x65,
  0x00, 0x00, 0x00, 0x00, 0x40, 0xf4, 0xff, 0xff, 0x90, 0x0a, 0x00, 0x00,
  0x62, 0x82, 0x9e, 0x3e, 0x78, 0x57, 0x2f, 0x3e, 0xdc, 0x2d, 0x87, 0xbd,
  0xfb, 0x82, 0xaa, 0xbe, 0x70, 0xb2, 0xc4, 0x3c, 0x50, 0x32, 0x7f, 0xbd,
  0xf4, 0x55, 0xd5, 0x3d, 0xbb, 0xe2, 0x92, 0xbe, 0xf0, 0xe1, 0x34, 0x3d,
  0x98, 0xad, 0x04, 0xbd, 0x14, 0xb6, 0x3e, 0x3e, 0x40, 0xec, 0x00, 0x3e,
  0xb4, 0x1e, 0xa6, 0x3e, 0xae, 0x9f, 0x27, 0xbe, 0xc8, 0xfe, 0x4e, 0x3e,
  0x80, 0xd5, 0x82, 0x3e, 0x3a, 0x68, 0x38, 0xbe, 0x1c, 0x93, 0xe7, 0x3d,
  0xc8, 0x38, 0x58, 0x3e, 0xef, 0x48, 0x1d, 0xbe, 0x68, 0xe7, 0x1b, 0xbd,
  0xbc, 0x26, 0x02, 0x3e, 0xea, 0xd2, 0xce, 0xbd, 0xc0, 0x06, 0x71, 0xbd,
  0x74, 0x1f, 0x3b, 0x3e, 0x1e, 0xcb, 0x93, 0xbe, 0x14, 0x1d, 0x38, 0x3e,
  0x04, 0xd8, 0x57, 0x3e, 0xd2, 0x7e, 0x95, 0x3e, 0xd0, 0x1d, 0xdd, 0x3d,
  0x49, 0xc9, 0x88, 0xbe, 0xfe, 0x19, 0xa7, 0x3e, 0xc0, 0x95, 0xe6, 0x3d,
  0x48, 0x7c, 0x42, 0x3e, 0x3b, 0x7f, 0x0a, 0xbe, 0x88, 0xe4, 0x0d, 0xbd,
  0x10, 0xa7, 0x50, 0xbe, 0x07, 0x9f, 0x88, 0xbe, 0x9f, 0xd2, 0x04, 0xbe,
  0x1c, 0x7e, 0xa8, 0x3e, 0x78, 0xcc, 0xe9, 0x3d, 0xfa, 0xf0, 0x37, 0xbe,
  0x96, 0x5a, 0x8c, 0xbe, 0x70, 0xb5, 0x9c, 0x3c, 0x84, 0xdb, 0x80, 0x3e,
  0x2c, 0x2c, 0x86, 0x3e, 0x5e, 0xad, 0x5e, 0xbe, 0xac, 0x00, 0x04, 0x3e,
  0x52, 0xcc, 0x9a, 0x3e, 0x00, 0x55, 0x63, 0x3b, 0x40, 0x61, 0x10, 0xbc,
  0x44, 0xc8, 0x90, 0x3d, 0x92, 0x84, 0xa2, 0x3e, 0x5c, 0x5d, 0xdf, 0x3d,
  0x28, 0x8a, 0x1b, 0x3d, 0xd8, 0xcc, 0x47, 0x3e, 0xb4, 0xdd, 0xcd, 0x3d,
  0xb0, 0x2a, 0xa9, 0x3c, 0x86, 0x63, 0xa4, 0x3e, 0x2a, 0x6a, 0x81, 0x3e,
  0x27, 0xf3, 0xa1, 0xbe, 0x50, 0xe9, 0xee, 0xbc, 0x75, 0x40, 0x57, 0xbe,
  0x24, 0xec, 0x77, 0x3e, 0x8d, 0x43, 0x98, 0xbe, 0x10, 0x93, 0xbd, 0xbc,
  0x66, 0xa8, 0x99, 0x3e, 0x30, 0xb8, 0x4a, 0x3d, 0x03, 0x6c, 0xa6, 0xbe,
  0x14, 0x47, 0x6f, 0xbe, 0x7c, 0xf6, 0xf2, 0xbd, 0xd0, 0x17, 0x80, 0xbd,
  0xf0, 0xea, 0x03, 0x3e, 0xc0, 0x48, 0x58, 0x3e, 0xf8, 0xfa, 0x88, 0xbd,
  0x10, 0x2a, 0x6e, 0x3e, 0x28, 0x76, 0x80, 0xbe, 0x00, 0xab, 0x42, 0x3e,
  0x8c, 0xc9, 0x59, 0xbe, 0x50, 0xa2, 0xbf, 0x3d, 0xa0, 0xa6, 0x06, 0x3d,
  0xf4, 0x88, 0x8f, 0x3e, 0x6c, 0x7a, 0xe3, 0x3d, 0x10, 0x11, 0xb0, 0x3d,
  0x00, 0x9c, 0x6b, 0xbe, 0xb0, 0x56, 0x25, 0x3e, 0xa4, 0xfc, 0x6b, 0xbe,
  0x61, 0xc0, 0x8d, 0xbe, 0xe0, 0xee, 0x01, 0xbe, 0xc7, 0xb6, 0x91, 0xbe,
  0xf8, 0xcd, 0x01, 0xbe, 0x1a, 0xb0, 0x85, 0x3e, 0x78, 0xd9, 0x5a, 0x3d,
  0x30, 0x11, 0x87, 0xbc, 0xc1, 0x66, 0x57, 0xbe, 0xd0, 0x99, 0x41, 0x3d,
  0xd8, 0x6d, 0xa0, 0x3e, 0x12, 0xb7, 0xb9, 0xbd, 0xf8, 0xc4, 0x87, 0xbe,
  0xd8, 0x91, 0x5c, 0xbe, 0xd3, 0x9c, 0x9d, 0xbe, 0xac, 0x23, 0x50, 0x3e,
  0x48, 0x86, 0x8d, 0x3e, 0xb4, 0x19, 0x8b, 0xbd, 0x52, 0x54, 0x9a, 0x3e,
  0x40, 0x55, 0x8e, 0xbb, 0xe4, 0x2b, 0x85, 0xbe, 0x14, 0xa0, 0x6c, 0x3e,
  0x3c, 0x62, 0xab, 0x3e, 0xe0, 0x19, 0x9d, 0xbe, 0x49, 0xca, 0x64, 0xbe,
  0xa8, 0x8d, 0xfe, 0x3d, 0xcc, 0xcb, 0x08, 0x3e, 0xa8, 0x43, 0x39, 0x3d,
  0x19, 0x1b, 0xaa, 0xbe, 0xce, 0x75, 0x99, 0x3e, 0x08, 0x15, 0x8a, 0xbd,
  0x32, 0x14, 0x6b, 0xbe, 0x04, 0x35, 0xa6, 0x3e, 0x4c, 0xc3, 0x88, 0xbe,
  0x60, 0x9c, 0xcb, 0x3c, 0x94, 0x5c, 0x98, 0x3e, 0xe8, 0xe0, 0x8d, 0x3e,
  0x70, 0x68, 0xa4, 0xbc, 0x80, 0x3d, 0x31, 0xbd, 0x51, 0xc2, 0x5b, 0xbe,
  0x20, 0xc3, 0x6e, 0x3e, 0x68, 0xd0, 0x84, 0x3d, 0x60, 0x10, 0xc2, 0x3c,
  0x64, 0x06, 0x9e, 0xbd, 0x1e, 0xff, 0x95, 0x3e, 0xbc, 0x10, 0xf8, 0x3d,
  0xb4, 0xc9, 0x9c, 0x3e, 0x00, 0x9e, 0x09, 0xba, 0x6e, 0x13, 0x3c, 0xbe,
  0xc6, 0xc4, 0xa6, 0xbe, 0xac, 0x47, 0x61, 0x3e, 0x82, 0xbb, 0x6e, 0xbe,
  0x48, 0xd4, 0x5f, 0x3d, 0xd4, 0x18, 0x6d, 0x3e, 0xa6, 0x4d, 0xad, 0x3e,
  0x80, 0xa7, 0xbb, 0x3c, 0xc0, 0x49, 0x77, 0x3e, 0x1c, 0x8b, 0x56, 0x3e,
  0xf2, 0x67, 0x81, 0x3e, 0x52, 0x45, 0x8d, 0x3e, 0xa0, 0x00, 0x1a, 0xbc,
  0xa8, 0xbe, 0x09, 0x3e, 0x80, 0x0f, 0x79, 0x3e, 0xe8, 0x65, 0xaa, 0x3e,
  0x9c, 0xa3, 0x3d, 0x3e, 0xc2, 0xfd, 0x9d, 0x3e, 0x80, 0x60, 0x25, 0xbb,
  0xf4, 0x44, 0x95, 0x3e, 0x40, 0x40, 0x82, 0xbe, 0xf4, 0xde, 0xde, 0x3d,
  0x13, 0x46, 0x81, 0xbe, 0xc8, 0x5b, 0x72, 0xbe, 0xa0, 0x34, 0x6f, 0x3e,
  0xe0, 0x34, 0x18, 0x3d, 0xe8, 0xe4, 0xf3, 0x3d, 0xd0, 0xfe, 0x9f, 0x3c,
  0xbd, 0xce, 0xa0, 0xbe, 0xfc, 0x98, 0x46, 0x3e, 0xa8, 0x23, 0x73, 0x3e,
  0x20, 0x3d, 0xe2, 0x3d, 0xbe, 0x39, 0xa5, 0x3e, 0x50, 0x75, 0xb6, 0xbc,
  0x40, 0xe8, 0x92, 0x3e, 0x06, 0x2c, 0xad, 0xbe, 0x60, 0xaa, 0x5a, 0xbc,
  0xb0, 0xbc, 0xa2, 0x3d, 0x64, 0x3f, 0xe5, 0x3d, 0xb8, 0x22, 0xd3, 0xbd,
  0x7e, 0x8d, 0x19, 0x3e, 0xda, 0x07, 0x98, 0xbe, 0x48, 0x0d, 0xbe, 0x3d,
  0x3c, 0x8c, 0xe6, 0x3d, 0x50, 0xb9, 0xbc, 0xbc, 0x84, 0x9e, 0x6a, 0x3e,
  0x54, 0x3c, 0x63, 0x3e, 0xcc, 0x8f, 0xb8, 0xbd, 0x4e, 0xb8, 0xfb, 0xbd,
  0x5a, 0x31, 0x30, 0xbe, 0xd4, 0x8b, 0xb5, 0xbd, 0xd4, 0xf6, 0xdd, 0xbd,
  0xf0, 0x9a, 0x93, 0x3e, 0xf9, 0xf6, 0x28, 0xbe, 0x58, 0x36, 0xc4, 0x3d,
  0x86, 0xe2, 0x85, 0xbe, 0x68, 0xdd, 0x96, 0x3e, 0xd8, 0x52, 0x59, 0x3e,
  0x28, 0x86, 0x50, 0xbe, 0x5e, 0x23, 0x1b, 0xbe, 0x50, 0x80, 0x2d, 0x3e,
  0xf0, 0xcb, 0xa5, 0x3e, 0x18, 0x99, 0xa4, 0xbd, 0x3c, 0xf5, 0x8e, 0xbe,
  0x74, 0xb8, 0x75, 0x3e, 0xc8, 0x95, 0x61, 0xbe, 0x65, 0xe7, 0x1d, 0xbe,
  0x56, 0x89, 0x4a, 0xbe, 0xf4, 0xc7, 0x91, 0x3e, 0xce, 0xe4, 0x20, 0x3e,
  0x60, 0xc5, 0x8a, 0xbe, 0x07, 0x4d, 0x53, 0xbe, 0xd8, 0x79, 0x56, 0x3e,
  0xf8, 0x3a, 0xad, 0x3e, 0x86, 0x8d, 0x92, 0xbe, 0xaa, 0xab, 0x1b, 0x3e,
  0x80, 0xa5, 0x52, 0x3b, 0x80, 0x5a, 0xca, 0x3c, 0x24, 0x9b, 0x97, 0xbe,
  0x10, 0x2c, 0xa3, 0xbe, 0xe8, 0x8b, 0x42, 0x3e, 0xc8, 0xdf, 0x72, 0x3d,
  0xc0, 0x68, 0xee, 0xbc, 0x42, 0xcc, 0x92, 0xbe, 0x84, 0x6c, 0xc6, 0x3d,
  0x6c, 0x84, 0xb8, 0xbd, 0xa8, 0xb4, 0x2b, 0x3e, 0x7f, 0xd1, 0x76, 0xbe,
  0xde, 0x25, 0x1f, 0xbe, 0x34, 0xc8, 0x8d, 0xbe, 0xa8, 0x20, 0x31, 0x3e,
  0x40, 0x86, 0x78, 0x3c, 0x54, 0x01, 0x4b, 0xbe, 0x7c, 0x48, 0xd0, 0xbd,
  0x34, 0x4a, 0x3c, 0x3e, 0xc8, 0xcf, 0x72, 0xbe, 0xfe, 0xd6, 0x15, 0x3e,
  0x76, 0x76, 0x98, 0xbe, 0x00, 0x76, 0xa2, 0xbb, 0x68, 0x13, 0x28, 0x3d,
  0x10, 0x34, 0x12, 0xbd, 0x40, 0x8d, 0x63, 0x3c, 0x95, 0x8b, 0x84, 0xbe,
  0xa8, 0xf3, 0x41, 0x3d, 0xc2, 0x1c, 0x83, 0x3e, 0x3b, 0xa1, 0x2a, 0xbe,
  0xb4, 0x24, 0xb3, 0x3d, 0xf0, 0x55, 0x91, 0xbe, 0x1c, 0x9a, 0xc0, 0xbd,
  0x84, 0x10, 0x11, 0x3e, 0xa0, 0x5e, 0x04, 0xbd, 0x63, 0x62, 0x78, 0xbe,
  0x64, 0x7d, 0x60, 0x3e, 0x9c, 0x77, 0xa3, 0x3e, 0x1c, 0x10, 0x4e, 0x3e,
  0xa7, 0xd1, 0x84, 0xbe, 0xb2, 0x80, 0x07, 0xbe, 0x58, 0x73, 0x33, 0x3e,
  0x10, 0x9b, 0xc4, 0xbd, 0x30, 0x1e, 0x05, 0x3d, 0x04, 0xc9, 0x9a, 0x3d,
  0x8c, 0x38, 0xa4, 0x3d, 0xe5, 0x58, 0x8b, 0xbe, 0x50, 0x82, 0xa6, 0xbc,
  0x0e, 0xdb, 0x03, 0xbe, 0xd2, 0xef, 0x03, 0x3e, 0xda, 0x10, 0x5f, 0xbe,
  0x38, 0xd2, 0x13, 0x3d, 0x09, 0xd7, 0x93, 0xbe, 0x10, 0x3f, 0xe1, 0xbc,
  0xe6, 0xad, 0x88, 0x3e, 0x88, 0xbc, 0x93, 0xbe, 0x20, 0xd2, 0x88, 0x3e,
  0x98, 0x3e, 0x3b, 0xbe, 0x0c, 0xa7, 0x20, 0x3e, 0xb4, 0xa6, 0xbc, 0xbd,
  0x94, 0x92, 0x17, 0x3e, 0x5c, 0x8f, 0x23, 0x3e, 0x1c, 0x08, 0xae, 0xbd,
  0x93, 0x17, 0x8a, 0xbe, 0xa0, 0xe0, 0x42, 0x3c, 0x64, 0x00, 0x46, 0x3e,
  0xaa, 0xf4, 0xd6, 0xbd, 0xca, 0x46, 0xfe, 0xbd, 0x3f, 0xf2, 0x80, 0xbe,
  0x30, 0xae, 0x2e, 0x3d, 0xcd, 0x05, 0x09, 0xbe, 0xee, 0xe0, 0x1f, 0xbe,
  0x92, 0x3b, 0x98, 0x3e, 0xc8, 0xc7, 0xe3, 0x3d, 0xc6, 0x2f, 0x9a, 0x3e,
  0xde, 0x2e, 0x01, 0x3e, 0xa0, 0x73, 0x78, 0xbd, 0x78, 0x60, 0xa3, 0x3e,
  0xe8, 0xa8, 0xb7, 0xbd, 0xd6, 0x9a, 0x06, 0x3e, 0xdc, 0xf5, 0xa0, 0x3d,
  0x62, 0x18, 0x85, 0x3e, 0x6e, 0xc2, 0x10, 0x3e, 0xfd, 0x6b, 0xaa, 0xbe,
  0x90, 0x14, 0x87, 0x3c, 0x36, 0x17, 0x86, 0x3e, 0x54, 0xb0, 0xf4, 0xbd,
  0x3f, 0xe7, 0x42, 0xbe, 0x48, 0xd7, 0x93, 0x3e, 0xde, 0x3c, 0x72, 0xbe,
  0xc0, 0x64, 0x8a, 0x3c, 0x7c, 0x7c, 0xa6, 0xbe, 0xe0, 0x06, 0xad, 0xbc,
  0x88, 0x73, 0xa7, 0xbe, 0x84, 0x12, 0x85, 0x3e, 0x1c, 0xea, 0x96, 0x3d,
  0x00, 0x25, 0x0a, 0x3d, 0x3a, 0xc6, 0x21, 0x3e, 0x88, 0x48, 0x6b, 0x3e,
  0x16, 0x8e, 0xa4, 0x3e, 0xf8, 0xae, 0x02, 0x3d, 0xa0, 0xbb, 0xe4, 0xbc,
  0x0e, 0x37, 0x02, 0x3e, 0x40, 0x43, 0x1d, 0x3c, 0x40, 0x70, 0x0b, 0xbc,
  0x40, 0xdb, 0x7b, 0x3c, 0xfc, 0x8c, 0xa4, 0x3e, 0xb0, 0x9f, 0x7c, 0x3d,
  0x44, 0x0b, 0x8f, 0x3e, 0xde, 0xae, 0x4b, 0xbe, 0xcc, 0x93, 0x81, 0x3d,
  0xcb, 0x16, 0x15, 0xbe, 0x3c, 0x9a, 0x07, 0x3e, 0xdc, 0x9e, 0x8c, 0x3e,
  0x69, 0x3c, 0x2d, 0xbe, 0x0c, 0x23, 0xfc, 0x3d, 0x7e, 0x3d, 0x02, 0x3e,
  0xe2, 0x29, 0x89, 0x3e, 0x08, 0xa3, 0xa5, 0x3d, 0x58, 0x67, 0x93, 0x3e,
  0x62, 0x02, 0x2b, 0xbe, 0xac, 0x21, 0x40, 0x3e, 0x50, 0x50, 0x0f, 0x3d,
  0xe8, 0x82, 0x81, 0xbe, 0xda, 0x05, 0x3a, 0xbe, 0x98, 0xf1, 0x94, 0x3d,
  0xce, 0x24, 0x95, 0x3e, 0xc0, 0x20, 0x23, 0x3e, 0x10, 0x24, 0x8e, 0xbc,
  0xa0, 0x5c, 0x3e, 0x3c, 0xf5, 0x74, 0x40, 0xbe, 0xd6, 0xf6, 0x92, 0x3e,
  0xc9, 0x9b, 0x07, 0xbe, 0x7e, 0xc9, 0xdb, 0xbd, 0xa0, 0x95, 0x4e, 0xbc,
  0xf4, 0x84, 0x9e, 0x3e, 0xb8, 0x3c, 0x56, 0x3e, 0x70, 0x5d, 0x1e, 0x3e,
  0xed, 0x8a, 0x7d, 0xbe, 0x30, 0xd7, 0xb5, 0xbd, 0x99, 0x54, 0x9d, 0xbe,
  0x14, 0x2d, 0x28, 0x3e, 0xd9, 0xda, 0xa2, 0xbe, 0x88, 0x7c, 0x0e, 0xbe,
  0x20, 0x08, 0x2c, 0x3e, 0x41, 0xff, 0x21, 0xbe, 0x18, 0x10, 0xaf, 0xbd,
  0x6f, 0x35, 0x25, 0xbe, 0x15, 0x1d, 0x91, 0xbe, 0xd4, 0xaa, 0xae, 0xbd,
  0x20, 0xe3, 0x33, 0x3c, 0x63, 0xe8, 0x7c, 0xbe, 0x48, 0x1f, 0x5e, 0xbd,
  0xd4, 0xde, 0x95, 0x3d, 0x74, 0x48, 0x0e, 0xbe, 0x38, 0x1a, 0x96, 0xbe,
  0x33, 0xbb, 0x8d, 0xbe, 0x44, 0xab, 0x90, 0x3d, 0x5c, 0x36, 0x96, 0x3e,
  0x56, 0x53, 0xcc, 0xbd, 0xd8, 0xc2, 0x90, 0x3e, 0x26, 0x62, 0x97, 0x3e,
  0x64, 0x57, 0xc2, 0xbd, 0xb5, 0xfc, 0xa1, 0xbe, 0x38, 0x7d, 0x84, 0x3e,
  0xe4, 0xa7, 0x5e, 0xbe, 0x54, 0x28, 0x53, 0x3e, 0x5f, 0xfe, 0x2d, 0xbe,
  0x51, 0x46, 0x0d, 0xbe, 0x00, 0x89, 0xd4, 0x3b, 0x3f, 0x6d, 0x29, 0xbe,
  0xce, 0x90, 0xa1, 0x3e, 0x00, 0x7a, 0xab, 0xbb, 0xa4, 0x21, 0x52, 0x3e,
  0x80, 0xf7, 0x91, 0xbe, 0x68, 0x2c, 0x45, 0x3d, 0x39, 0xe5, 0x88, 0xbe,
  0xf0, 0x9d, 0x4d, 0x3e, 0x62, 0x2f, 0x9d, 0xbe, 0x60, 0x8d, 0x82, 0x3d,
  0xe0, 0xaf, 0x0e, 0x3c, 0x18, 0xbd, 0x0c, 0xbd, 0xcc, 0x9a, 0x9e, 0x3e,
  0x83, 0xdf, 0x14, 0xbe, 0x00, 0x20, 0x6f, 0x3e, 0xea, 0x2a, 0x6a, 0xbe,
  0x94, 0x53, 0x4f, 0x3e, 0x60, 0x0a, 0xe2, 0x3c, 0x4c, 0xe8, 0x40, 0x3e,
  0xf2, 0xb6, 0x71, 0xbe, 0x3c, 0xe1, 0xbf, 0x3d, 0x6e, 0x16, 0xa5, 0xbe,
  0x34, 0xc0, 0x24, 0xbe, 0x8f, 0x89, 0xa7, 0xbe, 0xc0, 0x13, 0x56, 0x3c,
  0xc5, 0x59, 0x42, 0xbe, 0x4c, 0x68, 0x8c, 0x3d, 0xcc, 0xa1, 0xaa, 0x3e,
  0xdb, 0x55, 0x99, 0xbe, 0x38, 0xbb, 0x03, 0x3d, 0x60, 0xa6, 0xfc, 0xbc,
  0xc6, 0x44, 0x27, 0xbe, 0x3c, 0xf3, 0x44, 0x3e, 0xda, 0x79, 0xa0, 0x3e,
  0x30, 0x4b, 0xad, 0x3e, 0x37, 0xc2, 0x0a, 0xbe, 0x70, 0x0b, 0x4c, 0xbd,
  0x56, 0xdd, 0x0f, 0x3e, 0x2c, 0x4d, 0xcd, 0x3d, 0x4b, 0xea, 0x87, 0xbe,
  0xa0, 0xfa, 0xd6, 0x3c, 0xe0, 0x19, 0x46, 0x3e, 0x90, 0xc3, 0x82, 0x3d,
  0x5c, 0xc8, 0x8f, 0xbe, 0xaf, 0x40, 0x8e, 0xbe, 0x35, 0xdf, 0x95, 0xbe,
  0x38, 0x3b, 0x23, 0xbd, 0x3a, 0x51, 0xaa, 0xbe, 0xe0, 0xea, 0x66, 0x3d,
  0x1c, 0x49, 0x8d, 0x3e, 0xc4, 0x3c, 0x03, 0x3e, 0x68, 0xb1, 0x01, 0x3d,
  0x34, 0xf0, 0xbc, 0xbd, 0x94, 0xef, 0x6c, 0xbe, 0xdf, 0x8a, 0xa6, 0xbe,
  0x54, 0x11, 0x2c, 0x3e, 0x5e, 0xc0, 0x83, 0xbe, 0x06, 0x16, 0x23, 0x3e,
  0x84, 0xd1, 0x63, 0x3e, 0x92, 0x56, 0x90, 0x3e, 0x68, 0x4c, 0xfc, 0x3d,
  0x94, 0x31, 0xf5, 0x3d, 0x10, 0x5d, 0xa2, 0xbd, 0x8c, 0x6c, 0x7a, 0x3e,
  0xe0, 0x11, 0x92, 0xbc, 0xa0, 0x22, 0x70, 0x3e, 0x6b, 0x03, 0xa5, 0xbe,
  0xeb, 0xb2, 0x8d, 0xbe, 0x98, 0x1a, 0xa4, 0x3e, 0x8c, 0x3e, 0x9c, 0xbe,
  0x30, 0x6e, 0x67, 0x3e, 0x14, 0x62, 0xa2, 0xbd, 0x86, 0x04, 0xa6, 0xbe,
  0x20, 0xdf, 0x63, 0x3e, 0xff, 0x5f, 0x70, 0xbe, 0x60, 0xc3, 0x1a, 0x3d,
  0x00, 0x8c, 0xee, 0xb9, 0xd0, 0x1e, 0x80, 0xbc, 0xd8, 0xa0, 0xf2, 0x3d,
  0xec, 0xa9, 0x29, 0xbe, 0x24, 0x77, 0x32, 0x3e, 0x6a, 0x9c, 0x92, 0xbe,
  0x60, 0xe9, 0x89, 0x3e, 0x40, 0xc3, 0xa5, 0xbc, 0xb4, 0xcb, 0x66, 0x3e,
  0x77, 0xea, 0x36, 0xbe, 0xc4, 0xe0, 0xa4, 0x3d, 0x8d, 0x53, 0xa0, 0xbe,
  0xc6, 0xcf, 0x15, 0x3e, 0x06, 0xd4, 0x94, 0x3e, 0x18, 0x27, 0xfb, 0x3d,
  0x28, 0x7a, 0x1b, 0x3e, 0x07, 0x63, 0x6a, 0xbe, 0x20, 0xd2, 0x6d, 0xbc,
  0x0c, 0xe0, 0x83, 0xbd, 0xd0, 0x30, 0xac, 0x3d, 0xa0, 0x2a, 0xfb, 0x3c,
  0x0f, 0xf0, 0x8c, 0xbe, 0x5c, 0xae, 0x8b, 0xbd, 0xfc, 0x0d, 0x99, 0x3d,
  0xd8, 0x02, 0x6f, 0xbe, 0xac, 0xb0, 0x79, 0x3e, 0xa0, 0x04, 0x02, 0xbd,
  0x90, 0xdb, 0x5b, 0x3e, 0xbc, 0x63, 0x6c, 0xbe, 0x25, 0xf1, 0xa6, 0xbe,
  0xfc, 0x68, 0xee, 0x3d, 0x10, 0xd0, 0xfe, 0xbc, 0x56, 0x53, 0x16, 0xbe,
  0x40, 0x76, 0x8d, 0x3b, 0x64, 0x20, 0xa2, 0xbd, 0x60, 0xf7, 0x41, 0x3d,
  0x52, 0xd1, 0x48, 0xbe, 0x7c, 0x93, 0xf6, 0x3d, 0x08, 0xe9, 0x66, 0x3e,
  0xbf, 0xaa, 0x30, 0xbe, 0x66, 0xd2, 0x94, 0x3e, 0x00, 0x3e, 0x4c, 0xbe,
  0x24, 0x41, 0xfe, 0x3d, 0x58, 0x18, 0x41, 0xbe, 0x38, 0x92, 0x28, 0x3e,
  0x30, 0xdc, 0x22, 0x3d, 0xd8, 0xe5, 0x7f, 0xbe, 0x69, 0xb9, 0x96, 0xbe,
  0x34, 0xc3, 0x8b, 0x3d, 0x78, 0x6d, 0x8b, 0x3e, 0x52, 0xff, 0xc2, 0xbd,
  0x60, 0x70, 0xea, 0xbc, 0x2d, 0xec, 0x92, 0xbe, 0xa4, 0xfe, 0x24, 0x3e,
  0xcc, 0xf9, 0x92, 0x3e, 0xdc, 0x8d, 0x7c, 0x3e, 0x28, 0xee, 0x23, 0x3d,
  0x20, 0x02, 0x01, 0x3d, 0xd4, 0x30, 0x18, 0x3e, 0x0d, 0x4f, 0x80, 0xbe,
  0xca, 0x31, 0x9e, 0x3e, 0x1f, 0xc4, 0x76, 0xbe, 0xd4, 0xfb, 0xaa, 0x3d,
  0x70, 0x5a, 0x9b, 0x3d, 0x68, 0x01, 0x6f, 0x3e, 0x5c, 0x7b, 0x27, 0x3e,
  0xc0, 0xf7, 0x18, 0xbc, 0x1c, 0x6d, 0x56, 0x3e, 0x60, 0x5d, 0x2b, 0xbc,
  0xe0, 0xcd, 0x63, 0x3e, 0x24, 0x8a, 0x4e, 0xbe, 0x40, 0xf2, 0x72, 0x3c,
  0xd0, 0xaf, 0x7e, 0x3e, 0x3e, 0x10, 0x1e, 0x3e, 0x16, 0xab, 0x9e, 0x3e,
  0xa8, 0x34, 0x4c, 0x3e, 0xb8, 0x56, 0x5e, 0x3e, 0x48, 0x3f, 0x07, 0x3e,
  0xa0, 0x30, 0x78, 0x3d, 0x44, 0x88, 0x9b, 0xbe, 0xf8, 0x4c, 0x69, 0x3e,
  0x34, 0xf6, 0xa4, 0x3e, 0x84, 0x48, 0x47, 0x3e, 0x85, 0xcc, 0x31, 0xbe,
  0x20, 0xeb, 0x32, 0x3e, 0x72, 0x03, 0xbb, 0xbd, 0x7c, 0x65, 0xa8, 0x3d,
  0x0a, 0x7f, 0xec, 0xbd, 0x50, 0xc5, 0x80, 0xbe, 0x40, 0x84, 0xdc, 0x3c,
  0x4e, 0x49, 0x36, 0xbe, 0x20, 0x3f, 0x89, 0x3c, 0xf2, 0xc2, 0x56, 0xbe,
  0xd4, 0x60, 0x8a, 0x3e, 0x78, 0xcb, 0x32, 0x3e, 0x0c, 0x77, 0x7d, 0x3e,
  0x2e, 0xb9, 0x20, 0x3e, 0xf8, 0x6b, 0x3d, 0x3e, 0xb2, 0xdd, 0x77, 0xbe,
  0x60, 0x29, 0x91, 0x3d, 0xb8, 0x07, 0x6f, 0x3d, 0x4e, 0xc4, 0x83, 0xbe,
  0xbc, 0x3a, 0x2e, 0x3e, 0x90, 0xd1, 0xd5, 0x3c, 0x92, 0x6e, 0xd7, 0xbd,
  0xc0, 0x70, 0x04, 0xbe, 0xb6, 0x31, 0x16, 0x3e, 0x9c, 0x33, 0x0a, 0xbe,
  0x70, 0xc9, 0x62, 0x3d, 0x58, 0xbd, 0x0a, 0xbd, 0x8a, 0xf6, 0x8d, 0xbe,
  0xd2, 0x8a, 0x0e, 0x3e, 0x3a, 0x08, 0x2d, 0xbe, 0x3a, 0x66, 0x9c, 0x3e,
  0x18, 0xbd, 0x96, 0xbe, 0xe0, 0x61, 0x9c, 0x3e, 0xe3, 0x05, 0x1a, 0xbe,
  0xca, 0x59, 0x0f, 0x3e, 0xc1, 0x48, 0x96, 0xbe, 0xe4, 0xae, 0x87, 0xbe,
  0x30, 0x5f, 0x89, 0xbd, 0x64, 0x19, 0x61, 0xbe, 0x90, 0x03, 0xb0, 0x3d,
  0x66, 0x95, 0x21, 0xbe, 0x6c, 0x30, 0xa7, 0xbe, 0x00, 0xfd, 0x9c, 0xba,
  0x00, 0xff, 0x1d, 0x3d, 0x2c, 0x10, 0xb7, 0xbd, 0x76, 0x97, 0x13, 0xbe,
  0xd0, 0x1f, 0xa3, 0xbe, 0xf1, 0x18, 0xa4, 0xbe, 0x0a, 0x18, 0x95, 0x3e,
  0x68, 0x21, 0x3a, 0x3e, 0x0d, 0xf1, 0xa1, 0xbe, 0xda, 0xa1, 0xed, 0xbd,
  0x98, 0x0f, 0x50, 0xbd, 0x60, 0xe3, 0x19, 0x3c, 0x80, 0x8f, 0x29, 0x3d,
  0xba, 0xb4, 0x04, 0xbe, 0x10, 0xd5, 0x22, 0x3e, 0xa6, 0x56, 0x71, 0xbe,
  0x28, 0x34, 0x56, 0x3d, 0x20, 0xf3, 0xc4, 0x3d, 0xe0, 0xa2, 0xa3, 0xbd,
  0xd4, 0x67, 0xe9, 0x3d, 0x80, 0x35, 0x08, 0xbc, 0x00, 0xe6, 0x95, 0xbe,
  0x78, 0xf9, 0x03, 0x3d, 0x6b, 0xbe, 0x90, 0xbe, 0x29, 0x2d, 0x8b, 0xbe,
  0xf8, 0xdd, 0xa7, 0x3e, 0xf9, 0xbf, 0x0c, 0xbe, 0xe0, 0x14, 0x01, 0xbd,
  0x20, 0xb7, 0x62, 0xbe, 0xc7, 0xf1, 0x71, 0xbe, 0xb8, 0x07, 0x95, 0x3d,
  0x48, 0xc0, 0x91, 0x3e, 0xec, 0x81, 0xb0, 0x3d, 0xd4, 0x35, 0x80, 0xbe,
  0x60, 0x8f, 0x13, 0x3e, 0xa0, 0xb3, 0x97, 0x3c, 0xb8, 0xca, 0x2a, 0x3e,
  0x3c, 0x0b, 0x91, 0x3d, 0x6c, 0x48, 0x45, 0x3e, 0x8e, 0xce, 0x09, 0x3e,
  0x32, 0x50, 0xad, 0x3e, 0x78, 0x17, 0x75, 0xbd, 0x34, 0x85, 0xdd, 0x3d,
  0x98, 0x13, 0x5e, 0xbe, 0x62, 0xe2, 0x96, 0x3e, 0x6e, 0x86, 0x0a, 0x3e,
  0xc4, 0xdb, 0x58, 0x3e, 0xac, 0xe1, 0x29, 0xbe, 0xe8, 0x08, 0x88, 0x3d,
  0xec, 0xa2, 0x86, 0x3d, 0x16, 0x77, 0x5d, 0xbe, 0x10, 0x5c, 0x20, 0xbd,
  0x68, 0x40, 0x39, 0x3e, 0xd0, 0x4f, 0xee, 0x3d, 0x6f, 0xe3, 0xab, 0xbe,
  0x24, 0x48, 0x9c, 0xbe, 0x1c, 0xc6, 0x23, 0x3e, 0xa8, 0xd4, 0x4b, 0x3e,
  0xec, 0x33, 0xf9, 0x3d, 0xd0, 0xab, 0x73, 0x3e, 0x34, 0x95, 0x50, 0x3e,
  0x50, 0x6f, 0x45, 0x3d, 0xe1, 0x0f, 0x9e, 0xbe, 0xaa, 0xce, 0xaa, 0xbe,
  0x04, 0x20, 0x2b, 0x3e, 0x7c, 0xb3, 0x8d, 0xbd, 0x10, 0x78, 0xca, 0x3c,
  0xea, 0xa2, 0xa3, 0x3e, 0x17, 0xb5, 0x5b, 0xbe, 0x28, 0x9b, 0x9d, 0x3e,
  0x40, 0xa6, 0xb1, 0x3b, 0x54, 0xa8, 0x5b, 0x3e, 0xf4, 0x6b, 0x1f, 0x3e,
  0x80, 0xf9, 0xaa, 0xbb, 0xe6, 0x74, 0x13, 0xbe, 0xcc, 0xa2, 0xa3, 0x3e,
  0x6c, 0xb2, 0x85, 0xbd, 0xc0, 0xfc, 0xd4, 0xbc, 0x28, 0x69, 0xad, 0x3e,
  0x76, 0x73, 0xad, 0xbe, 0xae, 0x68, 0x9e, 0x3e, 0x4f, 0xf6, 0x9d, 0xbe,
  0x54, 0x88, 0xa7, 0xbe, 0xa0, 0x28, 0x8a, 0xbe, 0xf0, 0x44, 0xe6, 0x3c,
  0x94, 0xf7, 0xcc, 0x3d, 0xc0, 0x59, 0xed, 0x3d, 0x7a, 0x6f, 0xb9, 0xbd,
  0xd0, 0x6b, 0x34, 0xbd, 0x4c, 0x55, 0x29, 0xbe, 0x7e, 0x4f, 0xa4, 0x3e,
  0x82, 0x00, 0x0e, 0x3e, 0x10, 0xcc, 0x25, 0x3e, 0xf0, 0x71, 0x1d, 0xbd,
  0xe0, 0x20, 0x94, 0xbc, 0x7e, 0xff, 0xff, 0xff, 0x10, 0x00, 0x00, 0x00,
  0x03, 0x00, 0x00, 0x00, 0x14, 0x00, 0x00, 0x00, 0x20, 0x00, 0x00, 0x00,
  0x02, 0x00, 0x00, 0x00, 0x01, 0x00, 0x00, 0x00, 0x16, 0x00, 0x00, 0x00,
  0x08, 0x00, 0x00, 0x00, 0x49, 0x64, 0x65, 0x6e, 0x74, 0x69, 0x74, 0x79,
  0x00, 0x00, 0x00, 0x00, 0x08, 0xff, 0xff, 0xff, 0xb2, 0xff, 0xff, 0xff,
  0x10, 0x00, 0x00, 0x00, 0x02, 0x00, 0x00, 0x00, 0x14, 0x00, 0x00, 0x00,
  0x38, 0x00, 0x00, 0x00, 0x02, 0x00, 0x00, 0x00, 0x01, 0x00, 0x00, 0x00,
  0x1a, 0x00, 0x00, 0x00, 0x1d, 0x00, 0x00, 0x00, 0x73, 0x65, 0x71, 0x75,
  0x65, 0x6e, 0x74, 0x69, 0x61, 0x6c, 0x5f, 0x31, 0x33, 0x30, 0x2f, 0x64,
  0x65, 0x6e, 0x73, 0x65, 0x5f, 0x33, 0x32, 0x35, 0x2f, 0x52, 0x65, 0x6c,
  0x75, 0x00, 0x00, 0x00, 0x04, 0x00, 0x06, 0x00, 0x04, 0x00, 0x00, 0x00,
  0x00, 0x00, 0x0e, 0x00, 0x14, 0x00, 0x04, 0x00, 0x00, 0x00, 0x08, 0x00,
  0x0c, 0x00, 0x10, 0x00, 0x0e, 0x00, 0x00, 0x00, 0x10, 0x00, 0x00, 0x00,
  0x01, 0x00, 0x00, 0x00, 0x14, 0x00, 0x00, 0x00, 0x2c, 0x00, 0x00, 0x00,
  0x02, 0x00, 0x00, 0x00, 0x01, 0x00, 0x00, 0x00, 0x1a, 0x00, 0x00, 0x00,
  0x0f, 0x00, 0x00, 0x00, 0x64, 0x65, 0x6e, 0x73, 0x65, 0x5f, 0x33, 0x32,
  0x35, 0x5f, 0x69, 0x6e, 0x70, 0x75, 0x74, 0x00, 0x08, 0x00, 0x0c, 0x00,
  0x04, 0x00, 0x08, 0x00, 0x08, 0x00, 0x00, 0x00, 0x10, 0x00, 0x00, 0x00,
  0x04, 0x00, 0x00, 0x00, 0x01, 0x00, 0x00, 0x00, 0x00, 0x00, 0x7f, 0x43,
  0x01, 0x00, 0x00, 0x00, 0x00, 0x00, 0x00, 0x00, 0x02, 0x00, 0x00, 0x00,
  0x58, 0x00, 0x00, 0x00, 0x04, 0x00, 0x00, 0x00, 0xc4, 0xff, 0xff, 0xff,
  0x00, 0x00, 0x00, 0x08, 0x10, 0x00, 0x00, 0x00, 0x1c, 0x00, 0x00, 0x00,
  0x28, 0x00, 0x00, 0x00, 0x1c, 0x00, 0x00, 0x00, 0x03, 0x00, 0x00, 0x00,
  0x04, 0x00, 0x00, 0x00, 0x05, 0x00, 0x00, 0x00, 0x06, 0x00, 0x00, 0x00,
  0x01, 0x00, 0x00, 0x00, 0x00, 0x00, 0x00, 0x00, 0x00, 0x00, 0x00, 0x00,
  0x04, 0x00, 0x04, 0x00, 0x04, 0x00, 0x00, 0x00, 0x14, 0x00, 0x18, 0x00,
  0x00, 0x00, 0x08, 0x00, 0x0c, 0x00, 0x07, 0x00, 0x10, 0x00, 0x00, 0x00,
  0x00, 0x00, 0x14, 0x00, 0x14, 0x00, 0x00, 0x00, 0x00, 0x00, 0x00, 0x08,
  0x10, 0x00, 0x00, 0x00, 0x1c, 0x00, 0x00, 0x00, 0x24, 0x00, 0x00, 0x00,
  0x1c, 0x00, 0x00, 0x00, 0x03, 0x00, 0x00, 0x00, 0x01, 0x00, 0x00, 0x00,
  0x02, 0x00, 0x00, 0x00, 0x03, 0x00, 0x00, 0x00, 0x01, 0x00, 0x00, 0x00,
  0x04, 0x00, 0x00, 0x00, 0x00, 0x00, 0x00, 0x00, 0xe2, 0xff, 0xff, 0xff,
  0x00, 0x00, 0x00, 0x01, 0x01, 0x00, 0x00, 0x00, 0x0c, 0x00, 0x00, 0x00,
  0x00, 0x00, 0x06, 0x00, 0x06, 0x00, 0x05, 0x00, 0x06, 0x00, 0x00, 0x00,
  0x00, 0x09, 0x06, 0x00, 0x08, 0x00, 0x07, 0x00, 0x06, 0x00, 0x00, 0x00,
  0x00, 0x00, 0x00, 0x09
};
unsigned int ANN_hybrid_22_tflite_len = 6304;
