unsigned char ANN_IV_22_tflite[] = {
  0x1c, 0x00, 0x00, 0x00, 0x54, 0x46, 0x4c, 0x33, 0x00, 0x00, 0x12, 0x00,
  0x1c, 0x00, 0x04, 0x00, 0x08, 0x00, 0x0c, 0x00, 0x10, 0x00, 0x14, 0x00,
  0x00, 0x00, 0x18, 0x00, 0x12, 0x00, 0x00, 0x00, 0x03, 0x00, 0x00, 0x00,
  0x10, 0x16, 0x00, 0x00, 0x10, 0x00, 0x00, 0x00, 0x1c, 0x00, 0x00, 0x00,
  0x2c, 0x00, 0x00, 0x00, 0x0c, 0x00, 0x00, 0x00, 0x01, 0x00, 0x00, 0x00,
  0xcc, 0x00, 0x00, 0x00, 0x01, 0x00, 0x00, 0x00, 0x94, 0x00, 0x00, 0x00,
  0x0f, 0x00, 0x00, 0x00, 0x54, 0x4f, 0x43, 0x4f, 0x20, 0x43, 0x6f, 0x6e,
  0x76, 0x65, 0x72, 0x74, 0x65, 0x64, 0x2e, 0x00, 0x09, 0x00, 0x00, 0x00,
  0x68, 0x00, 0x00, 0x00, 0x60, 0x00, 0x00, 0x00, 0x58, 0x00, 0x00, 0x00,
  0x50, 0x00, 0x00, 0x00, 0x44, 0x00, 0x00, 0x00, 0x30, 0x00, 0x00, 0x00,
  0x1c, 0x00, 0x00, 0x00, 0x10, 0x00, 0x00, 0x00, 0x04, 0x00, 0x00, 0x00,
  0xd6, 0xff, 0xff, 0xff, 0x44, 0x00, 0x00, 0x00, 0xde, 0xff, 0xff, 0xff,
  0x08, 0x01, 0x00, 0x00, 0xf6, 0xff, 0xff, 0xff, 0xc0, 0x01, 0x00, 0x00,
  0x00, 0x00, 0x06, 0x00, 0x0a, 0x00, 0x04, 0x00, 0x06, 0x00, 0x00, 0x00,
  0x40, 0x0a, 0x00, 0x00, 0x00, 0x00, 0x06, 0x00, 0x08, 0x00, 0x04, 0x00,
  0x06, 0x00, 0x00, 0x00, 0xf8, 0x0a, 0x00, 0x00, 0xe0, 0xea, 0xff, 0xff,
  0xe4, 0xea, 0xff, 0xff, 0xe8, 0xea, 0xff, 0xff, 0xec, 0xea, 0xff, 0xff,
  0x05, 0x00, 0x00, 0x00, 0x31, 0x2e, 0x35, 0x2e, 0x30, 0x00, 0x00, 0x00,
  0x60, 0xeb, 0xff, 0xff, 0x08, 0x00, 0x00, 0x00, 0x08, 0x00, 0x00, 0x00,
  0x13, 0x00, 0x00, 0x00, 0x6d, 0x69, 0x6e, 0x5f, 0x72, 0x75, 0x6e, 0x74,
  0x69, 0x6d, 0x65, 0x5f, 0x76, 0x65, 0x72, 0x73, 0x69, 0x6f, 0x6e, 0x00,
  0x0c, 0x00, 0x14, 0x00, 0x04, 0x00, 0x08, 0x00, 0x0c, 0x00, 0x10, 0x00,
  0x0c, 0x00, 0x00, 0x00, 0x20, 0x00, 0x00, 0x00, 0x14, 0x00, 0x00, 0x00,
  0x08, 0x00, 0x00, 0x00, 0x84, 0x14, 0x00, 0x00, 0x01, 0x00, 0x00, 0x00,
  0x00, 0x00, 0x00, 0x00, 0x01, 0x00, 0x00, 0x00, 0x01, 0x00, 0x00, 0x00,
  0x07, 0x00, 0x00, 0x00, 0x84, 0x13, 0x00, 0x00, 0x10, 0x14, 0x00, 0x00,
  0x14, 0x0a, 0x00, 0x00, 0x60, 0x09, 0x00, 0x00, 0xa8, 0x13, 0x00, 0x00,
  0xb0, 0x00, 0x00, 0x00, 0x04, 0x00, 0x00, 0x00, 0x16, 0xec, 0xff, 0xff,
  0x10, 0x00, 0x00, 0x00, 0x07, 0x00, 0x00, 0x00, 0x10, 0x00, 0x00, 0x00,
  0x38, 0x00, 0x00, 0x00, 0x01, 0x00, 0x00, 0x00, 0x16, 0x00, 0x00, 0x00,
  0x24, 0x00, 0x00, 0x00, 0x73, 0x65, 0x71, 0x75, 0x65, 0x6e, 0x74, 0x69,
  0x61, 0x6c, 0x5f, 0x31, 0x32, 0x38, 0x2f, 0x64, 0x65, 0x6e, 0x73, 0x65,
  0x5f, 0x33, 0x32, 0x31, 0x2f, 0x4d, 0x61, 0x74, 0x4d, 0x75, 0x6c, 0x5f,
  0x62, 0x69, 0x61, 0x73, 0x00, 0x00, 0x00, 0x00, 0xb8, 0xeb, 0xff, 0xff,
  0x58, 0x00, 0x00, 0x00, 0x00, 0x00, 0x00, 0x00, 0x00, 0x00, 0x00, 0x00,
  0x00, 0x00, 0x00, 0x00, 0x00, 0x00, 0x00, 0x00, 0x00, 0x00, 0x00, 0x00,
  0x00, 0x00, 0x00, 0x00, 0x00, 0x00, 0x00, 0x00, 0x00, 0x00, 0x00, 0x00,
  0x00, 0x00, 0x00, 0x00, 0x00, 0x00, 0x00, 0x00, 0x00, 0x00, 0x00, 0x00,
  0x00, 0x00, 0x00, 0x00, 0x00, 0x00, 0x00, 0x00, 0x00, 0x00, 0x00, 0x00,
  0x00, 0x00, 0x00, 0x00, 0x00, 0x00, 0x00, 0x00, 0x00, 0x00, 0x00, 0x00,
  0x00, 0x00, 0x00, 0x00, 0x00, 0x00, 0x00, 0x00, 0x00, 0x00, 0x00, 0x00,
  0x00, 0x00, 0x00, 0x00, 0x00, 0x00, 0x00, 0x00, 0xbe, 0xec, 0xff, 0xff,
  0x10, 0x00, 0x00, 0x00, 0x06, 0x00, 0x00, 0x00, 0x14, 0x00, 0x00, 0x00,
  0x50, 0x00, 0x00, 0x00, 0x02, 0x00, 0x00, 0x00, 0x16, 0x00, 0x00, 0x00,
  0x18, 0x00, 0x00, 0x00, 0x38, 0x00, 0x00, 0x00, 0x73, 0x65, 0x71, 0x75,
  0x65, 0x6e, 0x74, 0x69, 0x61, 0x6c, 0x5f, 0x31, 0x32, 0x38, 0x2f, 0x64,
  0x65, 0x6e, 0x73, 0x65, 0x5f, 0x33, 0x32, 0x31, 0x2f, 0x4d, 0x61, 0x74,
  0x4d, 0x75, 0x6c, 0x2f, 0x52, 0x65, 0x61, 0x64, 0x56, 0x61, 0x72, 0x69,
  0x61, 0x62, 0x6c, 0x65, 0x4f, 0x70, 0x2f, 0x74, 0x72, 0x61, 0x6e, 0x73,
  0x70, 0x6f, 0x73, 0x65, 0x00, 0x00, 0x00, 0x00, 0x78, 0xec, 0xff, 0xff,
  0x40, 0x08, 0x00, 0x00, 0xe0, 0x3a, 0x89, 0xbd, 0xe0, 0xc8, 0x6e, 0xbe,
  0x96, 0x1d, 0x08, 0x3e, 0xa3, 0xbf, 0x81, 0x3e, 0x9a, 0x8d, 0x3a, 0xbe,
  0x2b, 0xeb, 0x8c, 0x3e, 0x39, 0x68, 0xb7, 0x3e, 0xc6, 0xc7, 0xf1, 0xbd,
  0x20, 0x04, 0x57, 0x3d, 0xe2, 0x90, 0x2f, 0x3e, 0x8c, 0xc1, 0x53, 0xbe,
  0xd0, 0xb1, 0x55, 0x3d, 0x55, 0xb7, 0x94, 0x3e, 0x6c, 0x7e, 0xbb, 0x3d,
  0xc0, 0x95, 0xb8, 0xbb, 0xa0, 0x64, 0xd1, 0xbd, 0x18, 0x24, 0x7b, 0xbd,
  0xf9, 0x9d, 0xab, 0x3e, 0x46, 0x94, 0x42, 0x3e, 0x8e, 0x71, 0x0f, 0x3e,
  0x70, 0xb4, 0x5b, 0xbd, 0xa9, 0x5d, 0x8a, 0x3e, 0x5e, 0x25, 0xa8, 0xbe,
  0xb8, 0x18, 0xb2, 0xbd, 0x5d, 0x46, 0x9a, 0x3e, 0x38, 0x58, 0x40, 0xbd,
  0x96, 0xab, 0x1b, 0x3e, 0x43, 0xcc, 0x92, 0x3e, 0x78, 0x68, 0xf1, 0x3d,
  0x86, 0x33, 0x0c, 0x3e, 0x94, 0xcc, 0xd8, 0x3d, 0x60, 0x25, 0x77, 0x3c,
  0xb5, 0xeb, 0xab, 0x3e, 0x47, 0x63, 0x17, 0xbe, 0x19, 0xa9, 0xa2, 0x3e,
  0x22, 0x4f, 0x72, 0x3e, 0x97, 0x5d, 0xb7, 0xbe, 0x72, 0x81, 0x70, 0x3e,
  0x80, 0x2b, 0x4d, 0x3c, 0x80, 0x77, 0x08, 0xbb, 0x2b, 0x79, 0x1e, 0xbe,
  0x69, 0x48, 0x81, 0x3e, 0xd0, 0x9e, 0xfe, 0xbc, 0x76, 0x48, 0x10, 0x3e,
  0xa6, 0x6a, 0x15, 0x3e, 0xa7, 0x80, 0xa3, 0x3e, 0x4c, 0x66, 0x9e, 0xbe,
  0x88, 0xe8, 0xc5, 0x3d, 0xc7, 0xbf, 0x8c, 0xbe, 0xe7, 0x42, 0xa0, 0xbe,
  0x00, 0x26, 0xf6, 0x3b, 0xba, 0x69, 0xb0, 0xbe, 0x5a, 0xcd, 0x91, 0xbe,
  0x1d, 0xbc, 0x98, 0x3e, 0xba, 0x9d, 0x29, 0xbe, 0x3a, 0x02, 0x76, 0xbe,
  0x20, 0xa7, 0x8b, 0x3d, 0x82, 0x24, 0x31, 0x3e, 0x38, 0xb3, 0x2b, 0xbd,
  0xd8, 0xd3, 0xae, 0xbe, 0x0d, 0x76, 0x9e, 0x3e, 0xf9, 0x99, 0xb2, 0x3e,
  0xcb, 0x84, 0xac, 0x3e, 0xd2, 0xca, 0x60, 0x3e, 0x1a, 0x58, 0x4b, 0xbe,
  0x40, 0x59, 0xa0, 0x3b, 0x00, 0x41, 0x90, 0x3b, 0xf3, 0xaf, 0xb8, 0xbe,
  0xd0, 0x0f, 0xcc, 0xbd, 0x10, 0x6e, 0x28, 0x3d, 0xce, 0x77, 0x19, 0xbe,
  0x19, 0x77, 0xb5, 0x3e, 0x35, 0x36, 0x88, 0x3e, 0x0d, 0xc7, 0xa8, 0x3e,
  0x8a, 0xb3, 0x83, 0xbe, 0x01, 0xf0, 0x97, 0x3e, 0x95, 0x9d, 0x6e, 0xbe,
  0x65, 0x52, 0x9d, 0xbe, 0xfb, 0x31, 0xa2, 0xbe, 0xbc, 0x7e, 0x02, 0xbe,
  0xa3, 0x3b, 0x4b, 0xbe, 0xf0, 0x4b, 0x77, 0x3d, 0xb3, 0x39, 0xb6, 0x3e,
  0x0b, 0x8f, 0x8a, 0x3e, 0xe0, 0x71, 0x57, 0x3c, 0x24, 0x29, 0xd5, 0x3d,
  0xdf, 0xf5, 0xa3, 0x3e, 0x00, 0xf0, 0xc0, 0x3a, 0xc9, 0x18, 0xb4, 0x3e,
  0x66, 0x2f, 0x3c, 0x3e, 0xa5, 0xcf, 0x58, 0xbe, 0xf5, 0x0e, 0x1f, 0xbe,
  0x02, 0xd2, 0x3e, 0x3e, 0x7f, 0x63, 0xb5, 0xbe, 0xba, 0x52, 0x91, 0xbe,
  0x49, 0xa5, 0x88, 0x3e, 0x7e, 0x75, 0x13, 0x3e, 0xed, 0xa7, 0xa5, 0x3e,
  0x6e, 0x8c, 0x83, 0xbe, 0xbc, 0x94, 0x8f, 0xbe, 0xee, 0x74, 0x1e, 0x3e,
  0x12, 0x46, 0x47, 0xbe, 0xa0, 0x3f, 0xb2, 0xbe, 0xfe, 0x23, 0x8e, 0xbe,
  0xe4, 0xae, 0xb4, 0xbd, 0x28, 0x08, 0x27, 0xbd, 0xad, 0x18, 0x17, 0xbe,
  0x5a, 0x9e, 0xa5, 0xbe, 0x78, 0x59, 0xbf, 0xbd, 0x0a, 0x7f, 0x8a, 0xbe,
  0xc7, 0xaa, 0xb0, 0x3e, 0xd6, 0x19, 0x38, 0x3e, 0xa8, 0x24, 0x7f, 0xbe,
  0xb1, 0x23, 0x61, 0xbe, 0xe6, 0x16, 0x91, 0xbe, 0x77, 0x23, 0x07, 0xbe,
  0x78, 0xe0, 0xf7, 0x3d, 0x34, 0x2d, 0x86, 0xbd, 0x9f, 0x53, 0x9c, 0xbe,
  0xa0, 0x4b, 0xa3, 0x3c, 0xd7, 0x49, 0x94, 0x3e, 0x60, 0xe7, 0x9d, 0xbd,
  0x48, 0x9f, 0xb6, 0xbe, 0x77, 0x6f, 0x9c, 0xbe, 0x50, 0x9a, 0xe6, 0x3d,
  0xf4, 0xb9, 0xb7, 0xbd, 0x90, 0xe9, 0xca, 0xbd, 0x09, 0xcb, 0x45, 0xbe,
  0xac, 0x87, 0x63, 0xbe, 0xf8, 0xf9, 0x26, 0x3d, 0xcb, 0xbf, 0x9a, 0x3e,
  0xae, 0x35, 0x1e, 0x3e, 0xa7, 0x9a, 0x9b, 0x3e, 0x42, 0x1f, 0x58, 0x3e,
  0xa0, 0xad, 0x55, 0xbe, 0xfd, 0xe2, 0x82, 0x3e, 0x3c, 0xd8, 0x9f, 0xbd,
  0xd5, 0xd8, 0x81, 0x3e, 0x10, 0x83, 0x8b, 0xbe, 0x46, 0xb3, 0x34, 0xbe,
  0x74, 0x98, 0x91, 0x3d, 0x98, 0x55, 0x2e, 0x3d, 0x04, 0x10, 0x99, 0xbe,
  0xea, 0x6e, 0xb2, 0xbe, 0x2a, 0x32, 0x4b, 0x3e, 0xf7, 0xf9, 0x1e, 0xbe,
  0xce, 0x89, 0x21, 0xbe, 0x0b, 0xdf, 0x6e, 0xbe, 0x36, 0x92, 0x10, 0x3e,
  0x68, 0xb0, 0x2c, 0xbd, 0xfc, 0x43, 0x52, 0xbe, 0x88, 0x63, 0x14, 0xbd,
  0xa1, 0x0b, 0x54, 0xbe, 0xc0, 0xed, 0x64, 0xbd, 0xf3, 0x51, 0x6d, 0xbe,
  0xa8, 0xad, 0x05, 0x3d, 0x73, 0xe1, 0x8d, 0x3e, 0xea, 0xb7, 0x92, 0xbe,
  0x8b, 0x31, 0x08, 0xbe, 0xd1, 0x8a, 0x32, 0xbe, 0x1a, 0x99, 0x35, 0x3e,
  0x7b, 0xf8, 0x8d, 0x3e, 0xea, 0x18, 0x98, 0xbe, 0xff, 0xfd, 0x8a, 0x3e,
  0x51, 0xc5, 0x81, 0x3e, 0x5d, 0xbb, 0x87, 0xbe, 0xe2, 0x19, 0x1b, 0x3e,
  0x22, 0xce, 0x10, 0x3e, 0xf9, 0xec, 0xaf, 0x3e, 0xb0, 0x6a, 0x7a, 0xbe,
  0x50, 0x77, 0xa2, 0x3d, 0xca, 0x98, 0x2f, 0x3e, 0xe0, 0x59, 0x24, 0x3d,
  0xb4, 0x11, 0xa0, 0xbe, 0x67, 0x15, 0x89, 0x3e, 0x78, 0x2c, 0x1a, 0x3d,
  0x18, 0x73, 0x8a, 0x3d, 0x60, 0xf1, 0x73, 0xbd, 0xb1, 0xcd, 0x8c, 0xbe,
  0xaf, 0xbd, 0x95, 0x3e, 0xfa, 0xd4, 0x5e, 0x3e, 0x44, 0xf5, 0xc2, 0x3d,
  0x66, 0xe5, 0xad, 0xbe, 0x0e, 0x01, 0x60, 0x3e, 0x02, 0xed, 0x08, 0x3e,
  0x05, 0x5c, 0xa7, 0x3e, 0x5f, 0xee, 0xb5, 0x3e, 0x41, 0xc5, 0xaf, 0xbe,
  0xdc, 0xfa, 0x60, 0xbe, 0x17, 0x99, 0x1a, 0xbe, 0x2a, 0x00, 0x44, 0xbe,
  0x7e, 0x60, 0x5e, 0x3e, 0xec, 0x70, 0x8f, 0xbd, 0xc0, 0x6b, 0xbf, 0x3d,
  0x40, 0xfe, 0xb4, 0xbb, 0x42, 0x08, 0x19, 0x3e, 0x43, 0xc4, 0xa2, 0x3e,
  0x31, 0x3b, 0x90, 0xbe, 0x0a, 0xbf, 0x16, 0x3e, 0xee, 0x53, 0x67, 0xbe,
  0x2a, 0x06, 0x25, 0x3e, 0x13, 0x00, 0x9b, 0x3e, 0x94, 0xee, 0x40, 0xbe,
  0x6b, 0xd5, 0xaf, 0x3e, 0x5b, 0xaa, 0x8f, 0x3e, 0xe2, 0x1f, 0x17, 0x3e,
  0xc6, 0x7e, 0x74, 0xbe, 0xf6, 0x45, 0x5a, 0x3e, 0xe2, 0x05, 0x66, 0xbe,
  0x58, 0xfb, 0xf8, 0xbd, 0x84, 0xe4, 0x82, 0xbd, 0x54, 0x1a, 0x8c, 0xbd,
  0x79, 0xfb, 0xa5, 0xbe, 0xe0, 0x37, 0xae, 0x3c, 0xe0, 0xe1, 0x5d, 0x3d,
  0x62, 0x41, 0x4a, 0x3e, 0x54, 0x9f, 0xf4, 0x3d, 0xdc, 0x9c, 0x7b, 0xbe,
  0xd3, 0x0b, 0x9d, 0x3e, 0xda, 0x15, 0xb1, 0xbe, 0x25, 0x0f, 0xb2, 0x3e,
  0x72, 0x3d, 0x65, 0x3e, 0xc1, 0x5c, 0xb2, 0x3e, 0x4e, 0xea, 0xb4, 0xbe,
  0xb6, 0xf8, 0x49, 0x3e, 0xa1, 0x25, 0x96, 0x3e, 0xa9, 0xd3, 0x9d, 0x3e,
  0xb6, 0x41, 0xfe, 0xbd, 0x30, 0x15, 0x1d, 0x3d, 0xc9, 0x60, 0x85, 0x3e,
  0x80, 0x8d, 0xff, 0xbc, 0x13, 0x76, 0x55, 0xbe, 0x4c, 0x6b, 0xfb, 0x3d,
  0xdf, 0x76, 0xa0, 0x3e, 0x2a, 0xe3, 0x9b, 0xbe, 0x86, 0x11, 0x10, 0xbe,
  0x80, 0xc6, 0x80, 0x3b, 0x8c, 0xe3, 0x42, 0xbe, 0x68, 0x1f, 0x40, 0xbe,
  0x1c, 0x57, 0x07, 0x3e, 0xd6, 0x21, 0x3e, 0xbe, 0xbb, 0xca, 0x9d, 0xbe,
  0x0a, 0x7d, 0x46, 0x3e, 0xe0, 0xd5, 0xd4, 0x3c, 0xbd, 0x9e, 0x8b, 0xbe,
  0xaa, 0x51, 0x56, 0x3e, 0x44, 0xbd, 0xa1, 0xbd, 0xea, 0x96, 0x4c, 0x3e,
  0x44, 0x86, 0x37, 0xbe, 0xfc, 0x49, 0x02, 0x3e, 0x3f, 0xa5, 0x4c, 0xbe,
  0x71, 0xf3, 0x9e, 0x3e, 0x01, 0xae, 0x59, 0xbe, 0xc6, 0x28, 0x3a, 0xbe,
  0x61, 0x93, 0xb6, 0x3e, 0x02, 0xa8, 0x55, 0x3e, 0xcf, 0x01, 0x9c, 0xbe,
  0xbc, 0xfc, 0xa7, 0xbe, 0x89, 0x7b, 0xa5, 0x3e, 0x61, 0xf6, 0x9f, 0x3e,
  0x84, 0xa1, 0xa4, 0xbd, 0x6a, 0x59, 0x20, 0x3e, 0x6c, 0x30, 0xd0, 0x3d,
  0x4a, 0x3f, 0x11, 0x3e, 0x1b, 0x7d, 0xa8, 0xbe, 0xd1, 0x53, 0xb2, 0x3e,
  0x92, 0x28, 0x78, 0x3e, 0x10, 0xe0, 0x6f, 0xbd, 0x56, 0x6f, 0x30, 0x3e,
  0x9e, 0xe0, 0x7e, 0x3e, 0x00, 0xcc, 0xb2, 0x3c, 0xc7, 0x3e, 0x34, 0xbe,
  0x50, 0xb8, 0xde, 0x3d, 0x70, 0x99, 0xc2, 0xbd, 0x8b, 0xda, 0xb6, 0x3e,
  0x33, 0x2e, 0x83, 0x3e, 0x90, 0x1c, 0x74, 0xbe, 0x9a, 0x11, 0x5f, 0xbe,
  0xe4, 0xf6, 0x88, 0xbd, 0xc4, 0x2b, 0xe1, 0xbd, 0xf8, 0xa5, 0x2d, 0x3d,
  0x57, 0xf6, 0xaa, 0x3e, 0xc6, 0xc3, 0x2d, 0x3e, 0x29, 0x0c, 0xaa, 0xbe,
  0xe7, 0x9a, 0xb6, 0x3e, 0x44, 0xbb, 0xdd, 0xbd, 0x4d, 0xcc, 0xb0, 0xbe,
  0xd9, 0x08, 0xab, 0x3e, 0xb0, 0x43, 0x86, 0x3d, 0x4d, 0x0e, 0xa4, 0x3e,
  0xf0, 0xfd, 0x92, 0xbc, 0x46, 0xda, 0x12, 0x3e, 0xc0, 0x10, 0x07, 0xbe,
  0xb7, 0xe9, 0xae, 0x3e, 0x68, 0x36, 0x4b, 0xbd, 0xe4, 0x92, 0xbf, 0x3d,
  0x3c, 0x3b, 0x07, 0x3e, 0xaf, 0xc7, 0xa2, 0x3e, 0x88, 0xff, 0x8f, 0xbe,
  0x4d, 0x03, 0x9c, 0x3e, 0xf0, 0x50, 0x54, 0xbd, 0x5c, 0x71, 0xb1, 0xbd,
  0x7a, 0x91, 0x18, 0x3e, 0xff, 0x18, 0xa2, 0x3e, 0xb4, 0xa3, 0x13, 0xbe,
  0x48, 0x69, 0xc0, 0x3d, 0x94, 0xb8, 0x98, 0xbd, 0x34, 0x3d, 0x50, 0xbe,
  0x2d, 0xbc, 0xb4, 0x3e, 0xf5, 0x17, 0x9f, 0x3e, 0x92, 0xa5, 0x01, 0x3e,
  0x62, 0x8b, 0x62, 0x3e, 0x80, 0xff, 0xf7, 0x3c, 0xae, 0x46, 0x36, 0x3e,
  0xd0, 0x04, 0xff, 0xbc, 0xf6, 0x32, 0x52, 0x3e, 0xb4, 0x71, 0xbb, 0x3d,
  0xf8, 0x4a, 0x33, 0x3d, 0x22, 0xcc, 0x73, 0x3e, 0x50, 0x81, 0xef, 0x3d,
  0x18, 0x8a, 0x4e, 0xbd, 0x34, 0x43, 0xc1, 0xbd, 0x10, 0x81, 0x5a, 0x3d,
  0x50, 0xe2, 0x7c, 0x3d, 0x7d, 0x81, 0x9c, 0xbe, 0x9f, 0xdf, 0x9a, 0x3e,
  0x10, 0x14, 0x92, 0xbd, 0x76, 0x6f, 0x15, 0x3e, 0x88, 0xc3, 0xbd, 0xbd,
  0x62, 0xb4, 0x33, 0x3e, 0x2c, 0x06, 0x9c, 0x3d, 0xc0, 0x94, 0xc9, 0x3c,
  0x13, 0x4c, 0x17, 0xbe, 0x80, 0x71, 0x5f, 0xbd, 0x16, 0xa3, 0x2e, 0xbe,
  0xa4, 0x32, 0xe1, 0x3d, 0xa0, 0x8d, 0x9d, 0xbe, 0x22, 0xd9, 0x86, 0xbe,
  0xb8, 0x37, 0x06, 0xbd, 0x72, 0x5b, 0x17, 0x3e, 0xd8, 0x54, 0xd5, 0xbd,
  0x6b, 0xf2, 0x8f, 0xbe, 0x96, 0x43, 0x61, 0x3e, 0x15, 0x3f, 0xa1, 0x3e,
  0xee, 0x19, 0xb2, 0xbe, 0xa0, 0x85, 0x2e, 0x3d, 0x84, 0xdc, 0xd3, 0x3d,
  0x34, 0x8e, 0x82, 0xbd, 0x33, 0x12, 0x64, 0xbe, 0x6e, 0x4b, 0x2e, 0x3e,
  0xb5, 0xb8, 0x86, 0x3e, 0xde, 0x86, 0x22, 0x3e, 0x82, 0x92, 0x76, 0xbe,
  0x47, 0xcb, 0xb4, 0x3e, 0x80, 0x44, 0x59, 0xbe, 0x30, 0x04, 0xee, 0xbc,
  0x40, 0x82, 0x77, 0xbc, 0x30, 0xd3, 0x2b, 0x3d, 0x54, 0x0a, 0xd6, 0xbd,
  0x6b, 0x48, 0xa2, 0xbe, 0xa8, 0x2d, 0xaf, 0xbd, 0xe5, 0xae, 0xb7, 0xbe,
  0xd1, 0xf2, 0x92, 0x3e, 0x1a, 0x3a, 0x67, 0x3e, 0x96, 0x08, 0x8b, 0xbe,
  0x03, 0x60, 0x91, 0x3e, 0xa0, 0x8c, 0x97, 0x3d, 0xb9, 0x14, 0x91, 0xbe,
  0x35, 0xc3, 0x3e, 0xbe, 0xa5, 0xf8, 0x20, 0xbe, 0x70, 0x5e, 0x06, 0x3d,
  0x40, 0x8d, 0x9f, 0xbd, 0x34, 0xd6, 0xd3, 0x3d, 0x37, 0x63, 0xb5, 0xbe,
  0x72, 0x6c, 0xb2, 0xbe, 0xb1, 0xf4, 0x8b, 0xbe, 0x48, 0xc0, 0xa3, 0xbe,
  0x3f, 0x23, 0x9c, 0x3e, 0xb2, 0x96, 0x94, 0xbe, 0x27, 0xee, 0xa9, 0xbe,
  0x5d, 0xa9, 0xa9, 0xbe, 0x84, 0x1e, 0x88, 0xbe, 0x24, 0x55, 0xe5, 0xbd,
  0xb1, 0xec, 0xad, 0x3e, 0x0f, 0x22, 0x25, 0xbe, 0x2e, 0x4c, 0x62, 0x3e,
  0xd6, 0x2c, 0x61, 0x3e, 0x28, 0x63, 0xa1, 0x3d, 0x00, 0x7c, 0xf0, 0xba,
  0x00, 0x3a, 0xb4, 0x3b, 0x3d, 0x96, 0x7f, 0xbe, 0x43, 0xce, 0xa2, 0x3e,
  0x5a, 0x11, 0x68, 0x3e, 0x3e, 0x68, 0x58, 0x3e, 0x4b, 0x19, 0x50, 0xbe,
  0x32, 0x0e, 0x35, 0xbe, 0x1a, 0x0b, 0x12, 0x3e, 0xf0, 0x60, 0x44, 0xbd,
  0x99, 0xd8, 0xa0, 0x3e, 0x71, 0xd9, 0x4e, 0xbe, 0x89, 0x82, 0xab, 0xbe,
  0x80, 0x57, 0xd8, 0x3c, 0x8a, 0xd9, 0x24, 0x3e, 0x90, 0xe2, 0x94, 0xbc,
  0x47, 0x48, 0xa7, 0x3e, 0xf6, 0x2c, 0x5f, 0xbe, 0x2d, 0x01, 0xb4, 0xbe,
  0x60, 0x7a, 0xc4, 0x3d, 0xae, 0xf5, 0x6b, 0x3e, 0x08, 0x30, 0x56, 0x3d,
  0x52, 0x5c, 0x1e, 0xbe, 0x20, 0x77, 0x73, 0x3c, 0xf1, 0xb5, 0xb3, 0x3e,
  0xc0, 0x51, 0x7f, 0x3d, 0x8c, 0x40, 0x02, 0x3e, 0x1e, 0x8b, 0x1a, 0x3e,
  0x00, 0x1c, 0x9e, 0xbe, 0xba, 0x0b, 0x5d, 0x3e, 0xe1, 0xc3, 0xb3, 0x3e,
  0x4c, 0xe6, 0xb2, 0x3d, 0x0a, 0xbc, 0x76, 0x3e, 0x41, 0x10, 0x96, 0x3e,
  0x1e, 0x29, 0x26, 0x3e, 0x98, 0x15, 0xb7, 0xbe, 0x70, 0x0d, 0xe6, 0xbc,
  0x83, 0x10, 0x8c, 0x3e, 0x2e, 0x9c, 0x3e, 0x3e, 0xc0, 0x99, 0x35, 0xbd,
  0x24, 0x03, 0x93, 0xbd, 0x80, 0xda, 0x0f, 0xbd, 0x62, 0x59, 0x15, 0x3e,
  0xaa, 0xdf, 0xb5, 0xbe, 0x0c, 0x42, 0xf9, 0x3d, 0x27, 0x90, 0x9a, 0xbe,
  0x90, 0xe7, 0xae, 0xbc, 0x64, 0xd9, 0x8c, 0x3d, 0x74, 0x4f, 0x9f, 0x3d,
  0x12, 0xd8, 0x71, 0xbe, 0x4a, 0x9e, 0x42, 0x3e, 0x18, 0x0c, 0xad, 0xbe,
  0x2e, 0x28, 0x65, 0xbe, 0xe0, 0xf2, 0x4d, 0x3c, 0xaf, 0x14, 0x83, 0x3e,
  0x20, 0x23, 0xbd, 0x3c, 0x68, 0x31, 0xa4, 0xbd, 0x96, 0x4a, 0x10, 0x3e,
  0xb3, 0x89, 0xb3, 0x3e, 0xdd, 0x6c, 0x93, 0xbe, 0x90, 0x05, 0xa9, 0xbd,
  0xfe, 0x85, 0x57, 0x3e, 0x30, 0xb9, 0xd5, 0xbc, 0x50, 0x78, 0x87, 0xbe,
  0x98, 0xc5, 0xa8, 0xbe, 0xc0, 0x8a, 0xbe, 0x3d, 0xa2, 0x8b, 0x6f, 0x3e,
  0x06, 0xd8, 0x2b, 0x3e, 0xe7, 0xf9, 0x9a, 0x3e, 0x66, 0x06, 0x26, 0xbe,
  0x40, 0xa0, 0x8e, 0xbb, 0xa0, 0x36, 0xc8, 0xbd, 0xf6, 0x82, 0x29, 0x3e,
  0x80, 0x98, 0xe8, 0xbd, 0x58, 0x30, 0xb9, 0x3d, 0xd8, 0x33, 0xb2, 0xbe,
  0x3d, 0xb2, 0x3d, 0xbe, 0x00, 0x00, 0xb1, 0x37, 0xaf, 0x04, 0xb4, 0x3e,
  0xba, 0x69, 0x2e, 0x3e, 0x36, 0x2a, 0x3e, 0xbe, 0x6e, 0x30, 0x7e, 0x3e,
  0xd4, 0x6f, 0x83, 0x3d, 0x88, 0x44, 0x6e, 0xbd, 0x74, 0xae, 0x8f, 0xbe,
  0xdc, 0x5e, 0xe0, 0xbd, 0xdd, 0xd9, 0x9d, 0x3e, 0x86, 0x9c, 0xaf, 0xbe,
  0xd6, 0x3a, 0x02, 0x3e, 0xa8, 0x48, 0x32, 0xbe, 0x96, 0xfe, 0x3f, 0x3e,
  0x00, 0x42, 0xdb, 0x3c, 0xa8, 0x2d, 0x7e, 0xbd, 0xa0, 0x75, 0x43, 0xbc,
  0x1c, 0xd9, 0x80, 0xbe, 0xd5, 0x41, 0x46, 0xbe, 0xdd, 0x59, 0x24, 0xbe,
  0xb4, 0x04, 0x3d, 0xbe, 0x9f, 0xb9, 0x8d, 0x3e, 0xd1, 0x5e, 0xa9, 0xbe,
  0x8b, 0x8d, 0x0f, 0xbe, 0x33, 0x3a, 0xb7, 0x3e, 0x2d, 0xe1, 0x12, 0xbe,
  0x88, 0x62, 0xea, 0x3d, 0x91, 0xbb, 0x81, 0x3e, 0x5c, 0xa3, 0xbb, 0x3d,
  0xcb, 0x4c, 0x04, 0xbe, 0xaa, 0xbe, 0x4b, 0x3e, 0x96, 0x70, 0x35, 0x3e,
  0x3a, 0xd6, 0x4a, 0x3e, 0xb8, 0xba, 0x31, 0x3d, 0x58, 0x97, 0x37, 0x3d,
  0x5b, 0x31, 0x81, 0xbe, 0x31, 0xc4, 0x95, 0x3e, 0x54, 0xdb, 0x9a, 0xbe,
  0xa7, 0x18, 0xaa, 0x3e, 0x9a, 0x1d, 0x4c, 0x3e, 0x58, 0x6d, 0x9a, 0x3d,
  0x30, 0x12, 0x42, 0xbd, 0x08, 0x31, 0xd4, 0xbd, 0x38, 0x7f, 0xeb, 0x3d,
  0x40, 0xce, 0xc1, 0xbd, 0x4e, 0xf3, 0x8b, 0xbe, 0x2e, 0x21, 0x38, 0xbe,
  0xfc, 0xb1, 0xcf, 0xbd, 0x6d, 0x74, 0xb5, 0x3e, 0xd0, 0xf0, 0xee, 0x3d,
  0x88, 0xc0, 0x08, 0xbd, 0x68, 0xd6, 0x11, 0x3d, 0x0f, 0x7c, 0xa9, 0x3e,
  0x20, 0xec, 0x07, 0xbc, 0xff, 0x94, 0x6f, 0xbe, 0x90, 0x37, 0xe1, 0xbc,
  0x28, 0x8c, 0x08, 0x3d, 0xeb, 0x33, 0x31, 0xbe, 0xb2, 0x13, 0x5d, 0x3e,
  0xfa, 0xc4, 0x26, 0xbe, 0x00, 0xe1, 0x1c, 0xbd, 0xce, 0x8f, 0x3e, 0x3e,
  0x36, 0x89, 0x16, 0x3e, 0x66, 0xf5, 0xff, 0xff, 0x10, 0x00, 0x00, 0x00,
  0x05, 0x00, 0x00, 0x00, 0x10, 0x00, 0x00, 0x00, 0x38, 0x00, 0x00, 0x00,
  0x01, 0x00, 0x00, 0x00, 0x18, 0x00, 0x00, 0x00, 0x24, 0x00, 0x00, 0x00,
  0x73, 0x65, 0x71, 0x75, 0x65, 0x6e, 0x74, 0x69, 0x61, 0x6c, 0x5f, 0x31,
  0x32, 0x38, 0x2f, 0x64, 0x65, 0x6e, 0x73, 0x65, 0x5f, 0x33, 0x32, 0x30,
  0x2f, 0x4d, 0x61, 0x74, 0x4d, 0x75, 0x6c, 0x5f, 0x62, 0x69, 0x61, 0x73,
  0x00, 0x00, 0x00, 0x00, 0x08, 0xf5, 0xff, 0xff, 0x60, 0x00, 0x00, 0x00,
  0x00, 0x00, 0x00, 0x00, 0x00, 0x00, 0x00, 0x00, 0x00, 0x00, 0x00, 0x00,
  0x00, 0x00, 0x00, 0x00, 0x00, 0x00, 0x00, 0x00, 0x00, 0x00, 0x00, 0x00,
  0x00, 0x00, 0x00, 0x00, 0x00, 0x00, 0x00, 0x00, 0x00, 0x00, 0x00, 0x00,
  0x00, 0x00, 0x00, 0x00, 0x00, 0x00, 0x00, 0x00, 0x00, 0x00, 0x00, 0x00,
  0x00, 0x00, 0x00, 0x00, 0x00, 0x00, 0x00, 0x00, 0x00, 0x00, 0x00, 0x00,
  0x00, 0x00, 0x00, 0x00, 0x00, 0x00, 0x00, 0x00, 0x00, 0x00, 0x00, 0x00,
  0x00, 0x00, 0x00, 0x00, 0x00, 0x00, 0x00, 0x00, 0x00, 0x00, 0x00, 0x00,
  0x00, 0x00, 0x00, 0x00, 0x00, 0x00, 0x00, 0x00, 0x00, 0x00, 0x00, 0x00,
  0x16, 0xf6, 0xff, 0xff, 0x10, 0x00, 0x00, 0x00, 0x04, 0x00, 0x00, 0x00,
  0x14, 0x00, 0x00, 0x00, 0x50, 0x00, 0x00, 0x00, 0x02, 0x00, 0x00, 0x00,
  0x18, 0x00, 0x00, 0x00, 0x18, 0x00, 0x00, 0x00, 0x38, 0x00, 0x00, 0x00,
  0x73, 0x65, 0x71, 0x75, 0x65, 0x6e, 0x74, 0x69, 0x61, 0x6c, 0x5f, 0x31,
  0x32, 0x38, 0x2f, 0x64, 0x65, 0x6e, 0x73, 0x65, 0x5f, 0x33, 0x32, 0x30,
  0x2f, 0x4d, 0x61, 0x74, 0x4d, 0x75, 0x6c, 0x2f, 0x52, 0x65, 0x61, 0x64,
  0x56, 0x61, 0x72, 0x69, 0x61, 0x62, 0x6c, 0x65, 0x4f, 0x70, 0x2f, 0x74,
  0x72, 0x61, 0x6e, 0x73, 0x70, 0x6f, 0x73, 0x65, 0x00, 0x00, 0x00, 0x00,
  0xd0, 0xf5, 0xff, 0xff, 0x00, 0x09, 0x00, 0x00, 0x10, 0x76, 0xe3, 0xbd,
  0x34, 0xff, 0xa7, 0x3d, 0x00, 0x2a, 0x45, 0x3d, 0xe4, 0xa6, 0x86, 0xbe,
  0xde, 0x83, 0x80, 0xbe, 0x14, 0x0c, 0x91, 0xbd, 0xa0, 0x53, 0xb3, 0x3d,
  0x07, 0xdc, 0x55, 0xbe, 0x72, 0xf6, 0x3b, 0x3e, 0x8c, 0xc8, 0xcc, 0x3d,
  0x30, 0x55, 0xc9, 0xbd, 0x32, 0x1e, 0x01, 0x3e, 0xb4, 0x34, 0x95, 0xbe,
  0x63, 0x4a, 0x83, 0xbe, 0xa8, 0x7c, 0x01, 0x3e, 0xe8, 0x1e, 0x19, 0x3d,
  0xad, 0xf8, 0xac, 0x3e, 0x12, 0x80, 0x21, 0xbe, 0x38, 0x39, 0x51, 0x3d,
  0xce, 0xbe, 0x81, 0xbe, 0x4c, 0x8b, 0xa7, 0xbe, 0x7d, 0x13, 0x46, 0xbe,
  0x60, 0x17, 0xc5, 0x3d, 0x89, 0x6b, 0xac, 0x3e, 0xc4, 0x53, 0xb1, 0x3d,
  0xa2, 0x95, 0x21, 0x3e, 0x18, 0x46, 0x75, 0x3d, 0x25, 0x0c, 0x11, 0xbe,
  0x40, 0x76, 0xc8, 0xbc, 0x90, 0xcf, 0xba, 0xbc, 0xfe, 0x68, 0x32, 0x3e,
  0x94, 0x54, 0x88, 0xbe, 0x47, 0x32, 0x66, 0xbe, 0x40, 0xe3, 0x6f, 0xbe,
  0xc3, 0xcf, 0x81, 0x3e, 0xfa, 0xf1, 0x10, 0x3e, 0xb6, 0x4a, 0x18, 0x3e,
  0x2e, 0xd9, 0x3c, 0x3e, 0xb3, 0x3e, 0x9a, 0xbe, 0x99, 0x53, 0xa5, 0xbe,
  0xc0, 0x31, 0xd9, 0x3c, 0xe4, 0x08, 0xae, 0xbd, 0x18, 0x19, 0x54, 0xbe,
  0x05, 0xc2, 0x9d, 0x3e, 0x7e, 0x7f, 0x2e, 0xbe, 0x6f, 0x41, 0xac, 0x3e,
  0x90, 0xd2, 0x7e, 0xbd, 0x00, 0x84, 0x75, 0x3b, 0x48, 0x78, 0x92, 0xbd,
  0xfb, 0xa5, 0x9e, 0x3e, 0x6e, 0xcd, 0x2e, 0xbe, 0xa5, 0x99, 0x84, 0xbe,
  0x19, 0xe8, 0x5d, 0xbe, 0xbd, 0x67, 0x8c, 0x3e, 0x14, 0x6d, 0xd2, 0xbd,
  0x0d, 0x53, 0x4c, 0xbe, 0xf7, 0x95, 0x3f, 0xbe, 0x2a, 0x7a, 0x09, 0x3e,
  0xaa, 0x2c, 0x5a, 0xbe, 0x78, 0xd5, 0xd8, 0x3d, 0x55, 0x98, 0x9c, 0x3e,
  0x38, 0xfd, 0x82, 0xbd, 0x3b, 0x82, 0x95, 0x3e, 0xf5, 0xe5, 0x1d, 0xbe,
  0x25, 0xc3, 0x97, 0x3e, 0xc8, 0x38, 0x17, 0xbd, 0xee, 0xf9, 0x77, 0x3e,
  0xed, 0xf2, 0x19, 0xbe, 0xb0, 0x87, 0xc3, 0x3d, 0x14, 0x79, 0x9f, 0xbd,
  0xf2, 0xeb, 0x1d, 0x3e, 0x28, 0x7c, 0x0c, 0x3d, 0x00, 0xe8, 0xcd, 0xbb,
  0xc0, 0x82, 0x98, 0xbc, 0x77, 0x7f, 0x48, 0xbe, 0x77, 0x3a, 0x9a, 0x3e,
  0x03, 0xb4, 0xa3, 0x3e, 0x5f, 0x60, 0x98, 0x3e, 0xea, 0xcb, 0xdf, 0xbd,
  0x54, 0x5f, 0xd7, 0xbd, 0xb6, 0xf2, 0x5c, 0x3e, 0x48, 0x02, 0x9a, 0xbd,
  0x20, 0xfe, 0x93, 0xbd, 0x13, 0xc3, 0x99, 0x3e, 0x7a, 0x06, 0x02, 0xbe,
  0x58, 0xe1, 0x47, 0xbd, 0x00, 0x2a, 0xe4, 0x3a, 0xfa, 0x59, 0x3d, 0x3e,
  0x10, 0x57, 0x86, 0x3d, 0x6c, 0xd5, 0xf7, 0x3d, 0x94, 0x6d, 0x87, 0xbd,
  0x6f, 0x90, 0x88, 0x3e, 0xb9, 0x32, 0xb1, 0x3e, 0x70, 0xa5, 0xa6, 0xbd,
  0x68, 0x89, 0x92, 0xbe, 0xa2, 0xba, 0x28, 0xbe, 0xa3, 0xbc, 0x71, 0xbe,
  0x6c, 0x4c, 0xd0, 0x3d, 0xd1, 0x05, 0x23, 0xbe, 0x84, 0xc1, 0xba, 0x3d,
  0xb9, 0xe2, 0x92, 0xbe, 0xfa, 0x30, 0x11, 0x3e, 0x7e, 0x9b, 0x65, 0x3e,
  0x2b, 0x5a, 0xa6, 0x3e, 0x50, 0xec, 0x82, 0x3c, 0xb8, 0xec, 0x0c, 0x3e,
  0xa1, 0x60, 0x18, 0xbe, 0xa0, 0x2c, 0x98, 0xbc, 0x1f, 0xda, 0xa0, 0xbe,
  0x06, 0x6a, 0x34, 0x3e, 0xa0, 0x0e, 0xe3, 0x3c, 0x7e, 0x09, 0x3c, 0x3e,
  0xae, 0x2a, 0x2f, 0xbe, 0x8c, 0x22, 0x09, 0x3e, 0x18, 0x08, 0xea, 0xbd,
  0xe8, 0x7c, 0x17, 0x3d, 0x80, 0xd7, 0x7a, 0xbc, 0x65, 0xe2, 0x40, 0xbe,
  0xce, 0x46, 0x81, 0xbe, 0x4e, 0xba, 0xf3, 0xbd, 0x5e, 0x37, 0x6d, 0x3e,
  0xd8, 0x6a, 0xc9, 0x3d, 0xbb, 0x59, 0x3a, 0xbe, 0x6a, 0xaa, 0x21, 0x3e,
  0x6a, 0x4c, 0x7f, 0x3e, 0xc2, 0x1a, 0x31, 0xbe, 0x7e, 0x10, 0xb1, 0xbe,
  0x80, 0x39, 0x93, 0xbc, 0xa9, 0xf8, 0xaa, 0xbe, 0xc9, 0x33, 0x76, 0xbe,
  0xae, 0xaf, 0x43, 0x3e, 0x93, 0x62, 0xb3, 0xbe, 0x46, 0xd5, 0x37, 0x3e,
  0x14, 0x9c, 0xe9, 0x3d, 0x9a, 0xdf, 0xae, 0xbe, 0x80, 0x4d, 0x92, 0xbc,
  0x30, 0xcd, 0xdd, 0xbc, 0x14, 0x8a, 0xe8, 0x3d, 0x38, 0x6f, 0x4e, 0x3d,
  0x80, 0x23, 0x4a, 0xbd, 0xa0, 0xda, 0x8b, 0xbd, 0x89, 0xa9, 0xae, 0x3e,
  0x97, 0x4e, 0x2a, 0xbe, 0x0a, 0x26, 0x59, 0xbe, 0x58, 0x9f, 0x8d, 0xbe,
  0x2a, 0xc9, 0x82, 0xbe, 0x66, 0x03, 0x81, 0xbe, 0xae, 0x4d, 0x87, 0xbe,
  0xe7, 0xc3, 0xb0, 0x3e, 0x68, 0x73, 0xb3, 0xbd, 0x7e, 0x5d, 0x57, 0xbe,
  0x88, 0xfc, 0x0a, 0x3e, 0x11, 0x5a, 0x6c, 0xbe, 0x08, 0xa6, 0x78, 0xbd,
  0xb2, 0xa8, 0x81, 0xbe, 0x40, 0xf0, 0xff, 0x3d, 0x1b, 0x06, 0x77, 0xbe,
  0xd8, 0xec, 0x99, 0xbd, 0xd6, 0x54, 0x76, 0x3e, 0x19, 0xca, 0xa1, 0x3e,
  0x62, 0xa6, 0x2a, 0x3e, 0xe0, 0x8f, 0xd7, 0x3c, 0x8a, 0x2e, 0x31, 0x3e,
  0x5b, 0x7b, 0xaf, 0xbe, 0x70, 0x61, 0xbb, 0xbc, 0x40, 0x2d, 0xd7, 0x3d,
  0x80, 0xb6, 0xb3, 0xbe, 0xa8, 0x35, 0x2b, 0x3d, 0x81, 0xdc, 0x03, 0xbe,
  0xac, 0x3d, 0x8d, 0xbe, 0xcd, 0xae, 0x7e, 0xbe, 0x90, 0x48, 0xa5, 0xbe,
  0x30, 0x0e, 0xbd, 0x3d, 0xa0, 0x32, 0x0b, 0xbc, 0x33, 0x2e, 0x9b, 0x3e,
  0xe0, 0x09, 0x41, 0xbc, 0x6e, 0xd8, 0x4c, 0x3e, 0xb4, 0xdf, 0xd7, 0x3d,
  0x10, 0xae, 0xd0, 0x3c, 0x0f, 0xaf, 0xa9, 0xbe, 0xc5, 0xbf, 0x88, 0x3e,
  0xda, 0x14, 0xa1, 0xbe, 0x50, 0x7f, 0x0d, 0x3e, 0x6f, 0x43, 0x99, 0xbe,
  0x04, 0x9b, 0x0a, 0x3e, 0xc0, 0x85, 0xf0, 0xbd, 0x0c, 0x75, 0x0b, 0x3e,
  0x8d, 0x1e, 0x7a, 0xbe, 0x9c, 0xb4, 0x01, 0x3e, 0xc8, 0xe7, 0x14, 0xbd,
  0x52, 0x3f, 0x57, 0x3e, 0x21, 0xf9, 0xa7, 0xbe, 0x9f, 0x55, 0x8a, 0x3e,
  0x66, 0x09, 0x8e, 0xbe, 0xf0, 0x66, 0x6a, 0xbd, 0xc0, 0x90, 0xbb, 0x3d,
  0x65, 0xe7, 0x10, 0xbe, 0x3d, 0x4b, 0xaf, 0x3e, 0x41, 0x38, 0xb4, 0x3e,
  0xba, 0x8e, 0xf0, 0xbd, 0xda, 0x95, 0x45, 0x3e, 0x9a, 0x67, 0x76, 0xbe,
  0x40, 0xed, 0x28, 0xbc, 0xa0, 0x4a, 0x9f, 0xbd, 0x76, 0x19, 0x34, 0xbe,
  0x66, 0x85, 0x07, 0xbe, 0x56, 0xab, 0x18, 0x3e, 0x40, 0x33, 0x96, 0xbe,
  0x42, 0x7e, 0x74, 0x3e, 0xd8, 0x0a, 0x7e, 0xbe, 0xd0, 0x9b, 0xb3, 0x3c,
  0x74, 0x67, 0x9f, 0xbe, 0x39, 0x22, 0xb4, 0x3e, 0x10, 0xd8, 0xb5, 0x3d,
  0xb8, 0x0c, 0x35, 0xbd, 0xfe, 0x73, 0x3d, 0x3e, 0x42, 0x7e, 0x14, 0xbe,
  0xfe, 0x20, 0x8f, 0xbe, 0xfe, 0xcc, 0x19, 0x3e, 0xc5, 0x70, 0x9c, 0xbe,
  0x0c, 0x61, 0xa8, 0x3d, 0x94, 0x82, 0xbc, 0x3d, 0xa8, 0x83, 0x7a, 0xbd,
  0x87, 0x1a, 0xb1, 0xbe, 0x60, 0xcc, 0x7b, 0x3d, 0xaf, 0xb7, 0x86, 0x3e,
  0x26, 0xfe, 0x7c, 0x3e, 0x14, 0xee, 0x9f, 0xbe, 0x26, 0x46, 0x3f, 0x3e,
  0xce, 0xc8, 0xee, 0xbd, 0xce, 0x7d, 0x3f, 0x3e, 0x98, 0x76, 0x76, 0x3d,
  0x08, 0xc2, 0x07, 0x3e, 0xc5, 0x9f, 0xb3, 0x3e, 0xb6, 0x89, 0x3d, 0x3e,
  0xf4, 0x41, 0x9d, 0xbe, 0x84, 0x49, 0xa1, 0x3d, 0x9f, 0xe7, 0x99, 0x3e,
  0x03, 0x0a, 0x0f, 0xbe, 0x88, 0xbc, 0x89, 0xbe, 0xd9, 0x6f, 0xb4, 0xbe,
  0x06, 0x4d, 0x1a, 0x3e, 0x7b, 0x46, 0x8b, 0x3e, 0xb2, 0xa3, 0x46, 0xbe,
  0xa1, 0xa2, 0x86, 0x3e, 0x25, 0xb9, 0xab, 0x3e, 0x80, 0x32, 0x2a, 0x3d,
  0xd0, 0xd4, 0xdd, 0xbc, 0x78, 0x8d, 0x50, 0xbd, 0x89, 0x8e, 0x9a, 0x3e,
  0xf6, 0x0c, 0x00, 0x3e, 0xa0, 0xbf, 0x76, 0xbc, 0x44, 0x05, 0x0e, 0xbe,
  0x38, 0x7a, 0x16, 0xbd, 0xd0, 0xde, 0xc0, 0xbc, 0xf8, 0xc1, 0x44, 0xbd,
  0x4e, 0x4f, 0x20, 0x3e, 0x82, 0xbb, 0x20, 0x3e, 0xb8, 0xc0, 0x5b, 0x3d,
  0x62, 0x4f, 0x7a, 0xbe, 0x80, 0x34, 0xe3, 0x3c, 0x0a, 0x1b, 0x7b, 0x3e,
  0xf2, 0xe2, 0x83, 0xbe, 0x07, 0xe8, 0x96, 0x3e, 0x30, 0x70, 0xb9, 0xbd,
  0xf3, 0x3c, 0x8e, 0x3e, 0xb0, 0xd1, 0xce, 0xbd, 0x18, 0xfc, 0x3e, 0x3d,
  0x38, 0x68, 0x28, 0xbd, 0x61, 0x01, 0xa9, 0x3e, 0xef, 0x7b, 0x90, 0x3e,
  0xc1, 0x5a, 0x80, 0xbe, 0xdb, 0x50, 0x6b, 0xbe, 0x7b, 0x1b, 0x9b, 0xbe,
  0xe3, 0xe7, 0x8d, 0xbe, 0x58, 0x01, 0xa4, 0x3d, 0xec, 0xa0, 0xa6, 0xbd,
  0x84, 0x77, 0x9e, 0x3d, 0xe0, 0x91, 0x0d, 0x3d, 0x6d, 0x6a, 0x85, 0x3e,
  0x36, 0xe5, 0x89, 0xbe, 0xec, 0xbc, 0x93, 0xbe, 0x00, 0xd4, 0xb2, 0x3d,
  0x8d, 0xf9, 0x8c, 0x3e, 0xb8, 0xf8, 0x22, 0x3d, 0xda, 0x0d, 0x47, 0x3e,
  0x01, 0x0a, 0x94, 0x3e, 0xfe, 0xe9, 0x6f, 0xbe, 0x00, 0x60, 0x94, 0xbc,
  0x98, 0x57, 0xdf, 0x3d, 0xde, 0xca, 0x2a, 0x3e, 0x50, 0xf9, 0xb9, 0xbc,
  0x03, 0x87, 0x18, 0xbe, 0xd4, 0x5e, 0x9e, 0xbe, 0xd0, 0x37, 0x71, 0x3d,
  0xbe, 0xcf, 0x01, 0xbe, 0x3a, 0x72, 0x38, 0x3e, 0xbc, 0xe0, 0x77, 0xbe,
  0xf0, 0xe1, 0xe8, 0xbd, 0xb2, 0x7f, 0x90, 0xbe, 0x10, 0xb0, 0xdc, 0xbd,
  0x32, 0xe5, 0x88, 0xbe, 0xd0, 0x79, 0x78, 0x3d, 0x80, 0x32, 0xe1, 0xbb,
  0x27, 0x08, 0x89, 0xbe, 0x80, 0x37, 0x75, 0xbc, 0x00, 0x25, 0x6b, 0x3c,
  0xc5, 0x22, 0x81, 0x3e, 0x1e, 0x6f, 0x18, 0x3e, 0x84, 0x09, 0x9f, 0xbe,
  0x2c, 0xbc, 0x9d, 0x3d, 0x26, 0x07, 0x9c, 0xbe, 0x77, 0x2f, 0x8d, 0xbe,
  0x22, 0x51, 0x2e, 0xbe, 0x85, 0x8f, 0x81, 0x3e, 0x81, 0x07, 0xac, 0x3e,
  0x92, 0x63, 0x13, 0xbe, 0x10, 0x66, 0xa6, 0xbc, 0xd6, 0x7e, 0x0b, 0x3e,
  0xbc, 0x86, 0xd4, 0x3d, 0xd4, 0x8a, 0xb4, 0xbe, 0x54, 0x82, 0x91, 0xbe,
  0x34, 0xf7, 0xc9, 0x3d, 0x10, 0xf0, 0xb0, 0xbd, 0xfc, 0xf8, 0xa5, 0xbd,
  0x9e, 0x8e, 0x82, 0xbe, 0x28, 0xfb, 0xa5, 0x3d, 0x18, 0xe3, 0x71, 0x3d,
  0x35, 0xe5, 0xae, 0x3e, 0xe0, 0x5a, 0x69, 0xbe, 0x2f, 0xc4, 0x9f, 0x3e,
  0x7d, 0x87, 0x11, 0xbe, 0x00, 0xe0, 0xe3, 0xba, 0xf3, 0xba, 0xa0, 0x3e,
  0x9a, 0x39, 0x4b, 0x3e, 0x48, 0xd3, 0x8d, 0xbe, 0x74, 0xe5, 0xc5, 0xbd,
  0x4e, 0xf5, 0xd6, 0xbd, 0x84, 0x73, 0xaa, 0x3d, 0x3a, 0xa6, 0x2a, 0x3e,
  0x10, 0x16, 0x84, 0x3d, 0x7e, 0x2e, 0x0b, 0x3e, 0x38, 0x00, 0x98, 0xbe,
  0x72, 0x6d, 0x39, 0x3e, 0x16, 0x0a, 0x44, 0x3e, 0x11, 0x3b, 0xb4, 0x3e,
  0x8c, 0xb4, 0xea, 0x3d, 0x70, 0x8b, 0xea, 0x3d, 0x88, 0x82, 0x82, 0xbd,
  0x4c, 0x7a, 0xb3, 0x3d, 0x2e, 0xc4, 0x36, 0x3e, 0xb9, 0x45, 0x86, 0x3e,
  0x88, 0x9d, 0x2c, 0xbe, 0x7f, 0x81, 0xab, 0xbe, 0xf0, 0xd8, 0x7e, 0x3d,
  0x90, 0x1c, 0xc0, 0xbd, 0x78, 0xa5, 0x3b, 0xbd, 0x44, 0x5c, 0x8f, 0xbe,
  0x64, 0x14, 0xb2, 0xbe, 0xd5, 0x6a, 0x84, 0xbe, 0xe8, 0x56, 0xce, 0x3d,
  0x28, 0x35, 0x00, 0xbd, 0x20, 0x5f, 0x37, 0x3d, 0x18, 0x3f, 0x69, 0x3d,
  0x00, 0xd6, 0x0e, 0xba, 0xbf, 0xe7, 0x82, 0xbe, 0x10, 0xe9, 0x79, 0xbd,
  0x76, 0xf1, 0x4d, 0xbe, 0x7d, 0x94, 0x96, 0xbe, 0x58, 0xa4, 0x8e, 0xbe,
  0xd9, 0x53, 0xaa, 0x3e, 0xce, 0x8f, 0x70, 0xbe, 0xe8, 0xe3, 0x7d, 0xbe,
  0x13, 0x9c, 0x9d, 0x3e, 0x78, 0x48, 0x08, 0x3d, 0x32, 0x1a, 0x30, 0x3e,
  0x4c, 0x4a, 0x66, 0xbe, 0xd0, 0x47, 0xd7, 0xbd, 0x0c, 0xab, 0xc0, 0xbd,
  0x1e, 0x13, 0x28, 0xbe, 0xfe, 0x5a, 0x1c, 0xbe, 0xd6, 0x35, 0x1e, 0x3e,
  0x53, 0x1c, 0xb0, 0x3e, 0x80, 0x6e, 0x7f, 0xbd, 0x83, 0x75, 0x5b, 0xbe,
  0x17, 0xd3, 0x87, 0x3e, 0x11, 0x14, 0x95, 0xbe, 0x70, 0xaf, 0xfa, 0x3c,
  0xec, 0xd9, 0xd2, 0xbd, 0x8e, 0x5b, 0x16, 0x3e, 0x44, 0x0c, 0xaf, 0x3d,
  0x54, 0x04, 0xba, 0xbd, 0x0a, 0xf0, 0x3f, 0x3e, 0xc8, 0xc2, 0x33, 0x3d,
  0x69, 0x2e, 0xac, 0x3e, 0xc9, 0xb9, 0x88, 0x3e, 0xfb, 0x68, 0x14, 0xbe,
  0x2c, 0x5e, 0x83, 0x3d, 0x14, 0x18, 0xa2, 0x3d, 0xc3, 0xb4, 0xb1, 0xbe,
  0x63, 0x25, 0x8d, 0x3e, 0x78, 0x0e, 0x94, 0xbd, 0x9e, 0x5a, 0x5b, 0xbe,
  0x04, 0x07, 0xa2, 0xbe, 0x85, 0x93, 0x4a, 0xbe, 0x96, 0x34, 0x42, 0x3e,
  0xad, 0xd0, 0xa4, 0x3e, 0x9c, 0x2e, 0x12, 0x3e, 0xa5, 0x40, 0xaf, 0xbe,
  0xc1, 0x5a, 0x8c, 0x3e, 0x86, 0xdd, 0x52, 0x3e, 0x74, 0xcc, 0x8d, 0xbe,
  0x85, 0x85, 0xaf, 0xbe, 0x5b, 0x3b, 0x84, 0x3e, 0xd8, 0x2a, 0xd3, 0xbd,
  0x20, 0x42, 0x33, 0xbe, 0xf8, 0x54, 0x49, 0xbe, 0xb2, 0xe9, 0x18, 0x3e,
  0x71, 0xe9, 0x8d, 0x3e, 0x82, 0x79, 0x8c, 0xbe, 0x48, 0x35, 0x95, 0xbd,
  0xa0, 0xe4, 0x91, 0x3d, 0xa9, 0xf0, 0x8d, 0x3e, 0xd8, 0xbd, 0x0d, 0x3e,
  0xae, 0x60, 0x8e, 0xbe, 0x00, 0x74, 0xa1, 0x3a, 0xee, 0x7c, 0x11, 0x3e,
  0xa0, 0x81, 0xb4, 0xbc, 0xea, 0xd1, 0x04, 0xbe, 0x32, 0x43, 0x3f, 0x3e,
  0x8e, 0xcf, 0x76, 0x3e, 0xf6, 0x0e, 0xaa, 0xbe, 0x06, 0x70, 0x36, 0x3e,
  0x05, 0xd2, 0xa7, 0x3e, 0xe2, 0xdf, 0x7c, 0x3e, 0x3c, 0x68, 0x63, 0xbe,
  0xa8, 0xc0, 0x4d, 0x3d, 0xd6, 0x96, 0x82, 0xbe, 0xf7, 0x55, 0x83, 0xbe,
  0x12, 0x55, 0x5a, 0x3e, 0x92, 0x46, 0x11, 0x3e, 0x64, 0xfd, 0x92, 0xbd,
  0x84, 0xfb, 0xbd, 0xbd, 0x82, 0xf4, 0x5f, 0x3e, 0x6b, 0x00, 0x1c, 0xbe,
  0x56, 0x39, 0x29, 0x3e, 0x7b, 0xe0, 0xa3, 0x3e, 0xe7, 0x26, 0xb3, 0xbe,
  0x10, 0x19, 0xfe, 0xbc, 0xfb, 0x19, 0x92, 0xbe, 0x59, 0xb3, 0x4d, 0xbe,
  0x33, 0xf9, 0x91, 0xbe, 0x50, 0xb4, 0xae, 0x3c, 0xd4, 0x8d, 0xb0, 0x3d,
  0x60, 0xac, 0x47, 0x3c, 0x5c, 0x03, 0x9b, 0xbd, 0x0c, 0x27, 0xe6, 0x3d,
  0xd8, 0x92, 0x75, 0xbd, 0x00, 0x82, 0xdc, 0xba, 0xb6, 0x42, 0x70, 0xbe,
  0x86, 0xdf, 0xd9, 0xbd, 0x7a, 0xdd, 0xab, 0xbe, 0x4c, 0x71, 0xa5, 0xbe,
  0x82, 0x2a, 0x4f, 0x3e, 0xf9, 0x15, 0x2f, 0xbe, 0x12, 0x7d, 0x7d, 0x3e,
  0xde, 0x9c, 0x06, 0x3e, 0xd0, 0xd5, 0x84, 0x3c, 0x9d, 0x14, 0x18, 0xbe,
  0x72, 0xae, 0x62, 0x3e, 0x80, 0xd2, 0x24, 0xbb, 0xa4, 0xbc, 0x92, 0xbe,
  0x60, 0x7c, 0x19, 0xbe, 0x4a, 0xb0, 0x17, 0x3e, 0x08, 0x9f, 0x5b, 0xbe,
  0x68, 0xd6, 0x69, 0x3d, 0x3f, 0x38, 0x51, 0xbe, 0x13, 0x6f, 0xb2, 0x3e,
  0xf6, 0x11, 0x57, 0x3e, 0x73, 0xb4, 0x9f, 0x3e, 0xf8, 0x51, 0xee, 0xbd,
  0xe0, 0x0b, 0xdb, 0x3c, 0x1a, 0x4a, 0x77, 0x3e, 0x40, 0x44, 0x8e, 0xbc,
  0xac, 0xdc, 0x8b, 0xbe, 0xd0, 0x41, 0x96, 0x3d, 0x93, 0x48, 0x62, 0xbe,
  0x2c, 0x1c, 0xe3, 0xbd, 0x78, 0x59, 0x99, 0x3d, 0x86, 0x68, 0x2c, 0xbe,
  0xa9, 0xf0, 0x9a, 0x3e, 0xba, 0x0a, 0x0d, 0xbe, 0x9f, 0x1d, 0x9b, 0x3e,
  0x0c, 0xf1, 0x89, 0x3d, 0x00, 0xe0, 0x16, 0xb9, 0xaa, 0x66, 0x34, 0x3e,
  0x4e, 0xfd, 0x05, 0x3e, 0x41, 0x09, 0x85, 0x3e, 0x0f, 0x8e, 0x64, 0xbe,
  0x88, 0x93, 0xc5, 0xbd, 0x1a, 0x13, 0x96, 0xbe, 0x64, 0xd4, 0xb2, 0xbe,
  0x0c, 0xda, 0x90, 0xbe, 0x06, 0x60, 0x38, 0x3e, 0x00, 0x56, 0xcf, 0xba,
  0x72, 0x91, 0x30, 0xbe, 0x40, 0xdb, 0x43, 0xbd, 0xac, 0x50, 0x82, 0x3d,
  0x13, 0x8d, 0xa7, 0xbe, 0xaf, 0x68, 0xa0, 0x3e, 0x3e, 0x78, 0x65, 0x3e,
  0x70, 0x99, 0x79, 0xbe, 0x40, 0x73, 0x62, 0x3d, 0xd0, 0xf5, 0x79, 0x3d,
  0x50, 0x20, 0xea, 0xbc, 0x0c, 0xfb, 0x74, 0xbe, 0xaa, 0xfc, 0x62, 0xbe,
  0xc0, 0xa1, 0xc2, 0xbc, 0x88, 0xb8, 0x0c, 0x3d, 0x78, 0x7a, 0xbb, 0x3d,
  0xc6, 0xc1, 0x23, 0xbe, 0xc0, 0x99, 0x9b, 0xbd, 0x98, 0xad, 0x0b, 0x3d,
  0xad, 0x2b, 0x88, 0x3e, 0x48, 0x69, 0x3e, 0xbd, 0x36, 0xc8, 0x7f, 0x3e,
  0x1f, 0xd9, 0x79, 0xbe, 0x54, 0x4f, 0xc5, 0x3d, 0x2f, 0xcd, 0x9e, 0x3e,
  0x01, 0x4b, 0x9d, 0x3e, 0x60, 0x7b, 0x92, 0xbd, 0xfe, 0x61, 0x1d, 0xbe,
  0x2c, 0x5a, 0x00, 0x3e, 0xae, 0xf9, 0x70, 0x3e, 0x2c, 0xf5, 0xe1, 0x3d,
  0x40, 0x3c, 0xd3, 0xbd, 0xc4, 0xc4, 0xed, 0xbd, 0x86, 0x2a, 0xad, 0xbe,
  0x44, 0x19, 0x8a, 0xbd, 0xc8, 0x7c, 0x1c, 0xbd, 0x81, 0x31, 0x9a, 0x3e,
  0xa2, 0x75, 0x7a, 0x3e, 0x0b, 0xda, 0xa9, 0x3e, 0x40, 0xd4, 0xa7, 0x3d,
  0x72, 0xad, 0x0e, 0xbe, 0x18, 0xc1, 0x4d, 0x3d, 0x26, 0x62, 0x0c, 0x3e,
  0x5b, 0x58, 0x93, 0x3e, 0x5f, 0xeb, 0xa7, 0x3e, 0x28, 0x5f, 0x33, 0xbd,
  0xf2, 0xc4, 0x3e, 0x3e, 0x00, 0x52, 0x37, 0x3c, 0x4e, 0xeb, 0xaa, 0xbe,
  0x08, 0x70, 0x1d, 0x3d, 0xb0, 0x2c, 0xe7, 0x3d, 0xe4, 0xca, 0xb2, 0x3d,
  0xe4, 0x3e, 0xa3, 0xbd, 0xd8, 0x3d, 0x3d, 0x3d, 0x14, 0x9f, 0x8a, 0xbd,
  0x07, 0x99, 0xa7, 0xbe, 0xc1, 0x69, 0x5b, 0xbe, 0xf0, 0xb3, 0xe8, 0x3d,
  0xe4, 0x81, 0xdd, 0x3d, 0x52, 0x7e, 0x38, 0x3e, 0x27, 0x07, 0x95, 0x3e,
  0xcb, 0xff, 0x4f, 0xbe, 0x2e, 0xfa, 0x1c, 0xbe, 0x65, 0x9c, 0xb0, 0xbe,
  0xde, 0x2f, 0x65, 0x3e, 0x80, 0xd2, 0xf0, 0x3b, 0xac, 0x01, 0x00, 0x3e,
  0x62, 0xbe, 0x71, 0x3e, 0xa2, 0xbc, 0x69, 0x3e, 0x8a, 0x65, 0x88, 0xbe,
  0x64, 0x28, 0x29, 0xbe, 0xa3, 0x18, 0x24, 0xbe, 0x7e, 0xff, 0xff, 0xff,
  0x10, 0x00, 0x00, 0x00, 0x03, 0x00, 0x00, 0x00, 0x14, 0x00, 0x00, 0x00,
  0x20, 0x00, 0x00, 0x00, 0x02, 0x00, 0x00, 0x00, 0x01, 0x00, 0x00, 0x00,
  0x16, 0x00, 0x00, 0x00, 0x08, 0x00, 0x00, 0x00, 0x49, 0x64, 0x65, 0x6e,
  0x74, 0x69, 0x74, 0x79, 0x00, 0x00, 0x00, 0x00, 0x08, 0xff, 0xff, 0xff,
  0xb2, 0xff, 0xff, 0xff, 0x10, 0x00, 0x00, 0x00, 0x02, 0x00, 0x00, 0x00,
  0x14, 0x00, 0x00, 0x00, 0x38, 0x00, 0x00, 0x00, 0x02, 0x00, 0x00, 0x00,
  0x01, 0x00, 0x00, 0x00, 0x18, 0x00, 0x00, 0x00, 0x1d, 0x00, 0x00, 0x00,
  0x73, 0x65, 0x71, 0x75, 0x65, 0x6e, 0x74, 0x69, 0x61, 0x6c, 0x5f, 0x31,
  0x32, 0x38, 0x2f, 0x64, 0x65, 0x6e, 0x73, 0x65, 0x5f, 0x33, 0x32, 0x30,
  0x2f, 0x52, 0x65, 0x6c, 0x75, 0x00, 0x00, 0x00, 0x04, 0x00, 0x06, 0x00,
  0x04, 0x00, 0x00, 0x00, 0x00, 0x00, 0x0e, 0x00, 0x14, 0x00, 0x04, 0x00,
  0x00, 0x00, 0x08, 0x00, 0x0c, 0x00, 0x10, 0x00, 0x0e, 0x00, 0x00, 0x00,
  0x10, 0x00, 0x00, 0x00, 0x01, 0x00, 0x00, 0x00, 0x14, 0x00, 0x00, 0x00,
  0x2c, 0x00, 0x00, 0x00, 0x02, 0x00, 0x00, 0x00, 0x01, 0x00, 0x00, 0x00,
  0x18, 0x00, 0x00, 0x00, 0x0f, 0x00, 0x00, 0x00, 0x64, 0x65, 0x6e, 0x73,
  0x65, 0x5f, 0x33, 0x32, 0x30, 0x5f, 0x69, 0x6e, 0x70, 0x75, 0x74, 0x00,
  0x08, 0x00, 0x0c, 0x00, 0x04, 0x00, 0x08, 0x00, 0x08, 0x00, 0x00, 0x00,
  0x10, 0x00, 0x00, 0x00, 0x04, 0x00, 0x00, 0x00, 0x01, 0x00, 0x00, 0x00,
  0x00, 0x00, 0x7f, 0x43, 0x01, 0x00, 0x00, 0x00, 0x00, 0x00, 0x00, 0x00,
  0x02, 0x00, 0x00, 0x00, 0x58, 0x00, 0x00, 0x00, 0x04, 0x00, 0x00, 0x00,
  0xc4, 0xff, 0xff, 0xff, 0x00, 0x00, 0x00, 0x08, 0x10, 0x00, 0x00, 0x00,
  0x1c, 0x00, 0x00, 0x00, 0x28, 0x00, 0x00, 0x00, 0x1c, 0x00, 0x00, 0x00,
  0x03, 0x00, 0x00, 0x00, 0x04, 0x00, 0x00, 0x00, 0x05, 0x00, 0x00, 0x00,
  0x06, 0x00, 0x00, 0x00, 0x01, 0x00, 0x00, 0x00, 0x00, 0x00, 0x00, 0x00,
  0x00, 0x00, 0x00, 0x00, 0x04, 0x00, 0x04, 0x00, 0x04, 0x00, 0x00, 0x00,
  0x14, 0x00, 0x18, 0x00, 0x00, 0x00, 0x08, 0x00, 0x0c, 0x00, 0x07, 0x00,
  0x10, 0x00, 0x00, 0x00, 0x00, 0x00, 0x14, 0x00, 0x14, 0x00, 0x00, 0x00,
  0x00, 0x00, 0x00, 0x08, 0x10, 0x00, 0x00, 0x00, 0x1c, 0x00, 0x00, 0x00,
  0x24, 0x00, 0x00, 0x00, 0x1c, 0x00, 0x00, 0x00, 0x03, 0x00, 0x00, 0x00,
  0x01, 0x00, 0x00, 0x00, 0x02, 0x00, 0x00, 0x00, 0x03, 0x00, 0x00, 0x00,
  0x01, 0x00, 0x00, 0x00, 0x04, 0x00, 0x00, 0x00, 0x00, 0x00, 0x00, 0x00,
  0xe2, 0xff, 0xff, 0xff, 0x00, 0x00, 0x00, 0x01, 0x01, 0x00, 0x00, 0x00,
  0x0c, 0x00, 0x00, 0x00, 0x00, 0x00, 0x06, 0x00, 0x06, 0x00, 0x05, 0x00,
  0x06, 0x00, 0x00, 0x00, 0x00, 0x09, 0x06, 0x00, 0x08, 0x00, 0x07, 0x00,
  0x06, 0x00, 0x00, 0x00, 0x00, 0x00, 0x00, 0x09
};
unsigned int ANN_IV_22_tflite_len = 5720;
