unsigned char ANN_IV_12_tflite[] = {
  0x1c, 0x00, 0x00, 0x00, 0x54, 0x46, 0x4c, 0x33, 0x00, 0x00, 0x12, 0x00,
  0x1c, 0x00, 0x04, 0x00, 0x08, 0x00, 0x0c, 0x00, 0x10, 0x00, 0x14, 0x00,
  0x00, 0x00, 0x18, 0x00, 0x12, 0x00, 0x00, 0x00, 0x03, 0x00, 0x00, 0x00,
  0x20, 0x0a, 0x00, 0x00, 0x10, 0x00, 0x00, 0x00, 0x1c, 0x00, 0x00, 0x00,
  0x2c, 0x00, 0x00, 0x00, 0x0c, 0x00, 0x00, 0x00, 0x01, 0x00, 0x00, 0x00,
  0xcc, 0x00, 0x00, 0x00, 0x01, 0x00, 0x00, 0x00, 0x94, 0x00, 0x00, 0x00,
  0x0f, 0x00, 0x00, 0x00, 0x54, 0x4f, 0x43, 0x4f, 0x20, 0x43, 0x6f, 0x6e,
  0x76, 0x65, 0x72, 0x74, 0x65, 0x64, 0x2e, 0x00, 0x09, 0x00, 0x00, 0x00,
  0x68, 0x00, 0x00, 0x00, 0x60, 0x00, 0x00, 0x00, 0x58, 0x00, 0x00, 0x00,
  0x50, 0x00, 0x00, 0x00, 0x44, 0x00, 0x00, 0x00, 0x30, 0x00, 0x00, 0x00,
  0x1c, 0x00, 0x00, 0x00, 0x10, 0x00, 0x00, 0x00, 0x04, 0x00, 0x00, 0x00,
  0xd6, 0xff, 0xff, 0xff, 0x44, 0x00, 0x00, 0x00, 0xde, 0xff, 0xff, 0xff,
  0x04, 0x01, 0x00, 0x00, 0xf6, 0xff, 0xff, 0xff, 0x90, 0x01, 0x00, 0x00,
  0x00, 0x00, 0x06, 0x00, 0x0a, 0x00, 0x04, 0x00, 0x06, 0x00, 0x00, 0x00,
  0x6c, 0x04, 0x00, 0x00, 0x00, 0x00, 0x06, 0x00, 0x08, 0x00, 0x04, 0x00,
  0x06, 0x00, 0x00, 0x00, 0xf8, 0x04, 0x00, 0x00, 0xd0, 0xf6, 0xff, 0xff,
  0xd4, 0xf6, 0xff, 0xff, 0xd8, 0xf6, 0xff, 0xff, 0xdc, 0xf6, 0xff, 0xff,
  0x05, 0x00, 0x00, 0x00, 0x31, 0x2e, 0x35, 0x2e, 0x30, 0x00, 0x00, 0x00,
  0x50, 0xf7, 0xff, 0xff, 0x08, 0x00, 0x00, 0x00, 0x08, 0x00, 0x00, 0x00,
  0x13, 0x00, 0x00, 0x00, 0x6d, 0x69, 0x6e, 0x5f, 0x72, 0x75, 0x6e, 0x74,
  0x69, 0x6d, 0x65, 0x5f, 0x76, 0x65, 0x72, 0x73, 0x69, 0x6f, 0x6e, 0x00,
  0x0c, 0x00, 0x14, 0x00, 0x04, 0x00, 0x08, 0x00, 0x0c, 0x00, 0x10, 0x00,
  0x0c, 0x00, 0x00, 0x00, 0x20, 0x00, 0x00, 0x00, 0x14, 0x00, 0x00, 0x00,
  0x08, 0x00, 0x00, 0x00, 0x94, 0x08, 0x00, 0x00, 0x01, 0x00, 0x00, 0x00,
  0x00, 0x00, 0x00, 0x00, 0x01, 0x00, 0x00, 0x00, 0x01, 0x00, 0x00, 0x00,
  0x07, 0x00, 0x00, 0x00, 0x94, 0x07, 0x00, 0x00, 0x20, 0x08, 0x00, 0x00,
  0x18, 0x04, 0x00, 0x00, 0x90, 0x03, 0x00, 0x00, 0xb8, 0x07, 0x00, 0x00,
  0x84, 0x00, 0x00, 0x00, 0x04, 0x00, 0x00, 0x00, 0x06, 0xf8, 0xff, 0xff,
  0x10, 0x00, 0x00, 0x00, 0x07, 0x00, 0x00, 0x00, 0x10, 0x00, 0x00, 0x00,
  0x34, 0x00, 0x00, 0x00, 0x01, 0x00, 0x00, 0x00, 0x0c, 0x00, 0x00, 0x00,
  0x23, 0x00, 0x00, 0x00, 0x73, 0x65, 0x71, 0x75, 0x65, 0x6e, 0x74, 0x69,
  0x61, 0x6c, 0x5f, 0x36, 0x38, 0x2f, 0x64, 0x65, 0x6e, 0x73, 0x65, 0x5f,
  0x31, 0x37, 0x31, 0x2f, 0x4d, 0x61, 0x74, 0x4d, 0x75, 0x6c, 0x5f, 0x62,
  0x69, 0x61, 0x73, 0x00, 0xa4, 0xf7, 0xff, 0xff, 0x30, 0x00, 0x00, 0x00,
  0x00, 0x00, 0x00, 0x00, 0x00, 0x00, 0x00, 0x00, 0x00, 0x00, 0x00, 0x00,
  0x00, 0x00, 0x00, 0x00, 0x00, 0x00, 0x00, 0x00, 0x00, 0x00, 0x00, 0x00,
  0x00, 0x00, 0x00, 0x00, 0x00, 0x00, 0x00, 0x00, 0x00, 0x00, 0x00, 0x00,
  0x00, 0x00, 0x00, 0x00, 0x00, 0x00, 0x00, 0x00, 0x00, 0x00, 0x00, 0x00,
  0x82, 0xf8, 0xff, 0xff, 0x10, 0x00, 0x00, 0x00, 0x06, 0x00, 0x00, 0x00,
  0x14, 0x00, 0x00, 0x00, 0x4c, 0x00, 0x00, 0x00, 0x02, 0x00, 0x00, 0x00,
  0x0c, 0x00, 0x00, 0x00, 0x0e, 0x00, 0x00, 0x00, 0x37, 0x00, 0x00, 0x00,
  0x73, 0x65, 0x71, 0x75, 0x65, 0x6e, 0x74, 0x69, 0x61, 0x6c, 0x5f, 0x36,
  0x38, 0x2f, 0x64, 0x65, 0x6e, 0x73, 0x65, 0x5f, 0x31, 0x37, 0x31, 0x2f,
  0x4d, 0x61, 0x74, 0x4d, 0x75, 0x6c, 0x2f, 0x52, 0x65, 0x61, 0x64, 0x56,
  0x61, 0x72, 0x69, 0x61, 0x62, 0x6c, 0x65, 0x4f, 0x70, 0x2f, 0x74, 0x72,
  0x61, 0x6e, 0x73, 0x70, 0x6f, 0x73, 0x65, 0x00, 0x38, 0xf8, 0xff, 0xff,
  0xa0, 0x02, 0x00, 0x00, 0x6c, 0x13, 0x3b, 0x3e, 0xd0, 0x9f, 0x12, 0x3d,
  0xae, 0xdd, 0x36, 0xbe, 0x40, 0xa4, 0x49, 0xbc, 0xcc, 0x31, 0x81, 0xbe,
  0x28, 0x56, 0xe0, 0x3e, 0x8c, 0x7e, 0xcc, 0x3e, 0xc6, 0x61, 0xed, 0x3e,
  0xb0, 0x54, 0x59, 0x3d, 0x7f, 0x09, 0xc4, 0xbe, 0x20, 0x8a, 0x7b, 0x3c,
  0x5b, 0xdf, 0xd3, 0xbe, 0xff, 0xfb, 0xe0, 0xbe, 0x3e, 0xb4, 0x44, 0xbe,
  0xa0, 0x7e, 0x06, 0x3d, 0x98, 0xc1, 0xf6, 0x3d, 0xb0, 0x03, 0x09, 0x3e,
  0x44, 0x30, 0x4f, 0x3e, 0x7a, 0x7b, 0xf2, 0x3e, 0x5c, 0x54, 0xb3, 0xbd,
  0x2e, 0xae, 0xc2, 0x3e, 0x70, 0x33, 0xde, 0x3e, 0xa0, 0x32, 0x3a, 0x3c,
  0xc0, 0x41, 0x98, 0x3e, 0x38, 0x96, 0xcb, 0x3d, 0x6e, 0x42, 0x8a, 0xbe,
  0xff, 0x95, 0xa3, 0xbe, 0x98, 0x43, 0x70, 0xbd, 0xb0, 0xb4, 0x56, 0xbe,
  0x28, 0xf0, 0x41, 0xbe, 0xe0, 0x39, 0xaf, 0x3c, 0xde, 0xde, 0xa0, 0x3e,
  0xe0, 0x1c, 0x08, 0x3e, 0x9c, 0xdb, 0x90, 0x3e, 0x20, 0x17, 0xe8, 0x3c,
  0xe0, 0xd9, 0x35, 0xbe, 0x5c, 0x10, 0x11, 0xbe, 0x28, 0x98, 0xc3, 0x3e,
  0xe0, 0x6e, 0x48, 0xbc, 0x20, 0xbb, 0x59, 0xbd, 0xa4, 0x41, 0xdb, 0x3e,
  0x47, 0x72, 0xda, 0xbe, 0x20, 0x1a, 0xea, 0xbd, 0x49, 0x19, 0xe3, 0xbe,
  0xf8, 0xd6, 0x13, 0xbd, 0x14, 0xb0, 0xd8, 0x3e, 0x52, 0x0c, 0xa5, 0x3e,
  0x9e, 0x45, 0xe0, 0xbe, 0x7c, 0x90, 0xc6, 0x3e, 0x6c, 0xf9, 0x91, 0x3e,
  0x82, 0xa7, 0xe9, 0xbe, 0x70, 0x6f, 0xc8, 0x3e, 0x8c, 0x01, 0x7f, 0x3e,
  0xf1, 0x57, 0xf4, 0xbe, 0xa4, 0x57, 0xa0, 0x3e, 0xf0, 0x86, 0x36, 0xbe,
  0x62, 0x0a, 0x1b, 0xbe, 0xee, 0x67, 0x84, 0x3e, 0x7c, 0x97, 0xb0, 0x3e,
  0xce, 0x4a, 0x87, 0x3e, 0x40, 0x9b, 0xba, 0xbe, 0xa0, 0xd0, 0x0f, 0xbc,
  0xdc, 0x5e, 0x0a, 0x3e, 0x80, 0x97, 0xab, 0x3d, 0xb4, 0xa9, 0x08, 0x3e,
  0x3b, 0xcb, 0x91, 0xbe, 0x90, 0xc1, 0xb3, 0x3e, 0x37, 0x03, 0x7c, 0xbe,
  0x26, 0x13, 0xdf, 0x3e, 0x84, 0x28, 0xaa, 0xbe, 0x28, 0x1f, 0xd4, 0xbe,
  0x80, 0x47, 0xe9, 0xbb, 0x7c, 0x4d, 0xa9, 0xbd, 0x50, 0x3e, 0xff, 0x3d,
  0x00, 0xdf, 0xd4, 0x3a, 0xf8, 0xaf, 0xae, 0xbe, 0x40, 0x65, 0x5d, 0xbc,
  0xc4, 0xfa, 0x17, 0x3e, 0xd0, 0x9d, 0x43, 0xbd, 0x58, 0x75, 0xd6, 0x3d,
  0x94, 0xb7, 0xc7, 0x3e, 0x74, 0xac, 0xc8, 0x3e, 0x88, 0x0b, 0xef, 0xbe,
  0x10, 0x5b, 0x90, 0x3d, 0x64, 0x66, 0x18, 0x3e, 0x40, 0xd1, 0x06, 0x3c,
  0xc0, 0xcf, 0x91, 0xbe, 0x2b, 0x95, 0xc3, 0xbe, 0xce, 0xda, 0xed, 0xbe,
  0xc5, 0x8e, 0xd1, 0xbe, 0xec, 0x39, 0x46, 0xbe, 0x00, 0x65, 0x93, 0x3e,
  0x38, 0x1d, 0x3a, 0x3e, 0xf0, 0x0e, 0x95, 0x3e, 0xbe, 0x31, 0xb0, 0xbe,
  0x7f, 0x4b, 0x73, 0xbe, 0x58, 0x81, 0xe5, 0x3e, 0x70, 0x8f, 0xe7, 0x3d,
  0x4f, 0x5b, 0xe2, 0xbe, 0x28, 0x8e, 0xab, 0x3e, 0x84, 0xd5, 0x90, 0xbe,
  0x70, 0x48, 0xd9, 0x3d, 0x76, 0x70, 0xdf, 0xbe, 0x80, 0xcc, 0x4a, 0x3e,
  0xd2, 0x63, 0xdb, 0xbe, 0x0c, 0xee, 0x6d, 0xbe, 0x60, 0x87, 0x72, 0x3e,
  0xf8, 0x3a, 0x36, 0xbd, 0x8a, 0xee, 0x91, 0xbe, 0x60, 0xf3, 0x1c, 0x3c,
  0xf8, 0xca, 0x71, 0xbd, 0xb0, 0x2c, 0xd1, 0xbc, 0x11, 0x1a, 0xd0, 0xbe,
  0x16, 0xbc, 0x98, 0xbe, 0x20, 0xb7, 0x5c, 0xbe, 0x72, 0xa9, 0xdc, 0xbe,
  0xe0, 0x0b, 0x50, 0x3d, 0x48, 0x69, 0x42, 0xbd, 0xb2, 0x64, 0x47, 0xbe,
  0x3c, 0x15, 0x85, 0xbd, 0x10, 0xfd, 0xa1, 0x3d, 0x00, 0xc1, 0x3e, 0xbe,
  0x45, 0x5e, 0xb7, 0xbe, 0xd0, 0x2e, 0xcd, 0x3e, 0x30, 0x0e, 0xe7, 0x3e,
  0x92, 0x37, 0x92, 0x3e, 0x26, 0x6d, 0x2c, 0xbe, 0xd6, 0xe8, 0x7a, 0xbe,
  0x20, 0x47, 0x2b, 0xbe, 0x08, 0x0e, 0x9f, 0xbe, 0x1a, 0x4a, 0x80, 0x3e,
  0x8c, 0xd9, 0xb5, 0x3e, 0x54, 0x80, 0x3e, 0xbe, 0xe4, 0x43, 0xe9, 0x3e,
  0x89, 0xd0, 0xf4, 0xbe, 0x88, 0x89, 0xc9, 0x3d, 0x85, 0xab, 0xcf, 0xbe,
  0x18, 0xe5, 0x38, 0xbe, 0x34, 0x40, 0x40, 0x3e, 0xe4, 0xd1, 0xa8, 0x3e,
  0x4c, 0x66, 0xe4, 0xbd, 0xd4, 0xc2, 0x8f, 0x3e, 0x4c, 0xfc, 0xea, 0x3e,
  0x9c, 0x03, 0xc9, 0x3e, 0x50, 0xf3, 0x1d, 0x3e, 0x6f, 0xed, 0xef, 0xbe,
  0x21, 0x63, 0xe9, 0xbe, 0x4c, 0x28, 0x50, 0x3e, 0x54, 0x93, 0xeb, 0x3e,
  0x3e, 0x2c, 0xe5, 0xbe, 0x3c, 0x35, 0xf4, 0xbd, 0x20, 0x1f, 0x69, 0xbd,
  0x53, 0xe6, 0xb8, 0xbe, 0xd6, 0x86, 0x01, 0xbe, 0x34, 0x58, 0xb8, 0xbe,
  0xc0, 0xa6, 0x09, 0x3d, 0x9a, 0x59, 0x28, 0xbe, 0x30, 0x33, 0xb9, 0xbd,
  0xe0, 0x2f, 0x83, 0xbe, 0x26, 0x98, 0x84, 0x3e, 0x88, 0x37, 0xea, 0x3e,
  0xf0, 0xd7, 0xe2, 0x3d, 0x66, 0x84, 0xce, 0xbe, 0x78, 0x0c, 0x20, 0xbe,
  0xc0, 0xf5, 0xfa, 0x3b, 0xe0, 0x39, 0xcf, 0x3d, 0x05, 0xd9, 0xd0, 0xbe,
  0x80, 0xf7, 0xef, 0xbb, 0x86, 0xfb, 0xff, 0xff, 0x10, 0x00, 0x00, 0x00,
  0x05, 0x00, 0x00, 0x00, 0x10, 0x00, 0x00, 0x00, 0x34, 0x00, 0x00, 0x00,
  0x01, 0x00, 0x00, 0x00, 0x0e, 0x00, 0x00, 0x00, 0x23, 0x00, 0x00, 0x00,
  0x73, 0x65, 0x71, 0x75, 0x65, 0x6e, 0x74, 0x69, 0x61, 0x6c, 0x5f, 0x36,
  0x38, 0x2f, 0x64, 0x65, 0x6e, 0x73, 0x65, 0x5f, 0x31, 0x37, 0x30, 0x2f,
  0x4d, 0x61, 0x74, 0x4d, 0x75, 0x6c, 0x5f, 0x62, 0x69, 0x61, 0x73, 0x00,
  0x24, 0xfb, 0xff, 0xff, 0x38, 0x00, 0x00, 0x00, 0x00, 0x00, 0x00, 0x00,
  0x00, 0x00, 0x00, 0x00, 0x00, 0x00, 0x00, 0x00, 0x00, 0x00, 0x00, 0x00,
  0x00, 0x00, 0x00, 0x00, 0x00, 0x00, 0x00, 0x00, 0x00, 0x00, 0x00, 0x00,
  0x00, 0x00, 0x00, 0x00, 0x00, 0x00, 0x00, 0x00, 0x00, 0x00, 0x00, 0x00,
  0x00, 0x00, 0x00, 0x00, 0x00, 0x00, 0x00, 0x00, 0x00, 0x00, 0x00, 0x00,
  0x00, 0x00, 0x00, 0x00, 0x0a, 0xfc, 0xff, 0xff, 0x10, 0x00, 0x00, 0x00,
  0x04, 0x00, 0x00, 0x00, 0x14, 0x00, 0x00, 0x00, 0x4c, 0x00, 0x00, 0x00,
  0x02, 0x00, 0x00, 0x00, 0x0e, 0x00, 0x00, 0x00, 0x0e, 0x00, 0x00, 0x00,
  0x37, 0x00, 0x00, 0x00, 0x73, 0x65, 0x71, 0x75, 0x65, 0x6e, 0x74, 0x69,
  0x61, 0x6c, 0x5f, 0x36, 0x38, 0x2f, 0x64, 0x65, 0x6e, 0x73, 0x65, 0x5f,
  0x31, 0x37, 0x30, 0x2f, 0x4d, 0x61, 0x74, 0x4d, 0x75, 0x6c, 0x2f, 0x52,
  0x65, 0x61, 0x64, 0x56, 0x61, 0x72, 0x69, 0x61, 0x62, 0x6c, 0x65, 0x4f,
  0x70, 0x2f, 0x74, 0x72, 0x61, 0x6e, 0x73, 0x70, 0x6f, 0x73, 0x65, 0x00,
  0xc0, 0xfb, 0xff, 0xff, 0x10, 0x03, 0x00, 0x00, 0x48, 0x5f, 0xaa, 0x3e,
  0x54, 0xb3, 0x41, 0x3e, 0x84, 0xb4, 0x19, 0x3e, 0xf6, 0xfc, 0xdf, 0x3e,
  0x82, 0xd0, 0xaa, 0x3e, 0xbe, 0x84, 0xd2, 0x3e, 0xe6, 0x65, 0xb7, 0xbe,
  0x90, 0x98, 0x1f, 0xbd, 0x9e, 0xa9, 0x89, 0x3e, 0x48, 0x03, 0xda, 0x3d,
  0x30, 0xc2, 0x28, 0x3e, 0xf0, 0x8e, 0x40, 0x3d, 0xb6, 0x6d, 0x55, 0xbe,
  0xa8, 0x17, 0xd3, 0x3e, 0x5d, 0xe2, 0x78, 0xbe, 0x64, 0x00, 0x18, 0xbe,
  0x18, 0x27, 0x9f, 0xbd, 0x00, 0xb6, 0xba, 0xba, 0x24, 0x62, 0x4f, 0x3e,
  0x83, 0xef, 0xd5, 0xbe, 0x7c, 0x19, 0xcc, 0x3e, 0x80, 0x4d, 0xc5, 0x3d,
  0xfa, 0x93, 0xad, 0x3e, 0x42, 0x40, 0x04, 0xbe, 0x30, 0x01, 0x35, 0xbd,
  0xa8, 0x3b, 0x9c, 0x3d, 0x40, 0x1b, 0xcd, 0xbe, 0xfb, 0x4f, 0xe8, 0xbe,
  0xe4, 0x1c, 0x05, 0x3e, 0xf2, 0x9d, 0x81, 0x3e, 0x08, 0x4f, 0x6b, 0x3e,
  0xba, 0x73, 0xce, 0x3e, 0xb8, 0xa2, 0xbb, 0x3e, 0x42, 0x6c, 0x45, 0xbe,
  0x08, 0x82, 0x9a, 0xbe, 0x1c, 0x3b, 0x52, 0xbe, 0x4a, 0x45, 0xb6, 0xbe,
  0xe0, 0xbc, 0x86, 0xbd, 0xfc, 0x97, 0xa9, 0xbe, 0xa0, 0x8f, 0xcc, 0xbd,
  0x48, 0x93, 0xe1, 0x3d, 0x8c, 0x88, 0x3b, 0x3e, 0x90, 0x56, 0xf3, 0xbd,
  0x36, 0xaa, 0x06, 0xbe, 0xe8, 0x81, 0x86, 0x3d, 0xa0, 0x52, 0x7a, 0x3d,
  0x98, 0xef, 0xbe, 0xbd, 0xa0, 0x00, 0xed, 0x3e, 0x64, 0x9c, 0x10, 0x3e,
  0xbe, 0x8f, 0x67, 0xbe, 0x28, 0xe4, 0x94, 0xbe, 0x31, 0x8c, 0xe6, 0xbe,
  0x9e, 0x7a, 0x88, 0x3e, 0xd8, 0x43, 0xd5, 0xbd, 0x94, 0xd8, 0xb5, 0x3e,
  0x80, 0xa5, 0x6d, 0xbd, 0x38, 0xe5, 0x53, 0xbe, 0xc4, 0xc4, 0x04, 0xbe,
  0x38, 0x52, 0x3e, 0xbd, 0xfc, 0x10, 0xa3, 0xbe, 0x60, 0x29, 0x17, 0xbc,
  0x40, 0x27, 0xbf, 0xbe, 0x02, 0x1a, 0x2f, 0xbe, 0xe0, 0xaa, 0x62, 0xbe,
  0x46, 0x24, 0xe4, 0x3e, 0x00, 0x97, 0xa6, 0x3b, 0x10, 0x15, 0xfd, 0x3d,
  0x5e, 0xe8, 0xaf, 0x3e, 0xac, 0x96, 0x40, 0x3e, 0xd0, 0xc8, 0x4c, 0x3d,
  0xc6, 0x75, 0x0a, 0xbe, 0xea, 0x76, 0xa8, 0x3e, 0x9e, 0x30, 0x49, 0xbe,
  0x14, 0xce, 0x62, 0x3e, 0x80, 0x67, 0xbe, 0xbc, 0xe4, 0xce, 0xa4, 0xbd,
  0xdc, 0x71, 0x8f, 0x3e, 0x5a, 0x85, 0xdf, 0x3e, 0xd8, 0xb7, 0x67, 0x3e,
  0xac, 0x72, 0xef, 0xbd, 0xb8, 0x9d, 0x7f, 0x3e, 0x50, 0xbc, 0xa9, 0x3d,
  0x41, 0x63, 0x5e, 0xbe, 0x00, 0xc3, 0x37, 0xbd, 0x1c, 0xbc, 0x6e, 0x3e,
  0xbe, 0xb9, 0x9e, 0x3e, 0xd8, 0x7c, 0x52, 0x3e, 0x20, 0xf3, 0x83, 0x3e,
  0xfc, 0xe0, 0x5c, 0x3e, 0x59, 0x48, 0xd6, 0xbe, 0x8a, 0x4c, 0x83, 0x3e,
  0x1a, 0x2f, 0xbf, 0x3e, 0x4c, 0x4c, 0x99, 0xbe, 0xcc, 0x01, 0x68, 0x3e,
  0x28, 0x8c, 0x47, 0x3e, 0x7a, 0x68, 0x85, 0xbe, 0xda, 0x5d, 0xd4, 0x3e,
  0x60, 0x6b, 0x33, 0xbc, 0x94, 0x71, 0xe6, 0x3e, 0xb6, 0xee, 0xdc, 0x3e,
  0x80, 0x63, 0x00, 0x3c, 0xe8, 0x6c, 0xc1, 0xbd, 0xe6, 0xb9, 0x16, 0xbe,
  0xe2, 0x73, 0xe4, 0x3e, 0x87, 0x4b, 0xa3, 0xbe, 0xec, 0x99, 0x2f, 0xbe,
  0x60, 0x6d, 0x71, 0x3c, 0x00, 0x6a, 0xd4, 0x3e, 0x28, 0xe6, 0x8d, 0x3e,
  0x30, 0x45, 0xf0, 0x3c, 0x42, 0xcb, 0x06, 0xbe, 0x83, 0x5a, 0x74, 0xbe,
  0x08, 0x0a, 0xb4, 0x3d, 0x76, 0x04, 0x89, 0x3e, 0x19, 0x69, 0x98, 0xbe,
  0xf0, 0x1a, 0x6f, 0x3d, 0x30, 0x39, 0x98, 0x3e, 0x36, 0xb9, 0x9c, 0x3e,
  0x94, 0x96, 0x59, 0xbe, 0x1c, 0x4a, 0x69, 0xbe, 0xde, 0x7b, 0x4c, 0xbe,
  0xa0, 0xfe, 0x2d, 0x3c, 0x94, 0x7b, 0xae, 0xbe, 0xb0, 0x68, 0xb6, 0x3d,
  0x7c, 0xa9, 0x50, 0x3e, 0x38, 0xdf, 0x44, 0xbe, 0x94, 0x19, 0x95, 0x3e,
  0x80, 0x6b, 0x5b, 0xbb, 0x10, 0xb0, 0x1c, 0x3d, 0xbc, 0x30, 0x7c, 0x3e,
  0x28, 0xef, 0x65, 0x3e, 0x58, 0x61, 0x9a, 0x3d, 0xee, 0x5f, 0x96, 0x3e,
  0x5e, 0xac, 0x12, 0xbe, 0xf0, 0x9a, 0x6e, 0xbd, 0xa0, 0x6d, 0x07, 0x3e,
  0x70, 0x5e, 0xfc, 0x3d, 0xf0, 0x3b, 0xb3, 0x3d, 0x3e, 0x79, 0x53, 0xbe,
  0x7a, 0x86, 0xb0, 0x3e, 0xe8, 0xe3, 0xa2, 0x3e, 0x28, 0x40, 0x09, 0x3d,
  0x3c, 0x87, 0x01, 0x3e, 0xac, 0xd1, 0xb8, 0x3e, 0x4b, 0x14, 0xc5, 0xbe,
  0x6e, 0xb4, 0x16, 0xbe, 0xd8, 0xb6, 0x38, 0xbe, 0x80, 0xff, 0xb0, 0xbe,
  0x98, 0xbb, 0x70, 0x3e, 0xee, 0xd8, 0x83, 0x3e, 0xb8, 0xab, 0xca, 0xbd,
  0x12, 0x0f, 0x70, 0xbe, 0x98, 0x22, 0xb0, 0xbe, 0x04, 0x61, 0x9d, 0xbe,
  0x70, 0x47, 0x8b, 0x3c, 0xe6, 0x46, 0xb2, 0x3e, 0x66, 0xbd, 0xc5, 0xbe,
  0xbb, 0x80, 0xd5, 0xbe, 0x82, 0xdc, 0x84, 0x3e, 0x00, 0xee, 0xe9, 0x3c,
  0xf6, 0xe3, 0x99, 0xbe, 0xbc, 0xb5, 0x18, 0x3e, 0xb2, 0x2b, 0x9a, 0x3e,
  0xea, 0x29, 0x76, 0xbe, 0xd0, 0xa0, 0x99, 0x3e, 0x40, 0x24, 0x1f, 0xbe,
  0x00, 0x68, 0xfa, 0xba, 0xa6, 0x03, 0xac, 0xbe, 0xca, 0x07, 0xb4, 0xbe,
  0x90, 0xf1, 0x06, 0x3e, 0xd0, 0x05, 0xd5, 0xbd, 0xb0, 0x42, 0x2f, 0x3e,
  0x00, 0xc2, 0x95, 0x3c, 0x5c, 0xb0, 0x73, 0x3e, 0xd4, 0xd1, 0x1d, 0x3e,
  0x14, 0x06, 0xc6, 0x3e, 0xd4, 0xfe, 0x83, 0x3e, 0x78, 0x61, 0x89, 0x3d,
  0x60, 0xdd, 0x84, 0xbe, 0x46, 0x25, 0xb2, 0x3e, 0x98, 0x52, 0x7b, 0xbe,
  0x90, 0xe6, 0xd7, 0xbe, 0x00, 0x9b, 0x47, 0x3d, 0x80, 0xbc, 0xe4, 0x3d,
  0x20, 0x4f, 0x64, 0xbd, 0xc8, 0x30, 0x91, 0x3e, 0xa0, 0x6d, 0x8a, 0x3c,
  0x6c, 0x3e, 0x5c, 0x3e, 0x40, 0x76, 0xaf, 0xbd, 0x9e, 0x18, 0x1a, 0xbe,
  0xc0, 0x93, 0x82, 0xbb, 0x30, 0xd5, 0x3e, 0xbe, 0x4a, 0xf8, 0xdd, 0x3e,
  0xd8, 0x1d, 0x03, 0xbd, 0x72, 0xd9, 0xc0, 0xbe, 0x18, 0x6a, 0x98, 0xbe,
  0x7e, 0xff, 0xff, 0xff, 0x10, 0x00, 0x00, 0x00, 0x03, 0x00, 0x00, 0x00,
  0x14, 0x00, 0x00, 0x00, 0x20, 0x00, 0x00, 0x00, 0x02, 0x00, 0x00, 0x00,
  0x01, 0x00, 0x00, 0x00, 0x0c, 0x00, 0x00, 0x00, 0x08, 0x00, 0x00, 0x00,
  0x49, 0x64, 0x65, 0x6e, 0x74, 0x69, 0x74, 0x79, 0x00, 0x00, 0x00, 0x00,
  0x08, 0xff, 0xff, 0xff, 0xb2, 0xff, 0xff, 0xff, 0x10, 0x00, 0x00, 0x00,
  0x02, 0x00, 0x00, 0x00, 0x14, 0x00, 0x00, 0x00, 0x38, 0x00, 0x00, 0x00,
  0x02, 0x00, 0x00, 0x00, 0x01, 0x00, 0x00, 0x00, 0x0e, 0x00, 0x00, 0x00,
  0x1c, 0x00, 0x00, 0x00, 0x73, 0x65, 0x71, 0x75, 0x65, 0x6e, 0x74, 0x69,
  0x61, 0x6c, 0x5f, 0x36, 0x38, 0x2f, 0x64, 0x65, 0x6e, 0x73, 0x65, 0x5f,
  0x31, 0x37, 0x30, 0x2f, 0x52, 0x65, 0x6c, 0x75, 0x00, 0x00, 0x00, 0x00,
  0x04, 0x00, 0x06, 0x00, 0x04, 0x00, 0x00, 0x00, 0x00, 0x00, 0x0e, 0x00,
  0x14, 0x00, 0x04, 0x00, 0x00, 0x00, 0x08, 0x00, 0x0c, 0x00, 0x10, 0x00,
  0x0e, 0x00, 0x00, 0x00, 0x10, 0x00, 0x00, 0x00, 0x01, 0x00, 0x00, 0x00,
  0x14, 0x00, 0x00, 0x00, 0x2c, 0x00, 0x00, 0x00, 0x02, 0x00, 0x00, 0x00,
  0x01, 0x00, 0x00, 0x00, 0x0e, 0x00, 0x00, 0x00, 0x0f, 0x00, 0x00, 0x00,
  0x64, 0x65, 0x6e, 0x73, 0x65, 0x5f, 0x31, 0x37, 0x30, 0x5f, 0x69, 0x6e,
  0x70, 0x75, 0x74, 0x00, 0x08, 0x00, 0x0c, 0x00, 0x04, 0x00, 0x08, 0x00,
  0x08, 0x00, 0x00, 0x00, 0x10, 0x00, 0x00, 0x00, 0x04, 0x00, 0x00, 0x00,
  0x01, 0x00, 0x00, 0x00, 0x00, 0x00, 0x7f, 0x43, 0x01, 0x00, 0x00, 0x00,
  0x00, 0x00, 0x00, 0x00, 0x02, 0x00, 0x00, 0x00, 0x58, 0x00, 0x00, 0x00,
  0x04, 0x00, 0x00, 0x00, 0xc4, 0xff, 0xff, 0xff, 0x00, 0x00, 0x00, 0x08,
  0x10, 0x00, 0x00, 0x00, 0x1c, 0x00, 0x00, 0x00, 0x28, 0x00, 0x00, 0x00,
  0x1c, 0x00, 0x00, 0x00, 0x03, 0x00, 0x00, 0x00, 0x04, 0x00, 0x00, 0x00,
  0x05, 0x00, 0x00, 0x00, 0x06, 0x00, 0x00, 0x00, 0x01, 0x00, 0x00, 0x00,
  0x00, 0x00, 0x00, 0x00, 0x00, 0x00, 0x00, 0x00, 0x04, 0x00, 0x04, 0x00,
  0x04, 0x00, 0x00, 0x00, 0x14, 0x00, 0x18, 0x00, 0x00, 0x00, 0x08, 0x00,
  0x0c, 0x00, 0x07, 0x00, 0x10, 0x00, 0x00, 0x00, 0x00, 0x00, 0x14, 0x00,
  0x14, 0x00, 0x00, 0x00, 0x00, 0x00, 0x00, 0x08, 0x10, 0x00, 0x00, 0x00,
  0x1c, 0x00, 0x00, 0x00, 0x24, 0x00, 0x00, 0x00, 0x1c, 0x00, 0x00, 0x00,
  0x03, 0x00, 0x00, 0x00, 0x01, 0x00, 0x00, 0x00, 0x02, 0x00, 0x00, 0x00,
  0x03, 0x00, 0x00, 0x00, 0x01, 0x00, 0x00, 0x00, 0x04, 0x00, 0x00, 0x00,
  0x00, 0x00, 0x00, 0x00, 0xe2, 0xff, 0xff, 0xff, 0x00, 0x00, 0x00, 0x01,
  0x01, 0x00, 0x00, 0x00, 0x0c, 0x00, 0x00, 0x00, 0x00, 0x00, 0x06, 0x00,
  0x06, 0x00, 0x05, 0x00, 0x06, 0x00, 0x00, 0x00, 0x00, 0x09, 0x06, 0x00,
  0x08, 0x00, 0x07, 0x00, 0x06, 0x00, 0x00, 0x00, 0x00, 0x00, 0x00, 0x09
};
unsigned int ANN_IV_12_tflite_len = 2664;
