unsigned char ANN_Ah_12_tflite[] = {
  0x1c, 0x00, 0x00, 0x00, 0x54, 0x46, 0x4c, 0x33, 0x00, 0x00, 0x12, 0x00,
  0x1c, 0x00, 0x04, 0x00, 0x08, 0x00, 0x0c, 0x00, 0x10, 0x00, 0x14, 0x00,
  0x00, 0x00, 0x18, 0x00, 0x12, 0x00, 0x00, 0x00, 0x03, 0x00, 0x00, 0x00,
  0x30, 0x07, 0x00, 0x00, 0x10, 0x00, 0x00, 0x00, 0x1c, 0x00, 0x00, 0x00,
  0x2c, 0x00, 0x00, 0x00, 0x0c, 0x00, 0x00, 0x00, 0x01, 0x00, 0x00, 0x00,
  0xc4, 0x00, 0x00, 0x00, 0x01, 0x00, 0x00, 0x00, 0x8c, 0x00, 0x00, 0x00,
  0x0f, 0x00, 0x00, 0x00, 0x54, 0x4f, 0x43, 0x4f, 0x20, 0x43, 0x6f, 0x6e,
  0x76, 0x65, 0x72, 0x74, 0x65, 0x64, 0x2e, 0x00, 0x09, 0x00, 0x00, 0x00,
  0x60, 0x00, 0x00, 0x00, 0x58, 0x00, 0x00, 0x00, 0x50, 0x00, 0x00, 0x00,
  0x44, 0x00, 0x00, 0x00, 0x34, 0x00, 0x00, 0x00, 0x28, 0x00, 0x00, 0x00,
  0x1c, 0x00, 0x00, 0x00, 0x10, 0x00, 0x00, 0x00, 0x04, 0x00, 0x00, 0x00,
  0xda, 0xff, 0xff, 0xff, 0x3c, 0x00, 0x00, 0x00, 0xe2, 0xff, 0xff, 0xff,
  0xfc, 0x00, 0x00, 0x00, 0xea, 0xff, 0xff, 0xff, 0x88, 0x01, 0x00, 0x00,
  0xf2, 0xff, 0xff, 0xff, 0x0c, 0x04, 0x00, 0x00, 0x58, 0xfa, 0xff, 0xff,
  0x00, 0x00, 0x06, 0x00, 0x08, 0x00, 0x04, 0x00, 0x06, 0x00, 0x00, 0x00,
  0xc0, 0x04, 0x00, 0x00, 0xbc, 0xf9, 0xff, 0xff, 0xc0, 0xf9, 0xff, 0xff,
  0xc4, 0xf9, 0xff, 0xff, 0x05, 0x00, 0x00, 0x00, 0x31, 0x2e, 0x35, 0x2e,
  0x30, 0x00, 0x00, 0x00, 0x38, 0xfa, 0xff, 0xff, 0x08, 0x00, 0x00, 0x00,
  0x08, 0x00, 0x00, 0x00, 0x13, 0x00, 0x00, 0x00, 0x6d, 0x69, 0x6e, 0x5f,
  0x72, 0x75, 0x6e, 0x74, 0x69, 0x6d, 0x65, 0x5f, 0x76, 0x65, 0x72, 0x73,
  0x69, 0x6f, 0x6e, 0x00, 0x0c, 0x00, 0x14, 0x00, 0x04, 0x00, 0x08, 0x00,
  0x0c, 0x00, 0x10, 0x00, 0x0c, 0x00, 0x00, 0x00, 0x20, 0x00, 0x00, 0x00,
  0x14, 0x00, 0x00, 0x00, 0x08, 0x00, 0x00, 0x00, 0xac, 0x05, 0x00, 0x00,
  0x01, 0x00, 0x00, 0x00, 0x00, 0x00, 0x00, 0x00, 0x01, 0x00, 0x00, 0x00,
  0x01, 0x00, 0x00, 0x00, 0x07, 0x00, 0x00, 0x00, 0xb8, 0x03, 0x00, 0x00,
  0x38, 0x05, 0x00, 0x00, 0xe4, 0x03, 0x00, 0x00, 0x30, 0x03, 0x00, 0x00,
  0xd0, 0x04, 0x00, 0x00, 0x84, 0x00, 0x00, 0x00, 0x04, 0x00, 0x00, 0x00,
  0xee, 0xfa, 0xff, 0xff, 0x10, 0x00, 0x00, 0x00, 0x07, 0x00, 0x00, 0x00,
  0x10, 0x00, 0x00, 0x00, 0x34, 0x00, 0x00, 0x00, 0x01, 0x00, 0x00, 0x00,
  0x0c, 0x00, 0x00, 0x00, 0x23, 0x00, 0x00, 0x00, 0x73, 0x65, 0x71, 0x75,
  0x65, 0x6e, 0x74, 0x69, 0x61, 0x6c, 0x5f, 0x36, 0x36, 0x2f, 0x64, 0x65,
  0x6e, 0x73, 0x65, 0x5f, 0x31, 0x36, 0x36, 0x2f, 0x4d, 0x61, 0x74, 0x4d,
  0x75, 0x6c, 0x5f, 0x62, 0x69, 0x61, 0x73, 0x00, 0x8c, 0xfa, 0xff, 0xff,
  0x30, 0x00, 0x00, 0x00, 0x00, 0x00, 0x00, 0x00, 0x00, 0x00, 0x00, 0x00,
  0x00, 0x00, 0x00, 0x00, 0x00, 0x00, 0x00, 0x00, 0x00, 0x00, 0x00, 0x00,
  0x00, 0x00, 0x00, 0x00, 0x00, 0x00, 0x00, 0x00, 0x00, 0x00, 0x00, 0x00,
  0x00, 0x00, 0x00, 0x00, 0x00, 0x00, 0x00, 0x00, 0x00, 0x00, 0x00, 0x00,
  0x00, 0x00, 0x00, 0x00, 0x6a, 0xfb, 0xff, 0xff, 0x10, 0x00, 0x00, 0x00,
  0x06, 0x00, 0x00, 0x00, 0x14, 0x00, 0x00, 0x00, 0x4c, 0x00, 0x00, 0x00,
  0x02, 0x00, 0x00, 0x00, 0x0c, 0x00, 0x00, 0x00, 0x0c, 0x00, 0x00, 0x00,
  0x37, 0x00, 0x00, 0x00, 0x73, 0x65, 0x71, 0x75, 0x65, 0x6e, 0x74, 0x69,
  0x61, 0x6c, 0x5f, 0x36, 0x36, 0x2f, 0x64, 0x65, 0x6e, 0x73, 0x65, 0x5f,
  0x31, 0x36, 0x36, 0x2f, 0x4d, 0x61, 0x74, 0x4d, 0x75, 0x6c, 0x2f, 0x52,
  0x65, 0x61, 0x64, 0x56, 0x61, 0x72, 0x69, 0x61, 0x62, 0x6c, 0x65, 0x4f,
  0x70, 0x2f, 0x74, 0x72, 0x61, 0x6e, 0x73, 0x70, 0x6f, 0x73, 0x65, 0x00,
  0x20, 0xfb, 0xff, 0xff, 0x40, 0x02, 0x00, 0x00, 0xa0, 0x5f, 0x59, 0xbe,
  0xc0, 0xa8, 0xe6, 0x3c, 0x50, 0x2d, 0x94, 0x3e, 0x5c, 0x5e, 0xc5, 0x3e,
  0xac, 0x7c, 0x95, 0x3e, 0x60, 0xb7, 0xf0, 0xbd, 0xc0, 0x5f, 0x98, 0x3d,
  0x20, 0x13, 0x59, 0x3d, 0x5c, 0xd3, 0xe2, 0xbe, 0x90, 0xd2, 0x91, 0x3e,
  0xc4, 0x09, 0x8f, 0xbe, 0xb0, 0x42, 0xdd, 0xbe, 0xf0, 0x49, 0x8c, 0xbe,
  0x00, 0x85, 0xce, 0xbd, 0xc0, 0x8a, 0x88, 0xbd, 0x80, 0xe1, 0x57, 0x3c,
  0xac, 0x4f, 0x8d, 0xbe, 0x58, 0x18, 0x3c, 0x3e, 0x30, 0x4b, 0x90, 0x3d,
  0x00, 0x6f, 0xdc, 0x3c, 0x40, 0x6c, 0x87, 0x3d, 0x88, 0xe6, 0x7c, 0xbe,
  0x78, 0xda, 0xd2, 0x3e, 0xdc, 0x19, 0x83, 0xbe, 0x08, 0x5c, 0xd3, 0x3e,
  0x00, 0x61, 0x12, 0xbe, 0x28, 0x33, 0x02, 0xbe, 0x98, 0xbf, 0x3f, 0x3e,
  0xa8, 0xa6, 0x1a, 0x3e, 0xe4, 0xc9, 0xec, 0x3e, 0x0c, 0x3c, 0x8e, 0xbe,
  0xc0, 0xd9, 0xa3, 0x3d, 0x84, 0x26, 0xbc, 0x3e, 0xc0, 0x97, 0xc3, 0x3e,
  0x70, 0xf3, 0x22, 0xbe, 0x44, 0x1c, 0xe0, 0x3e, 0x6c, 0x45, 0xae, 0x3e,
  0x58, 0x6b, 0x26, 0x3e, 0xd0, 0xe7, 0x03, 0x3e, 0x80, 0xc8, 0x59, 0x3d,
  0xc8, 0x08, 0x2d, 0xbe, 0x44, 0xa4, 0xb1, 0x3e, 0xe0, 0x8f, 0x0f, 0xbd,
  0x00, 0x08, 0xc8, 0xbe, 0x20, 0x80, 0xcf, 0xbd, 0x28, 0x20, 0x3c, 0xbe,
  0xe4, 0x57, 0xd6, 0xbe, 0x00, 0xaa, 0x1f, 0x3e, 0x38, 0xde, 0xc3, 0x3e,
  0x48, 0xdc, 0xdb, 0xbe, 0x40, 0xb6, 0xdf, 0xbc, 0x8c, 0xc2, 0x9d, 0xbe,
  0xf0, 0xa5, 0x3a, 0x3e, 0x98, 0xeb, 0x5c, 0xbe, 0x50, 0x8d, 0x16, 0xbe,
  0x40, 0xdf, 0x4d, 0x3d, 0xa8, 0x1d, 0x5a, 0xbe, 0x20, 0x57, 0xd2, 0xbe,
  0x80, 0x81, 0xe5, 0xbd, 0xc0, 0xc6, 0x42, 0x3e, 0x00, 0x1b, 0xa7, 0xbc,
  0xcc, 0x86, 0xe3, 0x3e, 0x80, 0x8f, 0x8f, 0xbd, 0x18, 0x58, 0xf7, 0xbe,
  0xbc, 0xe3, 0xa6, 0xbe, 0xa0, 0x91, 0x15, 0x3d, 0xc0, 0x1b, 0xa5, 0xbe,
  0xb8, 0xdb, 0xb2, 0x3e, 0xd0, 0x62, 0x58, 0xbe, 0x24, 0xcc, 0xc1, 0x3e,
  0x88, 0x93, 0xf9, 0xbe, 0x74, 0x49, 0xa0, 0x3e, 0x00, 0xef, 0x12, 0x3d,
  0x68, 0xb6, 0xc3, 0x3e, 0xa0, 0xcb, 0xe5, 0x3e, 0xd4, 0x8f, 0xb4, 0xbe,
  0x18, 0x7f, 0xb6, 0xbe, 0xfc, 0xb5, 0xd1, 0xbe, 0xe4, 0x6b, 0xde, 0xbe,
  0xbc, 0x95, 0x92, 0xbe, 0x3c, 0x37, 0xca, 0xbe, 0xb0, 0x58, 0xae, 0xbd,
  0xd8, 0x1f, 0xb3, 0x3e, 0x08, 0xf1, 0xfc, 0xbe, 0x20, 0x29, 0x4e, 0xbe,
  0x24, 0xfe, 0x9d, 0x3e, 0x50, 0xc2, 0x9e, 0x3d, 0x10, 0xed, 0x01, 0x3e,
  0xa8, 0x5b, 0xf4, 0x3e, 0x40, 0xb3, 0x0a, 0x3d, 0x38, 0xe1, 0xae, 0x3e,
  0x04, 0x84, 0xd7, 0xbe, 0x98, 0x7b, 0xc7, 0x3e, 0x58, 0x78, 0x54, 0xbe,
  0x18, 0x74, 0x6f, 0xbe, 0xc4, 0x9d, 0xa4, 0x3e, 0x90, 0xa7, 0xc2, 0x3e,
  0x68, 0xcd, 0x69, 0xbe, 0x58, 0x7b, 0x83, 0xbe, 0xd0, 0xba, 0xf5, 0xbe,
  0xe4, 0x78, 0xec, 0x3e, 0x98, 0xf8, 0xea, 0x3e, 0x60, 0x8a, 0x98, 0x3e,
  0x18, 0x64, 0x31, 0x3e, 0xa8, 0xba, 0xf6, 0xbe, 0x58, 0xc7, 0xbc, 0xbe,
  0xf0, 0xad, 0xb0, 0x3d, 0xa0, 0x75, 0xc5, 0x3d, 0xe0, 0xe3, 0x57, 0x3d,
  0x74, 0x34, 0xb5, 0x3e, 0x28, 0x2a, 0xaa, 0x3e, 0xe8, 0x70, 0x4f, 0xbe,
  0xb4, 0x85, 0xe0, 0x3e, 0x90, 0xc8, 0x88, 0x3e, 0xb8, 0xda, 0x18, 0x3e,
  0x5c, 0x8e, 0x8d, 0x3e, 0x58, 0xe9, 0x81, 0x3e, 0x7c, 0x07, 0xf1, 0x3e,
  0x78, 0xb3, 0xa8, 0xbe, 0x80, 0x3b, 0xab, 0x3d, 0x18, 0x91, 0xfe, 0x3e,
  0xa8, 0xf9, 0xec, 0x3e, 0xbc, 0xcc, 0xce, 0xbe, 0x80, 0xd6, 0xe6, 0xbd,
  0x40, 0x25, 0x38, 0xbe, 0x14, 0x7e, 0x80, 0xbe, 0x60, 0xdd, 0x6e, 0x3d,
  0x70, 0x22, 0x95, 0xbe, 0x30, 0x2f, 0x42, 0xbe, 0xb0, 0x0b, 0x44, 0x3e,
  0xc8, 0xbf, 0x82, 0x3e, 0x40, 0xbe, 0x63, 0xbe, 0x38, 0xe3, 0xeb, 0xbe,
  0x38, 0x87, 0x5f, 0xbe, 0x04, 0x65, 0xee, 0xbe, 0xc0, 0x3f, 0x80, 0x3c,
  0xa8, 0x21, 0x05, 0xbe, 0x48, 0x36, 0x4d, 0xbe, 0x60, 0x83, 0x6b, 0x3e,
  0x10, 0xd4, 0x0e, 0xbe, 0xe0, 0x58, 0x45, 0x3e, 0xe0, 0xbe, 0x4e, 0xbe,
  0x18, 0x89, 0xcc, 0x3e, 0x38, 0x77, 0x11, 0x3e, 0x0e, 0xfe, 0xff, 0xff,
  0x10, 0x00, 0x00, 0x00, 0x05, 0x00, 0x00, 0x00, 0x10, 0x00, 0x00, 0x00,
  0x34, 0x00, 0x00, 0x00, 0x01, 0x00, 0x00, 0x00, 0x0c, 0x00, 0x00, 0x00,
  0x23, 0x00, 0x00, 0x00, 0x73, 0x65, 0x71, 0x75, 0x65, 0x6e, 0x74, 0x69,
  0x61, 0x6c, 0x5f, 0x36, 0x36, 0x2f, 0x64, 0x65, 0x6e, 0x73, 0x65, 0x5f,
  0x31, 0x36, 0x35, 0x2f, 0x4d, 0x61, 0x74, 0x4d, 0x75, 0x6c, 0x5f, 0x62,
  0x69, 0x61, 0x73, 0x00, 0xac, 0xfd, 0xff, 0xff, 0x30, 0x00, 0x00, 0x00,
  0x00, 0x00, 0x00, 0x00, 0x00, 0x00, 0x00, 0x00, 0x00, 0x00, 0x00, 0x00,
  0x00, 0x00, 0x00, 0x00, 0x00, 0x00, 0x00, 0x00, 0x00, 0x00, 0x00, 0x00,
  0x00, 0x00, 0x00, 0x00, 0x00, 0x00, 0x00, 0x00, 0x00, 0x00, 0x00, 0x00,
  0x00, 0x00, 0x00, 0x00, 0x00, 0x00, 0x00, 0x00, 0x00, 0x00, 0x00, 0x00,
  0x8a, 0xfe, 0xff, 0xff, 0x10, 0x00, 0x00, 0x00, 0x04, 0x00, 0x00, 0x00,
  0x14, 0x00, 0x00, 0x00, 0x20, 0x00, 0x00, 0x00, 0x02, 0x00, 0x00, 0x00,
  0x01, 0x00, 0x00, 0x00, 0x0c, 0x00, 0x00, 0x00, 0x08, 0x00, 0x00, 0x00,
  0x49, 0x64, 0x65, 0x6e, 0x74, 0x69, 0x74, 0x79, 0x00, 0x00, 0x00, 0x00,
  0x14, 0xfe, 0xff, 0xff, 0xbe, 0xfe, 0xff, 0xff, 0x10, 0x00, 0x00, 0x00,
  0x03, 0x00, 0x00, 0x00, 0x14, 0x00, 0x00, 0x00, 0x4c, 0x00, 0x00, 0x00,
  0x02, 0x00, 0x00, 0x00, 0x0c, 0x00, 0x00, 0x00, 0x03, 0x00, 0x00, 0x00,
  0x37, 0x00, 0x00, 0x00, 0x73, 0x65, 0x71, 0x75, 0x65, 0x6e, 0x74, 0x69,
  0x61, 0x6c, 0x5f, 0x36, 0x36, 0x2f, 0x64, 0x65, 0x6e, 0x73, 0x65, 0x5f,
  0x31, 0x36, 0x35, 0x2f, 0x4d, 0x61, 0x74, 0x4d, 0x75, 0x6c, 0x2f, 0x52,
  0x65, 0x61, 0x64, 0x56, 0x61, 0x72, 0x69, 0x61, 0x62, 0x6c, 0x65, 0x4f,
  0x70, 0x2f, 0x74, 0x72, 0x61, 0x6e, 0x73, 0x70, 0x6f, 0x73, 0x65, 0x00,
  0x74, 0xfe, 0xff, 0xff, 0x90, 0x00, 0x00, 0x00, 0xf6, 0x7d, 0x12, 0xbe,
  0xba, 0xb5, 0xee, 0x3e, 0x0a, 0x88, 0x7e, 0xbe, 0x61, 0xc2, 0xa7, 0xbe,
  0xe0, 0xd1, 0xe3, 0x3d, 0xc0, 0xd2, 0x1e, 0xbe, 0x33, 0xaa, 0x1a, 0x3f,
  0x56, 0x62, 0xfc, 0x3e, 0x9e, 0x27, 0xc9, 0xbe, 0xd8, 0x58, 0x7b, 0x3e,
  0xe7, 0x08, 0x0f, 0x3f, 0x68, 0x19, 0x7a, 0x3e, 0xd2, 0xa1, 0xaf, 0x3e,
  0xb6, 0x6d, 0xc8, 0x3e, 0x59, 0x77, 0xd0, 0xbe, 0x63, 0x9b, 0x16, 0xbf,
  0x00, 0x2d, 0xe7, 0xbe, 0x41, 0xbb, 0x20, 0x3f, 0xfc, 0x3f, 0xd9, 0xbe,
  0x78, 0x2c, 0x3a, 0x3e, 0xf8, 0xcf, 0x9f, 0xbe, 0xf3, 0x0d, 0x20, 0xbf,
  0xc0, 0xc1, 0x69, 0xbc, 0xea, 0xc7, 0xc8, 0x3e, 0xdc, 0x28, 0xff, 0xbe,
  0xa4, 0x07, 0xb3, 0xbe, 0xa0, 0x22, 0x17, 0xbe, 0xa6, 0xe1, 0x61, 0xbe,
  0x87, 0x73, 0xfc, 0xbe, 0xf0, 0x62, 0x2f, 0xbd, 0x5f, 0x0d, 0xb3, 0xbe,
  0x21, 0x79, 0x00, 0x3f, 0x30, 0x53, 0xfe, 0x3d, 0xb2, 0xd0, 0xec, 0x3e,
  0xa8, 0x44, 0x5d, 0xbe, 0x80, 0x8e, 0x89, 0x3d, 0xb2, 0xff, 0xff, 0xff,
  0x10, 0x00, 0x00, 0x00, 0x02, 0x00, 0x00, 0x00, 0x14, 0x00, 0x00, 0x00,
  0x38, 0x00, 0x00, 0x00, 0x02, 0x00, 0x00, 0x00, 0x01, 0x00, 0x00, 0x00,
  0x0c, 0x00, 0x00, 0x00, 0x1c, 0x00, 0x00, 0x00, 0x73, 0x65, 0x71, 0x75,
  0x65, 0x6e, 0x74, 0x69, 0x61, 0x6c, 0x5f, 0x36, 0x36, 0x2f, 0x64, 0x65,
  0x6e, 0x73, 0x65, 0x5f, 0x31, 0x36, 0x35, 0x2f, 0x52, 0x65, 0x6c, 0x75,
  0x00, 0x00, 0x00, 0x00, 0x04, 0x00, 0x06, 0x00, 0x04, 0x00, 0x00, 0x00,
  0x00, 0x00, 0x0e, 0x00, 0x14, 0x00, 0x04, 0x00, 0x00, 0x00, 0x08, 0x00,
  0x0c, 0x00, 0x10, 0x00, 0x0e, 0x00, 0x00, 0x00, 0x10, 0x00, 0x00, 0x00,
  0x01, 0x00, 0x00, 0x00, 0x14, 0x00, 0x00, 0x00, 0x2c, 0x00, 0x00, 0x00,
  0x02, 0x00, 0x00, 0x00, 0x01, 0x00, 0x00, 0x00, 0x03, 0x00, 0x00, 0x00,
  0x0f, 0x00, 0x00, 0x00, 0x64, 0x65, 0x6e, 0x73, 0x65, 0x5f, 0x31, 0x36,
  0x35, 0x5f, 0x69, 0x6e, 0x70, 0x75, 0x74, 0x00, 0x08, 0x00, 0x0c, 0x00,
  0x04, 0x00, 0x08, 0x00, 0x08, 0x00, 0x00, 0x00, 0x10, 0x00, 0x00, 0x00,
  0x04, 0x00, 0x00, 0x00, 0x01, 0x00, 0x00, 0x00, 0x00, 0x00, 0x7f, 0x43,
  0x01, 0x00, 0x00, 0x00, 0x00, 0x00, 0x00, 0x00, 0x02, 0x00, 0x00, 0x00,
  0x58, 0x00, 0x00, 0x00, 0x04, 0x00, 0x00, 0x00, 0xc4, 0xff, 0xff, 0xff,
  0x00, 0x00, 0x00, 0x08, 0x10, 0x00, 0x00, 0x00, 0x1c, 0x00, 0x00, 0x00,
  0x28, 0x00, 0x00, 0x00, 0x1c, 0x00, 0x00, 0x00, 0x03, 0x00, 0x00, 0x00,
  0x04, 0x00, 0x00, 0x00, 0x05, 0x00, 0x00, 0x00, 0x06, 0x00, 0x00, 0x00,
  0x01, 0x00, 0x00, 0x00, 0x00, 0x00, 0x00, 0x00, 0x00, 0x00, 0x00, 0x00,
  0x04, 0x00, 0x04, 0x00, 0x04, 0x00, 0x00, 0x00, 0x14, 0x00, 0x18, 0x00,
  0x00, 0x00, 0x08, 0x00, 0x0c, 0x00, 0x07, 0x00, 0x10, 0x00, 0x00, 0x00,
  0x00, 0x00, 0x14, 0x00, 0x14, 0x00, 0x00, 0x00, 0x00, 0x00, 0x00, 0x08,
  0x10, 0x00, 0x00, 0x00, 0x1c, 0x00, 0x00, 0x00, 0x24, 0x00, 0x00, 0x00,
  0x1c, 0x00, 0x00, 0x00, 0x03, 0x00, 0x00, 0x00, 0x01, 0x00, 0x00, 0x00,
  0x02, 0x00, 0x00, 0x00, 0x03, 0x00, 0x00, 0x00, 0x01, 0x00, 0x00, 0x00,
  0x04, 0x00, 0x00, 0x00, 0x00, 0x00, 0x00, 0x00, 0xe2, 0xff, 0xff, 0xff,
  0x00, 0x00, 0x00, 0x01, 0x01, 0x00, 0x00, 0x00, 0x0c, 0x00, 0x00, 0x00,
  0x00, 0x00, 0x06, 0x00, 0x06, 0x00, 0x05, 0x00, 0x06, 0x00, 0x00, 0x00,
  0x00, 0x09, 0x06, 0x00, 0x08, 0x00, 0x07, 0x00, 0x06, 0x00, 0x00, 0x00,
  0x00, 0x00, 0x00, 0x09
};
unsigned int ANN_Ah_12_tflite_len = 1912;
