unsigned char ANN_Ah_22_tflite[] = {
  0x1c, 0x00, 0x00, 0x00, 0x54, 0x46, 0x4c, 0x33, 0x00, 0x00, 0x12, 0x00,
  0x1c, 0x00, 0x04, 0x00, 0x08, 0x00, 0x0c, 0x00, 0x10, 0x00, 0x14, 0x00,
  0x00, 0x00, 0x18, 0x00, 0x12, 0x00, 0x00, 0x00, 0x03, 0x00, 0x00, 0x00,
  0xa8, 0x0c, 0x00, 0x00, 0x10, 0x00, 0x00, 0x00, 0x1c, 0x00, 0x00, 0x00,
  0x2c, 0x00, 0x00, 0x00, 0x0c, 0x00, 0x00, 0x00, 0x01, 0x00, 0x00, 0x00,
  0xc0, 0x00, 0x00, 0x00, 0x01, 0x00, 0x00, 0x00, 0x88, 0x00, 0x00, 0x00,
  0x0f, 0x00, 0x00, 0x00, 0x54, 0x4f, 0x43, 0x4f, 0x20, 0x43, 0x6f, 0x6e,
  0x76, 0x65, 0x72, 0x74, 0x65, 0x64, 0x2e, 0x00, 0x08, 0x00, 0x00, 0x00,
  0x5c, 0x00, 0x00, 0x00, 0x54, 0x00, 0x00, 0x00, 0x4c, 0x00, 0x00, 0x00,
  0x44, 0x00, 0x00, 0x00, 0x38, 0x00, 0x00, 0x00, 0x24, 0x00, 0x00, 0x00,
  0x10, 0x00, 0x00, 0x00, 0x04, 0x00, 0x00, 0x00, 0xde, 0xff, 0xff, 0xff,
  0x3c, 0x00, 0x00, 0x00, 0xf6, 0xff, 0xff, 0xff, 0x14, 0x01, 0x00, 0x00,
  0x00, 0x00, 0x06, 0x00, 0x0a, 0x00, 0x04, 0x00, 0x06, 0x00, 0x00, 0x00,
  0xe4, 0x08, 0x00, 0x00, 0x00, 0x00, 0x06, 0x00, 0x08, 0x00, 0x04, 0x00,
  0x06, 0x00, 0x00, 0x00, 0x94, 0x09, 0x00, 0x00, 0x3c, 0xf4, 0xff, 0xff,
  0x40, 0xf4, 0xff, 0xff, 0x44, 0xf4, 0xff, 0xff, 0x48, 0xf4, 0xff, 0xff,
  0x05, 0x00, 0x00, 0x00, 0x31, 0x2e, 0x35, 0x2e, 0x30, 0x00, 0x00, 0x00,
  0xbc, 0xf4, 0xff, 0xff, 0x08, 0x00, 0x00, 0x00, 0x07, 0x00, 0x00, 0x00,
  0x13, 0x00, 0x00, 0x00, 0x6d, 0x69, 0x6e, 0x5f, 0x72, 0x75, 0x6e, 0x74,
  0x69, 0x6d, 0x65, 0x5f, 0x76, 0x65, 0x72, 0x73, 0x69, 0x6f, 0x6e, 0x00,
  0x0c, 0x00, 0x14, 0x00, 0x04, 0x00, 0x08, 0x00, 0x0c, 0x00, 0x10, 0x00,
  0x0c, 0x00, 0x00, 0x00, 0x20, 0x00, 0x00, 0x00, 0x14, 0x00, 0x00, 0x00,
  0x08, 0x00, 0x00, 0x00, 0x28, 0x0b, 0x00, 0x00, 0x01, 0x00, 0x00, 0x00,
  0x00, 0x00, 0x00, 0x00, 0x01, 0x00, 0x00, 0x00, 0x01, 0x00, 0x00, 0x00,
  0x06, 0x00, 0x00, 0x00, 0x28, 0x0a, 0x00, 0x00, 0xb4, 0x0a, 0x00, 0x00,
  0xb0, 0x08, 0x00, 0x00, 0x04, 0x08, 0x00, 0x00, 0x4c, 0x0a, 0x00, 0x00,
  0x04, 0x00, 0x00, 0x00, 0x6e, 0xf5, 0xff, 0xff, 0x10, 0x00, 0x00, 0x00,
  0x06, 0x00, 0x00, 0x00, 0x14, 0x00, 0x00, 0x00, 0x50, 0x00, 0x00, 0x00,
  0x02, 0x00, 0x00, 0x00, 0x16, 0x00, 0x00, 0x00, 0x16, 0x00, 0x00, 0x00,
  0x38, 0x00, 0x00, 0x00, 0x73, 0x65, 0x71, 0x75, 0x65, 0x6e, 0x74, 0x69,
  0x61, 0x6c, 0x5f, 0x31, 0x32, 0x36, 0x2f, 0x64, 0x65, 0x6e, 0x73, 0x65,
  0x5f, 0x33, 0x31, 0x36, 0x2f, 0x4d, 0x61, 0x74, 0x4d, 0x75, 0x6c, 0x2f,
  0x52, 0x65, 0x61, 0x64, 0x56, 0x61, 0x72, 0x69, 0x61, 0x62, 0x6c, 0x65,
  0x4f, 0x70, 0x2f, 0x74, 0x72, 0x61, 0x6e, 0x73, 0x70, 0x6f, 0x73, 0x65,
  0x00, 0x00, 0x00, 0x00, 0x28, 0xf5, 0xff, 0xff, 0x90, 0x07, 0x00, 0x00,
  0xe8, 0x53, 0xd2, 0xbd, 0x40, 0xfb, 0xc9, 0xbb, 0x8c, 0x92, 0xc7, 0xbd,
  0x1f, 0x77, 0x9c, 0x3e, 0x56, 0x89, 0xac, 0xbe, 0x5e, 0xca, 0x83, 0xbe,
  0x50, 0x3a, 0x26, 0xbe, 0xb8, 0x93, 0x2e, 0x3d, 0xee, 0x2d, 0x72, 0x3e,
  0x48, 0xf5, 0x60, 0xbd, 0x38, 0xe9, 0xa1, 0xbd, 0x9d, 0x4a, 0x7b, 0xbe,
  0x09, 0xbb, 0xb0, 0xbe, 0x2e, 0x97, 0x95, 0xbe, 0x36, 0x90, 0x5d, 0x3e,
  0xc4, 0x10, 0xac, 0xbe, 0x0b, 0x8c, 0x9e, 0xbe, 0xae, 0x3c, 0x17, 0x3e,
  0xb8, 0x9b, 0x73, 0xbd, 0x40, 0x33, 0x26, 0x3d, 0x66, 0x6c, 0x41, 0x3e,
  0x18, 0x55, 0xa1, 0xbd, 0xc0, 0xad, 0x3f, 0x3d, 0xf8, 0xe9, 0xd6, 0xbd,
  0x9a, 0xc4, 0x35, 0x3e, 0x58, 0x10, 0x4c, 0xbd, 0x40, 0x09, 0x4d, 0xbe,
  0xe3, 0x02, 0xa3, 0xbe, 0x08, 0xa9, 0xcd, 0xbd, 0xa0, 0x97, 0x83, 0x3c,
  0x54, 0xc3, 0xba, 0xbe, 0x87, 0x84, 0x38, 0xbe, 0x74, 0xc0, 0xb3, 0xbd,
  0x2e, 0x0a, 0xa8, 0xbe, 0xc2, 0x1b, 0x7e, 0x3e, 0xe0, 0x86, 0x33, 0xbd,
  0x6d, 0x70, 0x83, 0x3e, 0xa0, 0xbb, 0xde, 0x3d, 0xd2, 0x34, 0x51, 0xbe,
  0x10, 0xb8, 0x7a, 0xbd, 0x00, 0x57, 0x53, 0xbb, 0xe1, 0x42, 0x9d, 0xbe,
  0x58, 0x36, 0x6d, 0xbd, 0x63, 0x60, 0xa5, 0x3e, 0x40, 0xa6, 0x56, 0x3c,
  0x86, 0x74, 0x72, 0x3e, 0xbf, 0xa8, 0xa8, 0xbe, 0xeb, 0xa3, 0x95, 0x3e,
  0x49, 0x17, 0xab, 0x3e, 0xe4, 0x5d, 0x0a, 0xbe, 0x59, 0x68, 0xbc, 0xbe,
  0x58, 0x6d, 0xcb, 0x3d, 0xef, 0x6f, 0xb5, 0x3e, 0xb6, 0x74, 0x13, 0x3e,
  0x1e, 0xea, 0x40, 0x3e, 0x54, 0x9c, 0xe4, 0xbd, 0x84, 0x6d, 0x8b, 0xbd,
  0x72, 0x28, 0x0c, 0x3e, 0x0e, 0x86, 0x81, 0xbe, 0x98, 0x5c, 0xb8, 0x3d,
  0x70, 0xb4, 0x97, 0x3c, 0xa8, 0x3c, 0x90, 0xbe, 0xc3, 0x41, 0x98, 0x3e,
  0xa5, 0x89, 0xac, 0xbe, 0x08, 0x20, 0x5e, 0x3d, 0xb4, 0xac, 0x79, 0xbe,
  0x40, 0x49, 0x55, 0x3c, 0x00, 0x0f, 0xaf, 0x3a, 0x44, 0x22, 0x9f, 0x3d,
  0x80, 0x85, 0x17, 0x3d, 0x3a, 0xf2, 0x89, 0xbe, 0x10, 0x12, 0xa0, 0x3d,
  0x50, 0x5a, 0x6b, 0xbe, 0x2f, 0x0a, 0x9c, 0x3e, 0xd2, 0x27, 0x81, 0xbe,
  0x99, 0xe1, 0xb9, 0xbe, 0x99, 0x32, 0x93, 0x3e, 0x00, 0xbe, 0xed, 0x3a,
  0x86, 0xa4, 0x65, 0x3e, 0xa1, 0x2a, 0xaf, 0x3e, 0x00, 0x1f, 0x97, 0xbd,
  0x85, 0x0a, 0xa3, 0x3e, 0x2f, 0xa2, 0xbb, 0xbe, 0x39, 0x42, 0x9e, 0xbe,
  0x9d, 0x53, 0x1a, 0xbe, 0xc0, 0xf8, 0xb3, 0xbe, 0xc3, 0x61, 0x9c, 0xbe,
  0x20, 0x7d, 0x2e, 0xbe, 0x99, 0xaf, 0xb2, 0xbe, 0x98, 0x5a, 0x12, 0xbd,
  0xb8, 0xf5, 0xa7, 0xbe, 0xe7, 0x24, 0xb6, 0x3e, 0xdd, 0xf5, 0xb9, 0x3e,
  0x00, 0xed, 0x8f, 0x3a, 0xa0, 0x8e, 0xc3, 0xbd, 0xc3, 0xe4, 0x9a, 0xbe,
  0xf7, 0x15, 0xa0, 0x3e, 0xc3, 0x89, 0xb3, 0x3e, 0xc1, 0xeb, 0x8a, 0x3e,
  0x8f, 0x8f, 0x9d, 0x3e, 0xc9, 0x0d, 0x89, 0x3e, 0x01, 0x62, 0x99, 0xbe,
  0x3a, 0x0d, 0x46, 0x3e, 0xd4, 0x6e, 0xc3, 0xbd, 0xf0, 0xa5, 0x94, 0x3c,
  0x24, 0xb5, 0xb2, 0x3d, 0xd1, 0x4f, 0xb0, 0x3e, 0x18, 0x25, 0x8d, 0x3d,
  0x25, 0x69, 0x1f, 0xbe, 0x1b, 0xae, 0x8f, 0x3e, 0x78, 0xdf, 0xa0, 0xbd,
  0xb6, 0xde, 0x2d, 0x3e, 0x32, 0x65, 0x59, 0xbe, 0x6e, 0x5c, 0x48, 0xbe,
  0x74, 0x15, 0xa5, 0xbe, 0x92, 0xe6, 0x2d, 0x3e, 0x4c, 0x1b, 0xa1, 0x3d,
  0x68, 0x8c, 0x5f, 0xbd, 0xb2, 0xba, 0x2d, 0x3e, 0x7e, 0x8b, 0x7d, 0x3e,
  0xb8, 0x93, 0xa7, 0xbd, 0x95, 0xc9, 0xbb, 0xbe, 0xc0, 0xeb, 0x76, 0x3d,
  0x42, 0x08, 0x27, 0x3e, 0x0e, 0xbb, 0x7d, 0xbe, 0xf7, 0x99, 0x3e, 0xbe,
  0x7d, 0x94, 0xa0, 0xbe, 0x16, 0xce, 0x40, 0x3e, 0xba, 0x8a, 0x7c, 0xbe,
  0xce, 0x65, 0x42, 0xbe, 0xd7, 0x15, 0x02, 0xbe, 0xe0, 0x2b, 0xbc, 0xbc,
  0x54, 0x7d, 0xb1, 0x3d, 0x1e, 0x84, 0x2a, 0x3e, 0x40, 0x7e, 0xc2, 0xbd,
  0xfb, 0x51, 0x8a, 0x3e, 0x32, 0x53, 0x50, 0xbe, 0x34, 0x8d, 0xc4, 0xbd,
  0x25, 0x37, 0x30, 0xbe, 0x08, 0x56, 0x38, 0x3d, 0xb1, 0x3b, 0xa1, 0x3e,
  0x8a, 0x88, 0x0f, 0x3e, 0xe0, 0x74, 0xa7, 0x3c, 0xb8, 0xf3, 0x48, 0x3d,
  0x95, 0x1f, 0xb5, 0x3e, 0x38, 0xec, 0x9b, 0xbd, 0xd2, 0xc8, 0x77, 0x3e,
  0x01, 0x4a, 0x5e, 0xbe, 0x58, 0x4c, 0xc6, 0x3d, 0x8e, 0xca, 0xb5, 0xbe,
  0x87, 0xab, 0x75, 0xbe, 0xa6, 0x78, 0x8e, 0xbe, 0xe0, 0x74, 0x83, 0x3c,
  0x76, 0x5c, 0x07, 0xbe, 0x76, 0x93, 0x3b, 0xbe, 0x80, 0x68, 0x83, 0xbe,
  0x4a, 0x18, 0x3f, 0x3e, 0x02, 0x70, 0x2f, 0x3e, 0xcf, 0x43, 0xbc, 0x3e,
  0x40, 0x2a, 0x88, 0xbe, 0x14, 0xe7, 0x6d, 0xbe, 0x6a, 0x06, 0x45, 0xbe,
  0xb9, 0x7b, 0xb9, 0xbe, 0x0a, 0xca, 0x0e, 0x3e, 0x55, 0xbb, 0x99, 0x3e,
  0x6a, 0x21, 0x1d, 0xbe, 0x94, 0xfd, 0x41, 0xbe, 0xc4, 0x88, 0xc8, 0xbd,
  0x7e, 0x12, 0x44, 0x3e, 0x94, 0xbd, 0x3f, 0xbe, 0x98, 0x54, 0x65, 0xbe,
  0x80, 0xf9, 0x7d, 0xbb, 0xfc, 0xe5, 0x9c, 0xbd, 0x66, 0x77, 0x61, 0xbe,
  0x6c, 0x91, 0x8e, 0x3d, 0x80, 0x7e, 0xa1, 0x3d, 0xcc, 0x62, 0xfd, 0x3d,
  0x67, 0xbc, 0xaa, 0x3e, 0xbe, 0xe4, 0x0e, 0x3e, 0x59, 0x09, 0x91, 0xbe,
  0x5a, 0x87, 0x56, 0x3e, 0x4f, 0xea, 0x6e, 0xbe, 0x6f, 0x27, 0x8d, 0xbe,
  0xcc, 0xb4, 0xa6, 0xbe, 0xee, 0x53, 0x59, 0xbe, 0x3f, 0x17, 0xb1, 0x3e,
  0x9e, 0xfb, 0x3d, 0xbe, 0xda, 0xcb, 0x56, 0xbe, 0xf4, 0x49, 0x67, 0xbe,
  0x0c, 0x6a, 0x98, 0x3d, 0xc2, 0x03, 0x49, 0xbe, 0xfb, 0xd7, 0xa0, 0x3e,
  0x7d, 0xe1, 0x42, 0xbe, 0xc8, 0xfd, 0xc9, 0xbd, 0x64, 0xbd, 0x47, 0xbe,
  0x7a, 0xd2, 0x34, 0x3e, 0xed, 0x47, 0x01, 0xbe, 0xe8, 0xa7, 0x8c, 0xbd,
  0xb3, 0xd6, 0x8a, 0x3e, 0x90, 0x17, 0x76, 0xbe, 0xc1, 0x02, 0xb4, 0xbe,
  0x87, 0x8e, 0xa9, 0x3e, 0x8d, 0x66, 0x9d, 0x3e, 0xa1, 0xa4, 0x87, 0x3e,
  0x1e, 0xa9, 0x65, 0x3e, 0xcd, 0x99, 0x75, 0xbe, 0xed, 0x5e, 0xac, 0x3e,
  0x60, 0xf9, 0xbe, 0xbc, 0xc1, 0x9d, 0x9e, 0xbe, 0xd9, 0xb3, 0xbc, 0x3e,
  0xb8, 0xa1, 0xea, 0xbd, 0xb0, 0x50, 0xbb, 0x3c, 0xa3, 0x5c, 0xb0, 0x3e,
  0xc8, 0xaf, 0x05, 0xbe, 0x20, 0x01, 0x0c, 0x3d, 0xfc, 0xb5, 0x85, 0x3d,
  0x7f, 0xa2, 0xa4, 0x3e, 0xce, 0x9e, 0x74, 0x3e, 0x23, 0xf3, 0xa2, 0x3e,
  0x1b, 0xf4, 0x9f, 0x3e, 0x16, 0x7c, 0x34, 0x3e, 0x22, 0xfb, 0x62, 0x3e,
  0xa0, 0x3a, 0xbb, 0xbd, 0x20, 0x12, 0x2b, 0xbc, 0x17, 0x56, 0x89, 0x3e,
  0xe0, 0xee, 0x43, 0xbe, 0x92, 0x0a, 0x72, 0xbe, 0xb2, 0x80, 0x46, 0x3e,
  0x8a, 0xbc, 0x8a, 0xbe, 0x9a, 0x3d, 0x0d, 0x3e, 0x67, 0xb2, 0x18, 0xbe,
  0x30, 0xb2, 0x40, 0x3d, 0xc3, 0xb7, 0x9f, 0x3e, 0x5a, 0xe0, 0x43, 0x3e,
  0x24, 0x3b, 0x28, 0xbe, 0x3a, 0x74, 0x4b, 0x3e, 0x0c, 0x7a, 0xb3, 0xbd,
  0xc3, 0xb8, 0x2c, 0xbe, 0xef, 0x2e, 0x88, 0x3e, 0xea, 0x45, 0x57, 0x3e,
  0x00, 0x31, 0x52, 0x3d, 0xd4, 0xa5, 0xef, 0x3d, 0xa0, 0x0f, 0xc4, 0x3c,
  0xfe, 0xe5, 0x78, 0x3e, 0x97, 0x53, 0xb6, 0xbe, 0xe0, 0x73, 0x18, 0xbc,
  0x70, 0x40, 0xa3, 0xbc, 0x02, 0xee, 0x50, 0x3e, 0xb7, 0x0c, 0x78, 0xbe,
  0x16, 0xbb, 0x69, 0x3e, 0xab, 0x74, 0x6f, 0xbe, 0x77, 0x22, 0x9d, 0x3e,
  0x69, 0xc5, 0x95, 0x3e, 0xba, 0x91, 0x40, 0x3e, 0xa0, 0xd4, 0x35, 0xbd,
  0xd6, 0x9b, 0x19, 0x3e, 0x5a, 0xa6, 0x23, 0xbe, 0x3f, 0x21, 0x28, 0xbe,
  0x7a, 0x5b, 0x61, 0x3e, 0x46, 0xfe, 0x41, 0x3e, 0x50, 0x69, 0x78, 0xbd,
  0x94, 0xf1, 0x97, 0xbd, 0xb0, 0x37, 0xed, 0x3d, 0x27, 0x56, 0xb1, 0x3e,
  0x7a, 0xc2, 0x81, 0xbe, 0x86, 0x39, 0x9c, 0xbe, 0x90, 0xd9, 0x77, 0x3d,
  0xc8, 0x4f, 0x18, 0x3d, 0xb0, 0x2a, 0x14, 0x3d, 0x9a, 0xc3, 0x91, 0xbe,
  0xfc, 0xb9, 0xa0, 0xbd, 0xaa, 0x59, 0x6f, 0x3e, 0x58, 0x5e, 0x56, 0xbd,
  0x62, 0xa4, 0x05, 0x3e, 0x03, 0x53, 0xb8, 0x3e, 0xb6, 0xce, 0x5f, 0xbe,
  0x8e, 0x69, 0x55, 0x3e, 0xd7, 0x85, 0x3e, 0xbe, 0x28, 0x45, 0xb8, 0xbd,
  0x88, 0x48, 0x75, 0xbd, 0x4c, 0xfe, 0xbc, 0x3d, 0x30, 0x17, 0xf9, 0x3d,
  0x00, 0x8e, 0x1f, 0xbd, 0xdb, 0x51, 0xb7, 0x3e, 0x91, 0x04, 0x49, 0xbe,
  0x22, 0x74, 0x53, 0x3e, 0x80, 0x4d, 0x40, 0xbc, 0x30, 0xbb, 0xac, 0xbe,
  0x8c, 0xc7, 0xc2, 0xbd, 0xbf, 0xc4, 0x83, 0x3e, 0xa0, 0x4d, 0x0e, 0xbc,
  0xa0, 0xd3, 0x00, 0xbd, 0x16, 0x92, 0x56, 0x3e, 0x1e, 0x73, 0x87, 0xbe,
  0x1f, 0xa2, 0x8f, 0x3e, 0x70, 0x6a, 0xf2, 0x3c, 0x1b, 0xbb, 0xaa, 0xbe,
  0xa8, 0x2a, 0x66, 0xbe, 0x9c, 0x73, 0x3c, 0xbe, 0x86, 0x4f, 0x5c, 0x3e,
  0xb0, 0xce, 0xee, 0xbd, 0x8c, 0x7b, 0x92, 0x3d, 0xf0, 0x6b, 0xc2, 0xbc,
  0x8d, 0x49, 0x9a, 0x3e, 0xc3, 0x61, 0xb6, 0x3e, 0xc8, 0x7a, 0x9b, 0xbe,
  0x60, 0xe5, 0x2f, 0xbe, 0x17, 0x1d, 0x01, 0xbe, 0xc0, 0xd7, 0xc5, 0xbd,
  0x90, 0xbc, 0x83, 0x3c, 0xfa, 0xe1, 0x35, 0x3e, 0x04, 0x06, 0x21, 0xbe,
  0xb6, 0x13, 0x64, 0x3e, 0x6b, 0x6b, 0xa0, 0x3e, 0x18, 0x9f, 0xe1, 0x3d,
  0x68, 0x04, 0x4a, 0xbe, 0x15, 0x71, 0x26, 0xbe, 0xa7, 0xc5, 0x42, 0xbe,
  0xfd, 0x39, 0xac, 0x3e, 0xc8, 0xea, 0x15, 0x3d, 0x6b, 0xef, 0xa9, 0x3e,
  0xec, 0x97, 0xb9, 0x3d, 0x42, 0x9d, 0x23, 0x3e, 0xa9, 0x35, 0xac, 0x3e,
  0xc4, 0x36, 0x8f, 0xbd, 0xbd, 0x16, 0xb2, 0x3e, 0x18, 0xa8, 0x72, 0xbd,
  0x49, 0x88, 0x3f, 0xbe, 0x77, 0xf4, 0x88, 0xbe, 0x8f, 0xd9, 0x92, 0x3e,
  0x56, 0xd8, 0x7e, 0x3e, 0x60, 0x72, 0x54, 0x3d, 0x59, 0x12, 0xa5, 0x3e,
  0x6a, 0x69, 0x01, 0xbe, 0x57, 0x65, 0x97, 0xbe, 0x36, 0x49, 0x6e, 0xbe,
  0xaf, 0xaf, 0x8a, 0x3e, 0x20, 0xae, 0x3d, 0x3c, 0xc4, 0x7a, 0xe2, 0x3d,
  0x90, 0x8e, 0x74, 0xbe, 0xd2, 0x5e, 0x69, 0x3e, 0x46, 0xa6, 0xb4, 0xbe,
  0xc6, 0xfe, 0x48, 0x3e, 0x09, 0x40, 0xa2, 0x3e, 0xe6, 0x45, 0x29, 0x3e,
  0x42, 0xe2, 0x03, 0x3e, 0xa3, 0x66, 0x10, 0xbe, 0xeb, 0x40, 0x9a, 0xbe,
  0x54, 0x67, 0x93, 0xbe, 0x09, 0x90, 0xa3, 0x3e, 0x8d, 0xcd, 0x86, 0x3e,
  0x34, 0xc6, 0xcc, 0xbd, 0x20, 0x2e, 0xfc, 0x3d, 0x51, 0x61, 0xa7, 0xbe,
  0x71, 0x4f, 0x12, 0xbe, 0xae, 0x06, 0x60, 0x3e, 0x18, 0xde, 0x95, 0x3d,
  0xb7, 0xca, 0x9b, 0xbe, 0xb4, 0x50, 0xa6, 0xbd, 0x59, 0x95, 0x15, 0xbe,
  0xc0, 0x77, 0xb1, 0xbb, 0xb6, 0x78, 0x6d, 0xbe, 0xc0, 0xa3, 0xee, 0x3d,
  0x40, 0x29, 0xd4, 0xbc, 0x87, 0x3f, 0x94, 0x3e, 0x6a, 0x97, 0x5e, 0x3e,
  0x60, 0x62, 0xa8, 0xbd, 0x43, 0xae, 0x92, 0x3e, 0x20, 0xad, 0x25, 0xbd,
  0x02, 0xf8, 0x4b, 0x3e, 0x28, 0xf5, 0x8c, 0xbe, 0xf2, 0xae, 0x0e, 0xbe,
  0x91, 0xab, 0xbb, 0xbe, 0xc0, 0x07, 0xaf, 0xbb, 0x00, 0x83, 0xb4, 0x3b,
  0xda, 0x0e, 0x7b, 0x3e, 0x28, 0xe2, 0x62, 0xbd, 0xbc, 0xc6, 0x4c, 0xbe,
  0xce, 0xea, 0x1a, 0x3e, 0x9c, 0xc3, 0x86, 0xbd, 0x8f, 0x08, 0xb5, 0x3e,
  0xf8, 0xb7, 0x7b, 0x3d, 0x24, 0xf9, 0xfe, 0x3d, 0xea, 0x6f, 0x42, 0x3e,
  0xc0, 0x98, 0x90, 0xbb, 0x70, 0x7d, 0x54, 0xbd, 0xf0, 0x1f, 0xe3, 0x3c,
  0xe2, 0xd9, 0x60, 0x3e, 0xe0, 0x81, 0xdf, 0xbd, 0xf0, 0x70, 0xe4, 0xbd,
  0x29, 0x1c, 0x89, 0xbe, 0xfc, 0xde, 0x82, 0xbd, 0x5d, 0x9b, 0x89, 0x3e,
  0x3b, 0x0f, 0x83, 0x3e, 0xf4, 0x7c, 0x93, 0xbe, 0x40, 0xdb, 0x5a, 0x3d,
  0xe7, 0xa2, 0xb2, 0x3e, 0x24, 0x2b, 0xa1, 0xbe, 0xa0, 0xbe, 0x06, 0x3c,
  0x98, 0xff, 0xae, 0xbd, 0xa3, 0x78, 0x44, 0xbe, 0x30, 0xdf, 0xe5, 0x3c,
  0x86, 0x70, 0x23, 0x3e, 0x3c, 0x91, 0x9d, 0xbe, 0x37, 0xef, 0xaf, 0x3e,
  0x28, 0x40, 0xc9, 0xbd, 0x58, 0x07, 0xb7, 0xbd, 0x33, 0x9a, 0xb2, 0x3e,
  0xc2, 0x66, 0x05, 0xbe, 0x2e, 0x04, 0x0e, 0xbe, 0x3e, 0xc1, 0x3b, 0x3e,
  0xc5, 0xd8, 0x85, 0xbe, 0x61, 0x05, 0x94, 0x3e, 0xd4, 0xdb, 0x8f, 0xbd,
  0x98, 0x44, 0x4e, 0xbd, 0xee, 0xa3, 0xa0, 0xbe, 0xcb, 0x7d, 0xab, 0x3e,
  0xd6, 0x68, 0xb2, 0xbe, 0x00, 0x0e, 0xa3, 0x3b, 0xc6, 0x06, 0x97, 0xbe,
  0xd9, 0x1c, 0xb0, 0xbe, 0x6c, 0xe7, 0xed, 0xbd, 0x6c, 0x2e, 0x9c, 0xbe,
  0x38, 0x80, 0x28, 0xbe, 0xdc, 0xb1, 0xb9, 0x3d, 0xea, 0x79, 0x30, 0xbe,
  0xb2, 0x93, 0x37, 0x3e, 0xe9, 0xa3, 0x82, 0x3e, 0x82, 0x3d, 0x64, 0x3e,
  0x33, 0x59, 0x17, 0xbe, 0xaa, 0xdb, 0x56, 0x3e, 0xe0, 0x9a, 0x8a, 0x3c,
  0x48, 0xb8, 0x35, 0x3d, 0xae, 0xee, 0x58, 0x3e, 0xbc, 0xd8, 0xab, 0xbd,
  0x0c, 0xdb, 0xf4, 0xbd, 0x2d, 0x22, 0x9d, 0x3e, 0xd2, 0x04, 0x58, 0x3e,
  0x28, 0x48, 0x78, 0x3d, 0x00, 0x8a, 0xe4, 0x3c, 0x98, 0xec, 0xdd, 0xbd,
  0xcb, 0x88, 0x11, 0xbe, 0xdc, 0x63, 0x50, 0xbe, 0xef, 0xcc, 0x81, 0x3e,
  0x90, 0x03, 0xb6, 0xbd, 0x63, 0x29, 0x69, 0xbe, 0x58, 0x90, 0xbc, 0xbd,
  0x64, 0x16, 0xbe, 0x3d, 0x16, 0x5f, 0x79, 0xbe, 0x49, 0x77, 0x9a, 0x3e,
  0x1e, 0x4a, 0x70, 0x3e, 0x6e, 0x26, 0x67, 0x3e, 0x88, 0x59, 0xef, 0x3d,
  0xfc, 0x55, 0xd2, 0xbd, 0xa0, 0x7a, 0x87, 0xbe, 0x13, 0x9c, 0x92, 0x3e,
  0x4a, 0x59, 0xfc, 0xbd, 0x80, 0x11, 0xcd, 0x3b, 0xbe, 0x34, 0x43, 0x3e,
  0xb3, 0x13, 0x98, 0x3e, 0x9f, 0x96, 0x8e, 0x3e, 0x60, 0xad, 0x39, 0x3c,
  0x98, 0x8d, 0xf3, 0x3d, 0x20, 0x4a, 0x50, 0x3d, 0xb7, 0x12, 0x44, 0xbe,
  0xe7, 0x72, 0xb0, 0x3e, 0x3e, 0x69, 0x39, 0x3e, 0x9e, 0x03, 0x84, 0xbe,
  0xd8, 0xba, 0x6d, 0x3d, 0xf0, 0x16, 0xd2, 0x3d, 0x40, 0x11, 0x68, 0xbc,
  0x66, 0x15, 0x45, 0x3e, 0xb3, 0x7a, 0x82, 0x3e, 0x33, 0xe0, 0x91, 0x3e,
  0xaa, 0xf2, 0x04, 0x3e, 0x81, 0xd6, 0xa8, 0xbe, 0x5f, 0x8e, 0xa7, 0x3e,
  0x51, 0x75, 0x8d, 0xbe, 0xe0, 0xb0, 0x47, 0xbc, 0x80, 0x19, 0x6a, 0xbc,
  0x52, 0x92, 0x2b, 0x3e, 0x00, 0x65, 0x28, 0xbd, 0x80, 0x3d, 0x9d, 0xbe,
  0xd4, 0x25, 0x81, 0x3d, 0x66, 0xfd, 0xff, 0xff, 0x10, 0x00, 0x00, 0x00,
  0x05, 0x00, 0x00, 0x00, 0x10, 0x00, 0x00, 0x00, 0x38, 0x00, 0x00, 0x00,
  0x01, 0x00, 0x00, 0x00, 0x16, 0x00, 0x00, 0x00, 0x24, 0x00, 0x00, 0x00,
  0x73, 0x65, 0x71, 0x75, 0x65, 0x6e, 0x74, 0x69, 0x61, 0x6c, 0x5f, 0x31,
  0x32, 0x36, 0x2f, 0x64, 0x65, 0x6e, 0x73, 0x65, 0x5f, 0x33, 0x31, 0x35,
  0x2f, 0x4d, 0x61, 0x74, 0x4d, 0x75, 0x6c, 0x5f, 0x62, 0x69, 0x61, 0x73,
  0x00, 0x00, 0x00, 0x00, 0x08, 0xfd, 0xff, 0xff, 0x58, 0x00, 0x00, 0x00,
  0x00, 0x00, 0x00, 0x00, 0x00, 0x00, 0x00, 0x00, 0x00, 0x00, 0x00, 0x00,
  0x00, 0x00, 0x00, 0x00, 0x00, 0x00, 0x00, 0x00, 0x00, 0x00, 0x00, 0x00,
  0x00, 0x00, 0x00, 0x00, 0x00, 0x00, 0x00, 0x00, 0x00, 0x00, 0x00, 0x00,
  0x00, 0x00, 0x00, 0x00, 0x00, 0x00, 0x00, 0x00, 0x00, 0x00, 0x00, 0x00,
  0x00, 0x00, 0x00, 0x00, 0x00, 0x00, 0x00, 0x00, 0x00, 0x00, 0x00, 0x00,
  0x00, 0x00, 0x00, 0x00, 0x00, 0x00, 0x00, 0x00, 0x00, 0x00, 0x00, 0x00,
  0x00, 0x00, 0x00, 0x00, 0x00, 0x00, 0x00, 0x00, 0x00, 0x00, 0x00, 0x00,
  0x00, 0x00, 0x00, 0x00, 0x0e, 0xfe, 0xff, 0xff, 0x10, 0x00, 0x00, 0x00,
  0x04, 0x00, 0x00, 0x00, 0x14, 0x00, 0x00, 0x00, 0x50, 0x00, 0x00, 0x00,
  0x02, 0x00, 0x00, 0x00, 0x16, 0x00, 0x00, 0x00, 0x03, 0x00, 0x00, 0x00,
  0x38, 0x00, 0x00, 0x00, 0x73, 0x65, 0x71, 0x75, 0x65, 0x6e, 0x74, 0x69,
  0x61, 0x6c, 0x5f, 0x31, 0x32, 0x36, 0x2f, 0x64, 0x65, 0x6e, 0x73, 0x65,
  0x5f, 0x33, 0x31, 0x35, 0x2f, 0x4d, 0x61, 0x74, 0x4d, 0x75, 0x6c, 0x2f,
  0x52, 0x65, 0x61, 0x64, 0x56, 0x61, 0x72, 0x69, 0x61, 0x62, 0x6c, 0x65,
  0x4f, 0x70, 0x2f, 0x74, 0x72, 0x61, 0x6e, 0x73, 0x70, 0x6f, 0x73, 0x65,
  0x00, 0x00, 0x00, 0x00, 0xc8, 0xfd, 0xff, 0xff, 0x08, 0x01, 0x00, 0x00,
  0xc6, 0x29, 0xb3, 0xbe, 0x0c, 0xa3, 0xd7, 0xbd, 0x80, 0x39, 0xfb, 0xbd,
  0xf1, 0x70, 0x88, 0x3e, 0x39, 0x07, 0xea, 0x3e, 0x8f, 0xdd, 0xbc, 0x3e,
  0x3c, 0x08, 0xc6, 0xbd, 0x46, 0x68, 0x5f, 0xbe, 0xb3, 0x3d, 0xaf, 0xbe,
  0x01, 0x51, 0xb5, 0x3e, 0x2a, 0x0d, 0x6f, 0x3e, 0xe7, 0x54, 0x93, 0x3e,
  0xe5, 0xf0, 0x78, 0xbe, 0xa6, 0xdf, 0x19, 0x3e, 0x98, 0xd0, 0x1b, 0xbe,
  0x5f, 0xfb, 0xe6, 0xbe, 0x0c, 0xac, 0xae, 0x3d, 0x40, 0xfb, 0x15, 0x3c,
  0x15, 0xde, 0xe6, 0x3e, 0x0e, 0x57, 0x3b, 0x3e, 0x06, 0xe9, 0x42, 0x3e,
  0x7c, 0x77, 0x91, 0x3d, 0xc8, 0x99, 0x9f, 0xbe, 0xa8, 0xf0, 0xa5, 0xbe,
  0xf8, 0x6f, 0x7a, 0xbd, 0x12, 0xcd, 0x80, 0xbe, 0x97, 0x7d, 0xcb, 0x3e,
  0xe7, 0x52, 0xa3, 0x3e, 0xbe, 0x74, 0x63, 0x3e, 0xa4, 0xf3, 0xed, 0xbe,
  0x96, 0x2c, 0xc4, 0xbe, 0xfc, 0xd9, 0x3f, 0xbe, 0x5a, 0x27, 0x8e, 0xbe,
  0x37, 0x8c, 0x92, 0x3e, 0xcc, 0x86, 0x0a, 0xbe, 0x0e, 0xa3, 0xe7, 0xbe,
  0x72, 0x87, 0xa9, 0xbe, 0x90, 0x72, 0xb9, 0xbc, 0x4d, 0x15, 0xbe, 0x3e,
  0xc6, 0xd6, 0x0b, 0x3e, 0xa1, 0x07, 0x95, 0xbe, 0x06, 0x52, 0x7d, 0xbe,
  0xfa, 0x70, 0xaa, 0xbe, 0x7e, 0x8f, 0x8b, 0xbe, 0xae, 0xea, 0x1d, 0x3e,
  0x77, 0xe4, 0xa2, 0xbe, 0xa4, 0x23, 0x86, 0xbd, 0x26, 0x53, 0x42, 0xbe,
  0xb3, 0xf3, 0x87, 0x3e, 0xab, 0x4c, 0x8d, 0x3e, 0xb8, 0xed, 0xba, 0xbe,
  0xea, 0x89, 0x15, 0xbe, 0xde, 0xc5, 0x0a, 0xbe, 0x81, 0xa3, 0x9a, 0xbe,
  0x4a, 0x72, 0x03, 0x3e, 0x90, 0x3b, 0x8a, 0x3c, 0x83, 0xad, 0xc6, 0x3e,
  0xc9, 0x40, 0xc8, 0x3e, 0x8e, 0xc6, 0x04, 0x3e, 0x84, 0xc3, 0x9e, 0x3d,
  0x38, 0x49, 0x50, 0x3d, 0xe8, 0x6b, 0x2d, 0xbd, 0x22, 0x2e, 0x96, 0xbe,
  0xea, 0x84, 0x39, 0xbe, 0xba, 0xb4, 0x1d, 0x3e, 0x20, 0xeb, 0x2e, 0x3c,
  0x7e, 0xff, 0xff, 0xff, 0x10, 0x00, 0x00, 0x00, 0x03, 0x00, 0x00, 0x00,
  0x14, 0x00, 0x00, 0x00, 0x20, 0x00, 0x00, 0x00, 0x02, 0x00, 0x00, 0x00,
  0x01, 0x00, 0x00, 0x00, 0x16, 0x00, 0x00, 0x00, 0x08, 0x00, 0x00, 0x00,
  0x49, 0x64, 0x65, 0x6e, 0x74, 0x69, 0x74, 0x79, 0x00, 0x00, 0x00, 0x00,
  0x08, 0xff, 0xff, 0xff, 0xb2, 0xff, 0xff, 0xff, 0x10, 0x00, 0x00, 0x00,
  0x02, 0x00, 0x00, 0x00, 0x14, 0x00, 0x00, 0x00, 0x38, 0x00, 0x00, 0x00,
  0x02, 0x00, 0x00, 0x00, 0x01, 0x00, 0x00, 0x00, 0x16, 0x00, 0x00, 0x00,
  0x1d, 0x00, 0x00, 0x00, 0x73, 0x65, 0x71, 0x75, 0x65, 0x6e, 0x74, 0x69,
  0x61, 0x6c, 0x5f, 0x31, 0x32, 0x36, 0x2f, 0x64, 0x65, 0x6e, 0x73, 0x65,
  0x5f, 0x33, 0x31, 0x35, 0x2f, 0x52, 0x65, 0x6c, 0x75, 0x00, 0x00, 0x00,
  0x04, 0x00, 0x06, 0x00, 0x04, 0x00, 0x00, 0x00, 0x00, 0x00, 0x0e, 0x00,
  0x14, 0x00, 0x04, 0x00, 0x00, 0x00, 0x08, 0x00, 0x0c, 0x00, 0x10, 0x00,
  0x0e, 0x00, 0x00, 0x00, 0x10, 0x00, 0x00, 0x00, 0x01, 0x00, 0x00, 0x00,
  0x14, 0x00, 0x00, 0x00, 0x2c, 0x00, 0x00, 0x00, 0x02, 0x00, 0x00, 0x00,
  0x01, 0x00, 0x00, 0x00, 0x03, 0x00, 0x00, 0x00, 0x0f, 0x00, 0x00, 0x00,
  0x64, 0x65, 0x6e, 0x73, 0x65, 0x5f, 0x33, 0x31, 0x35, 0x5f, 0x69, 0x6e,
  0x70, 0x75, 0x74, 0x00, 0x08, 0x00, 0x0c, 0x00, 0x04, 0x00, 0x08, 0x00,
  0x08, 0x00, 0x00, 0x00, 0x10, 0x00, 0x00, 0x00, 0x04, 0x00, 0x00, 0x00,
  0x01, 0x00, 0x00, 0x00, 0x00, 0x00, 0x7f, 0x43, 0x01, 0x00, 0x00, 0x00,
  0x00, 0x00, 0x00, 0x00, 0x02, 0x00, 0x00, 0x00, 0x58, 0x00, 0x00, 0x00,
  0x04, 0x00, 0x00, 0x00, 0xc4, 0xff, 0xff, 0xff, 0x00, 0x00, 0x00, 0x08,
  0x10, 0x00, 0x00, 0x00, 0x1c, 0x00, 0x00, 0x00, 0x28, 0x00, 0x00, 0x00,
  0x1c, 0x00, 0x00, 0x00, 0x03, 0x00, 0x00, 0x00, 0x04, 0x00, 0x00, 0x00,
  0x05, 0x00, 0x00, 0x00, 0x03, 0x00, 0x00, 0x00, 0x01, 0x00, 0x00, 0x00,
  0x00, 0x00, 0x00, 0x00, 0x00, 0x00, 0x00, 0x00, 0x04, 0x00, 0x04, 0x00,
  0x04, 0x00, 0x00, 0x00, 0x14, 0x00, 0x18, 0x00, 0x00, 0x00, 0x08, 0x00,
  0x0c, 0x00, 0x07, 0x00, 0x10, 0x00, 0x00, 0x00, 0x00, 0x00, 0x14, 0x00,
  0x14, 0x00, 0x00, 0x00, 0x00, 0x00, 0x00, 0x08, 0x10, 0x00, 0x00, 0x00,
  0x1c, 0x00, 0x00, 0x00, 0x24, 0x00, 0x00, 0x00, 0x1c, 0x00, 0x00, 0x00,
  0x03, 0x00, 0x00, 0x00, 0x01, 0x00, 0x00, 0x00, 0x02, 0x00, 0x00, 0x00,
  0x03, 0x00, 0x00, 0x00, 0x01, 0x00, 0x00, 0x00, 0x04, 0x00, 0x00, 0x00,
  0x00, 0x00, 0x00, 0x00, 0xe2, 0xff, 0xff, 0xff, 0x00, 0x00, 0x00, 0x01,
  0x01, 0x00, 0x00, 0x00, 0x0c, 0x00, 0x00, 0x00, 0x00, 0x00, 0x06, 0x00,
  0x06, 0x00, 0x05, 0x00, 0x06, 0x00, 0x00, 0x00, 0x00, 0x09, 0x06, 0x00,
  0x08, 0x00, 0x07, 0x00, 0x06, 0x00, 0x00, 0x00, 0x00, 0x00, 0x00, 0x09
};
unsigned int ANN_Ah_22_tflite_len = 3312;
