unsigned char DNN_hybrid_12_tflite[] = {
  0x1c, 0x00, 0x00, 0x00, 0x54, 0x46, 0x4c, 0x33, 0x00, 0x00, 0x12, 0x00,
  0x1c, 0x00, 0x04, 0x00, 0x08, 0x00, 0x0c, 0x00, 0x10, 0x00, 0x14, 0x00,
  0x00, 0x00, 0x18, 0x00, 0x12, 0x00, 0x00, 0x00, 0x03, 0x00, 0x00, 0x00,
  0x80, 0x10, 0x00, 0x00, 0x10, 0x00, 0x00, 0x00, 0x1c, 0x00, 0x00, 0x00,
  0x2c, 0x00, 0x00, 0x00, 0x0c, 0x00, 0x00, 0x00, 0x01, 0x00, 0x00, 0x00,
  0xe0, 0x00, 0x00, 0x00, 0x01, 0x00, 0x00, 0x00, 0xa8, 0x00, 0x00, 0x00,
  0x0f, 0x00, 0x00, 0x00, 0x54, 0x4f, 0x43, 0x4f, 0x20, 0x43, 0x6f, 0x6e,
  0x76, 0x65, 0x72, 0x74, 0x65, 0x64, 0x2e, 0x00, 0x0b, 0x00, 0x00, 0x00,
  0x7c, 0x00, 0x00, 0x00, 0x74, 0x00, 0x00, 0x00, 0x6c, 0x00, 0x00, 0x00,
  0x64, 0x00, 0x00, 0x00, 0x5c, 0x00, 0x00, 0x00, 0x50, 0x00, 0x00, 0x00,
  0x3c, 0x00, 0x00, 0x00, 0x28, 0x00, 0x00, 0x00, 0x1c, 0x00, 0x00, 0x00,
  0x10, 0x00, 0x00, 0x00, 0x04, 0x00, 0x00, 0x00, 0xce, 0xff, 0xff, 0xff,
  0x50, 0x00, 0x00, 0x00, 0xd6, 0xff, 0xff, 0xff, 0x18, 0x01, 0x00, 0x00,
  0xde, 0xff, 0xff, 0xff, 0xa4, 0x01, 0x00, 0x00, 0xf6, 0xff, 0xff, 0xff,
  0x00, 0x05, 0x00, 0x00, 0x00, 0x00, 0x06, 0x00, 0x0a, 0x00, 0x04, 0x00,
  0x06, 0x00, 0x00, 0x00, 0x3c, 0x09, 0x00, 0x00, 0x00, 0x00, 0x06, 0x00,
  0x08, 0x00, 0x04, 0x00, 0x06, 0x00, 0x00, 0x00, 0xd0, 0x09, 0x00, 0x00,
  0xbc, 0xf0, 0xff, 0xff, 0xc0, 0xf0, 0xff, 0xff, 0xc4, 0xf0, 0xff, 0xff,
  0xc8, 0xf0, 0xff, 0xff, 0xcc, 0xf0, 0xff, 0xff, 0x05, 0x00, 0x00, 0x00,
  0x31, 0x2e, 0x35, 0x2e, 0x30, 0x00, 0x00, 0x00, 0x44, 0xf1, 0xff, 0xff,
  0x08, 0x00, 0x00, 0x00, 0x0a, 0x00, 0x00, 0x00, 0x13, 0x00, 0x00, 0x00,
  0x6d, 0x69, 0x6e, 0x5f, 0x72, 0x75, 0x6e, 0x74, 0x69, 0x6d, 0x65, 0x5f,
  0x76, 0x65, 0x72, 0x73, 0x69, 0x6f, 0x6e, 0x00, 0x0c, 0x00, 0x14, 0x00,
  0x04, 0x00, 0x08, 0x00, 0x0c, 0x00, 0x10, 0x00, 0x0c, 0x00, 0x00, 0x00,
  0x20, 0x00, 0x00, 0x00, 0x14, 0x00, 0x00, 0x00, 0x08, 0x00, 0x00, 0x00,
  0xa0, 0x0e, 0x00, 0x00, 0x01, 0x00, 0x00, 0x00, 0x00, 0x00, 0x00, 0x00,
  0x01, 0x00, 0x00, 0x00, 0x01, 0x00, 0x00, 0x00, 0x09, 0x00, 0x00, 0x00,
  0x58, 0x0d, 0x00, 0x00, 0x2c, 0x0e, 0x00, 0x00, 0xec, 0x08, 0x00, 0x00,
  0x5c, 0x08, 0x00, 0x00, 0xc4, 0x0d, 0x00, 0x00, 0xf0, 0x03, 0x00, 0x00,
  0x74, 0x0d, 0x00, 0x00, 0x84, 0x00, 0x00, 0x00, 0x04, 0x00, 0x00, 0x00,
  0x02, 0xf2, 0xff, 0xff, 0x10, 0x00, 0x00, 0x00, 0x09, 0x00, 0x00, 0x00,
  0x10, 0x00, 0x00, 0x00, 0x34, 0x00, 0x00, 0x00, 0x01, 0x00, 0x00, 0x00,
  0x0c, 0x00, 0x00, 0x00, 0x23, 0x00, 0x00, 0x00, 0x73, 0x65, 0x71, 0x75,
  0x65, 0x6e, 0x74, 0x69, 0x61, 0x6c, 0x5f, 0x37, 0x31, 0x2f, 0x64, 0x65,
  0x6e, 0x73, 0x65, 0x5f, 0x31, 0x37, 0x39, 0x2f, 0x4d, 0x61, 0x74, 0x4d,
  0x75, 0x6c, 0x5f, 0x62, 0x69, 0x61, 0x73, 0x00, 0x9c, 0xf1, 0xff, 0xff,
  0x30, 0x00, 0x00, 0x00, 0x00, 0x00, 0x00, 0x00, 0x00, 0x00, 0x00, 0x00,
  0x00, 0x00, 0x00, 0x00, 0x00, 0x00, 0x00, 0x00, 0x00, 0x00, 0x00, 0x00,
  0x00, 0x00, 0x00, 0x00, 0x00, 0x00, 0x00, 0x00, 0x00, 0x00, 0x00, 0x00,
  0x00, 0x00, 0x00, 0x00, 0x00, 0x00, 0x00, 0x00, 0x00, 0x00, 0x00, 0x00,
  0x00, 0x00, 0x00, 0x00, 0x7e, 0xf2, 0xff, 0xff, 0x10, 0x00, 0x00, 0x00,
  0x08, 0x00, 0x00, 0x00, 0x14, 0x00, 0x00, 0x00, 0x4c, 0x00, 0x00, 0x00,
  0x02, 0x00, 0x00, 0x00, 0x0c, 0x00, 0x00, 0x00, 0x10, 0x00, 0x00, 0x00,
  0x37, 0x00, 0x00, 0x00, 0x73, 0x65, 0x71, 0x75, 0x65, 0x6e, 0x74, 0x69,
  0x61, 0x6c, 0x5f, 0x37, 0x31, 0x2f, 0x64, 0x65, 0x6e, 0x73, 0x65, 0x5f,
  0x31, 0x37, 0x39, 0x2f, 0x4d, 0x61, 0x74, 0x4d, 0x75, 0x6c, 0x2f, 0x52,
  0x65, 0x61, 0x64, 0x56, 0x61, 0x72, 0x69, 0x61, 0x62, 0x6c, 0x65, 0x4f,
  0x70, 0x2f, 0x74, 0x72, 0x61, 0x6e, 0x73, 0x70, 0x6f, 0x73, 0x65, 0x00,
  0x30, 0xf2, 0xff, 0xff, 0x00, 0x03, 0x00, 0x00, 0x6e, 0x6a, 0xda, 0xbe,
  0x00, 0x6b, 0x91, 0x3c, 0x20, 0x0c, 0xfb, 0xbc, 0xcb, 0xfd, 0xd6, 0xbe,
  0x84, 0xc5, 0xd9, 0x3e, 0x0c, 0x90, 0x1a, 0x3e, 0xc0, 0x97, 0x34, 0x3c,
  0x6c, 0x69, 0xec, 0x3e, 0x00, 0xce, 0x86, 0x3b, 0x00, 0x18, 0xe0, 0xbc,
  0x64, 0x31, 0x9c, 0x3e, 0x90, 0xfe, 0xe5, 0x3d, 0x6a, 0xad, 0xb2, 0x3e,
  0x22, 0xab, 0x55, 0xbe, 0xe8, 0xb3, 0x11, 0x3e, 0xe0, 0x7a, 0xd6, 0x3e,
  0x0c, 0x1e, 0x49, 0x3e, 0x68, 0xf0, 0x26, 0xbe, 0xac, 0xd1, 0x34, 0xbe,
  0x8e, 0xbc, 0xb4, 0xbe, 0xf0, 0xae, 0x80, 0x3d, 0xe0, 0xde, 0x21, 0x3e,
  0x87, 0x8c, 0xb0, 0xbe, 0x28, 0x5c, 0x8f, 0x3d, 0x14, 0x05, 0x81, 0x3e,
  0xdc, 0x10, 0x86, 0xbe, 0x74, 0x0f, 0xdd, 0xbd, 0x3e, 0x5d, 0xc5, 0xbe,
  0xe2, 0xef, 0x86, 0x3e, 0xc3, 0x19, 0xb2, 0xbe, 0x74, 0xe6, 0xd4, 0xbe,
  0xf0, 0x47, 0x16, 0xbe, 0x30, 0x8c, 0xb8, 0x3d, 0x08, 0xf3, 0x85, 0x3e,
  0x8c, 0x54, 0xa1, 0x3e, 0xdc, 0x29, 0xa9, 0xbe, 0x28, 0xcc, 0x97, 0x3e,
  0xa0, 0x81, 0xac, 0xbc, 0x90, 0xc0, 0xc7, 0x3e, 0xe8, 0x5a, 0x10, 0xbd,
  0xf8, 0x4b, 0xb0, 0x3e, 0xf0, 0x20, 0xfd, 0x3c, 0x36, 0x97, 0xec, 0xbe,
  0x28, 0xeb, 0xbe, 0x3e, 0xfc, 0x18, 0x98, 0xbd, 0x90, 0xc2, 0x35, 0xbd,
  0x80, 0x63, 0xfd, 0xbb, 0x46, 0xcf, 0x89, 0x3e, 0x12, 0x45, 0xe8, 0x3e,
  0x7c, 0x36, 0xb4, 0xbe, 0x37, 0x73, 0xa9, 0xbe, 0x60, 0x67, 0x36, 0x3d,
  0x98, 0x17, 0xe5, 0x3e, 0x36, 0x2e, 0x34, 0xbe, 0x5c, 0x5b, 0xb9, 0x3e,
  0x7c, 0x15, 0x1e, 0x3e, 0x36, 0x1f, 0xad, 0xbe, 0x94, 0xc2, 0xc1, 0x3e,
  0xb2, 0xb6, 0xd2, 0x3e, 0xb6, 0xa7, 0x3d, 0xbe, 0xc0, 0x17, 0xaa, 0xbd,
  0x04, 0xe6, 0x2f, 0x3e, 0x94, 0xe0, 0x36, 0x3e, 0x1a, 0x09, 0x97, 0x3e,
  0xa0, 0x52, 0xb1, 0x3e, 0x68, 0xf6, 0xca, 0xbd, 0x40, 0x64, 0x95, 0xbc,
  0x45, 0xfc, 0xec, 0xbe, 0x58, 0xb2, 0xc1, 0xbd, 0x34, 0xac, 0x47, 0xbe,
  0xf9, 0xeb, 0x81, 0xbe, 0x98, 0xfa, 0x53, 0x3e, 0xf8, 0x17, 0x57, 0x3e,
  0xf0, 0x91, 0xa1, 0xbc, 0xf2, 0x4e, 0x25, 0xbe, 0xb0, 0x19, 0xa1, 0x3e,
  0xf0, 0xdb, 0x53, 0x3d, 0x4e, 0xff, 0xbc, 0x3e, 0x1c, 0xbc, 0xd0, 0x3e,
  0x60, 0x70, 0xa1, 0x3d, 0xf4, 0xaf, 0xce, 0x3e, 0xe8, 0x7e, 0xa0, 0x3d,
  0xbe, 0x92, 0x80, 0x3e, 0xc0, 0x98, 0xb9, 0x3d, 0x56, 0xb6, 0xac, 0xbe,
  0x18, 0xeb, 0x07, 0xbd, 0xfc, 0x0c, 0xf0, 0xbd, 0x72, 0x4d, 0x99, 0x3e,
  0xac, 0x7e, 0xbd, 0x3e, 0x8e, 0x21, 0xdb, 0xbe, 0xb8, 0x16, 0xb9, 0x3d,
  0x90, 0x16, 0x02, 0xbe, 0x5e, 0xc1, 0xaf, 0xbe, 0xa8, 0x39, 0xf6, 0x3d,
  0xea, 0x20, 0x48, 0xbe, 0xdc, 0xb5, 0xcc, 0x3e, 0xb8, 0x56, 0x9e, 0xbe,
  0x78, 0xe5, 0x83, 0xbe, 0xdd, 0x1d, 0xe7, 0xbe, 0xbc, 0x40, 0x51, 0xbe,
  0xd0, 0x74, 0x07, 0x3d, 0x3e, 0xca, 0x8d, 0x3e, 0x4c, 0x42, 0xd5, 0x3e,
  0x77, 0x98, 0x73, 0xbe, 0xf2, 0x13, 0xb9, 0x3e, 0xf8, 0x41, 0x6c, 0x3e,
  0xb0, 0x47, 0xd2, 0xbd, 0x20, 0x8e, 0xe0, 0x3e, 0x00, 0x98, 0xcb, 0x3e,
  0x48, 0xda, 0x82, 0xbe, 0xcc, 0xed, 0xdb, 0xbe, 0x99, 0xae, 0xa9, 0xbe,
  0xc1, 0xdd, 0x99, 0xbe, 0xc4, 0xee, 0xad, 0x3e, 0x78, 0x00, 0xa1, 0x3e,
  0x7c, 0x08, 0x0c, 0x3e, 0x7c, 0xa6, 0x13, 0x3e, 0x0e, 0x80, 0xcb, 0x3e,
  0xc4, 0x9d, 0x87, 0x3e, 0x50, 0xd3, 0x92, 0xbe, 0xf4, 0x58, 0xa8, 0x3e,
  0xde, 0x15, 0x3d, 0xbe, 0xd6, 0xdb, 0x0b, 0xbe, 0xf0, 0x24, 0x5b, 0xbe,
  0x0c, 0x23, 0xcf, 0xbd, 0xdc, 0x06, 0xe9, 0x3e, 0xc4, 0xd6, 0x7a, 0x3e,
  0x11, 0x88, 0x9b, 0xbe, 0xab, 0xad, 0xb0, 0xbe, 0x7c, 0x6e, 0x1a, 0xbe,
  0x18, 0x25, 0x1d, 0xbd, 0xe4, 0x60, 0xc1, 0xbe, 0x46, 0xbc, 0x69, 0xbe,
  0x8c, 0x0e, 0xbd, 0xbe, 0x62, 0x52, 0xa7, 0xbe, 0x50, 0x59, 0x90, 0x3d,
  0xe4, 0x50, 0x81, 0xbd, 0x3e, 0x53, 0x99, 0x3e, 0x70, 0xaf, 0xd8, 0xbe,
  0x58, 0xde, 0xe0, 0x3d, 0x1f, 0x97, 0x5c, 0xbe, 0x6a, 0xbf, 0x1c, 0xbe,
  0x79, 0x9f, 0x5d, 0xbe, 0x40, 0x2c, 0x18, 0x3e, 0xf8, 0xda, 0xb6, 0x3e,
  0xbf, 0xa1, 0xaf, 0xbe, 0x64, 0x37, 0x20, 0x3e, 0x80, 0x08, 0x2a, 0xbb,
  0x96, 0x88, 0x5d, 0xbe, 0x7a, 0x88, 0xbf, 0xbe, 0x22, 0xfd, 0xa6, 0x3e,
  0x82, 0xee, 0x2a, 0xbe, 0x90, 0xa2, 0x23, 0x3d, 0x06, 0xa7, 0x9f, 0xbe,
  0x98, 0xe8, 0x9a, 0x3d, 0x34, 0x88, 0xcd, 0xbd, 0x4a, 0xf6, 0xde, 0x3e,
  0x68, 0x6f, 0x02, 0x3e, 0x50, 0x12, 0x92, 0xbc, 0xd0, 0x16, 0x6b, 0xbd,
  0x60, 0x37, 0xab, 0x3e, 0x98, 0x7e, 0x28, 0x3e, 0x20, 0x41, 0x50, 0x3e,
  0xe4, 0x29, 0xd4, 0x3e, 0x08, 0x20, 0x2e, 0xbd, 0x20, 0xb7, 0x3d, 0x3c,
  0x40, 0x8c, 0x20, 0x3e, 0xcb, 0x29, 0x69, 0xbe, 0x9a, 0x64, 0xb0, 0x3e,
  0x14, 0x0a, 0x93, 0xbe, 0x58, 0x8b, 0x0e, 0xbe, 0xc0, 0x18, 0x4e, 0x3e,
  0x3c, 0xd3, 0xa0, 0x3e, 0x14, 0xaf, 0x44, 0x3e, 0x0c, 0x8f, 0x91, 0xbe,
  0x4c, 0x0b, 0xec, 0xbd, 0xa0, 0x04, 0x05, 0xbc, 0x44, 0xa2, 0x18, 0xbe,
  0x14, 0x0b, 0x84, 0xbd, 0x00, 0x41, 0xf2, 0xbb, 0x1e, 0xa6, 0x6e, 0xbe,
  0x20, 0x0e, 0x99, 0x3e, 0xb2, 0x42, 0x82, 0x3e, 0x87, 0x48, 0xad, 0xbe,
  0xd0, 0x95, 0xd7, 0xbd, 0xe5, 0x00, 0x93, 0xbe, 0x1b, 0x38, 0x99, 0xbe,
  0xe0, 0xb4, 0x09, 0x3c, 0x82, 0x8f, 0x89, 0x3e, 0x7e, 0xff, 0xc1, 0xbe,
  0x88, 0x23, 0x47, 0xbe, 0xc4, 0x7b, 0x83, 0x3e, 0xe2, 0xf5, 0xff, 0xff,
  0x10, 0x00, 0x00, 0x00, 0x07, 0x00, 0x00, 0x00, 0x14, 0x00, 0x00, 0x00,
  0x4c, 0x00, 0x00, 0x00, 0x02, 0x00, 0x00, 0x00, 0x10, 0x00, 0x00, 0x00,
  0x10, 0x00, 0x00, 0x00, 0x37, 0x00, 0x00, 0x00, 0x73, 0x65, 0x71, 0x75,
  0x65, 0x6e, 0x74, 0x69, 0x61, 0x6c, 0x5f, 0x37, 0x31, 0x2f, 0x64, 0x65,
  0x6e, 0x73, 0x65, 0x5f, 0x31, 0x37, 0x38, 0x2f, 0x4d, 0x61, 0x74, 0x4d,
  0x75, 0x6c, 0x2f, 0x52, 0x65, 0x61, 0x64, 0x56, 0x61, 0x72, 0x69, 0x61,
  0x62, 0x6c, 0x65, 0x4f, 0x70, 0x2f, 0x74, 0x72, 0x61, 0x6e, 0x73, 0x70,
  0x6f, 0x73, 0x65, 0x00, 0x94, 0xf5, 0xff, 0xff, 0x00, 0x04, 0x00, 0x00,
  0x4e, 0xa3, 0x43, 0x3e, 0xaa, 0x5e, 0x65, 0x3e, 0xc4, 0x52, 0x99, 0xbd,
  0x80, 0x97, 0x94, 0xbe, 0xe6, 0xd4, 0x68, 0x3e, 0xf0, 0x59, 0xb7, 0xbc,
  0x63, 0x4c, 0x8a, 0x3e, 0xca, 0xb0, 0x73, 0xbe, 0x6a, 0x21, 0x14, 0xbe,
  0xf5, 0x23, 0x99, 0x3e, 0x7c, 0xa4, 0xec, 0xbd, 0xf6, 0xc9, 0x89, 0xbe,
  0x8f, 0xe5, 0x83, 0x3e, 0x65, 0x9a, 0xcf, 0x3e, 0x22, 0xd1, 0x7c, 0x3e,
  0xa0, 0xfb, 0x71, 0x3c, 0x30, 0x93, 0xdf, 0xbc, 0x1d, 0xef, 0xb5, 0x3e,
  0xc5, 0x82, 0xa1, 0x3e, 0xa8, 0x13, 0x1a, 0xbd, 0xc0, 0x71, 0x34, 0xbc,
  0xdf, 0x03, 0x7e, 0xbe, 0x94, 0x6e, 0x09, 0xbe, 0x4e, 0xe3, 0x87, 0xbe,
  0x5b, 0x4d, 0xaa, 0x3e, 0xdb, 0xb5, 0xd8, 0xbe, 0x22, 0x8d, 0x74, 0x3e,
  0x66, 0xee, 0x86, 0xbe, 0xe2, 0x6e, 0xc6, 0xbe, 0x18, 0x5a, 0xb8, 0xbe,
  0xfa, 0x61, 0x9a, 0xbe, 0xb6, 0xc9, 0x5c, 0x3e, 0x45, 0x4c, 0x60, 0xbe,
  0x6f, 0x62, 0xa4, 0xbe, 0x40, 0xe5, 0x26, 0x3d, 0x9e, 0x19, 0xa4, 0xbe,
  0xbe, 0x4d, 0x1e, 0x3e, 0xb1, 0xcc, 0x76, 0xbe, 0x70, 0x17, 0xdc, 0xbe,
  0xf8, 0x9f, 0x32, 0xbd, 0xc0, 0x9e, 0x82, 0x3c, 0x22, 0xd8, 0x2c, 0xbe,
  0xa6, 0x59, 0x0e, 0x3e, 0xf0, 0xa9, 0x43, 0xbd, 0x72, 0xdc, 0x9c, 0xbe,
  0x8c, 0x67, 0x36, 0xbe, 0x76, 0x07, 0x55, 0xbe, 0xc7, 0x79, 0x95, 0x3e,
  0x8b, 0x1e, 0xcd, 0xbe, 0xb4, 0xe6, 0x99, 0x3d, 0x00, 0x30, 0x3b, 0xbe,
  0x4e, 0x80, 0x4e, 0x3e, 0x8c, 0xb2, 0x73, 0xbe, 0xea, 0xc9, 0x9d, 0xbe,
  0xaa, 0x42, 0x2f, 0xbe, 0xe0, 0x72, 0xd1, 0xbc, 0x55, 0x7e, 0x9b, 0x3e,
  0x40, 0x77, 0xa8, 0xbd, 0x84, 0x67, 0xc7, 0xbe, 0x9c, 0xb6, 0x42, 0xbe,
  0x72, 0xea, 0x3e, 0x3e, 0x3c, 0x64, 0xcd, 0x3d, 0xc1, 0x4c, 0x97, 0x3e,
  0xc0, 0xb4, 0xd1, 0xbd, 0x80, 0x46, 0x96, 0xbb, 0x22, 0xc5, 0x7b, 0x3e,
  0x4a, 0xb2, 0x51, 0xbe, 0xda, 0x9b, 0x61, 0x3e, 0xf0, 0xaa, 0x28, 0x3d,
  0x5f, 0x3b, 0xd3, 0x3e, 0xa8, 0x36, 0xb6, 0xbe, 0x56, 0x30, 0x1c, 0xbe,
  0xa6, 0x32, 0x32, 0x3e, 0xbe, 0x2d, 0x0f, 0xbe, 0xff, 0xe5, 0x86, 0x3e,
  0xc9, 0x86, 0xa5, 0xbe, 0x6a, 0x1b, 0x40, 0x3e, 0x64, 0x4f, 0x3b, 0xbe,
  0x76, 0xbb, 0x90, 0xbe, 0xde, 0x7d, 0x1a, 0xbe, 0xd0, 0x08, 0xaa, 0x3c,
  0xfc, 0x07, 0xfd, 0x3d, 0x10, 0xc8, 0x06, 0x3d, 0x10, 0x4d, 0xd0, 0x3c,
  0x38, 0x2d, 0xa2, 0xbe, 0x73, 0xf1, 0xda, 0x3e, 0x33, 0x07, 0xc8, 0x3e,
  0x2a, 0x62, 0x9c, 0xbe, 0xa8, 0x28, 0x25, 0xbe, 0xdc, 0x16, 0x91, 0xbd,
  0x48, 0x62, 0x10, 0xbd, 0x95, 0x55, 0x93, 0x3e, 0x88, 0xc7, 0x79, 0x3d,
  0xfc, 0xc1, 0x8e, 0xbe, 0x34, 0xe9, 0xce, 0x3d, 0xea, 0xaf, 0x54, 0x3e,
  0xca, 0x65, 0x19, 0x3e, 0x51, 0x40, 0xa1, 0x3e, 0xbc, 0x0c, 0xbd, 0xbe,
  0xb9, 0xc7, 0xa5, 0xbe, 0xf4, 0x8a, 0xba, 0xbe, 0xe1, 0x7e, 0x53, 0xbe,
  0xb6, 0x8c, 0x2e, 0x3e, 0x13, 0xc3, 0xc8, 0x3e, 0x7d, 0xff, 0x73, 0xbe,
  0xfd, 0x73, 0x68, 0xbe, 0xbf, 0x2a, 0x96, 0x3e, 0x15, 0x08, 0x87, 0x3e,
  0xf9, 0x46, 0xd4, 0xbe, 0xe2, 0xbf, 0x01, 0x3e, 0x71, 0x70, 0xa0, 0x3e,
  0xd4, 0xb2, 0x20, 0xbe, 0xb8, 0x76, 0x83, 0xbe, 0x8e, 0x38, 0x9a, 0xbe,
  0x20, 0x3c, 0x4b, 0xbe, 0x12, 0xb6, 0x38, 0x3e, 0xda, 0x2f, 0x15, 0xbe,
  0x6e, 0x12, 0x47, 0x3e, 0x13, 0x69, 0xdd, 0x3e, 0xa8, 0xf3, 0xac, 0xbe,
  0xe0, 0xda, 0x35, 0x3c, 0xbe, 0xc7, 0x3e, 0x3e, 0xbe, 0xeb, 0x5f, 0x3e,
  0x42, 0xfd, 0x89, 0xbe, 0xa4, 0x88, 0x2a, 0xbe, 0x20, 0xee, 0x75, 0xbe,
  0x61, 0xb6, 0xca, 0xbe, 0xd7, 0xc6, 0x6d, 0xbe, 0x64, 0xcf, 0x9b, 0xbd,
  0xe4, 0xe1, 0xdc, 0x3d, 0x50, 0xe9, 0x86, 0xbd, 0x33, 0xaf, 0xb6, 0x3e,
  0x4e, 0x31, 0x6c, 0x3e, 0x91, 0x39, 0x8f, 0x3e, 0x44, 0x7f, 0x99, 0x3d,
  0x40, 0x40, 0xc5, 0x3b, 0xa8, 0xca, 0xe7, 0xbd, 0x04, 0x67, 0x8b, 0x3d,
  0x20, 0xf2, 0xf1, 0x3c, 0x11, 0xfa, 0xd4, 0x3e, 0x05, 0x47, 0xaf, 0x3e,
  0x40, 0x94, 0x47, 0xbe, 0xbf, 0x2e, 0xb1, 0x3e, 0xe1, 0x13, 0xa6, 0x3e,
  0x35, 0xea, 0xb0, 0x3e, 0xea, 0x27, 0x1a, 0x3e, 0x20, 0x1f, 0xb8, 0xbe,
  0xd5, 0x42, 0x96, 0xbe, 0xe0, 0xb5, 0x88, 0xbd, 0xa0, 0xf0, 0x84, 0xbc,
  0x9d, 0xd2, 0xd6, 0xbe, 0x9a, 0x3b, 0x50, 0x3e, 0x11, 0x2c, 0x8b, 0x3e,
  0x68, 0x35, 0x06, 0x3d, 0xe8, 0xf2, 0x7e, 0xbd, 0x2c, 0x53, 0x81, 0xbd,
  0xf0, 0xc7, 0x6d, 0x3d, 0xde, 0x58, 0x1a, 0x3e, 0x80, 0x52, 0x33, 0x3d,
  0xed, 0x37, 0x89, 0x3e, 0x60, 0x9f, 0xba, 0xbc, 0xbc, 0x40, 0xab, 0xbe,
  0x40, 0xf7, 0xcb, 0xbb, 0x90, 0x27, 0x2a, 0x3d, 0x72, 0x68, 0xa7, 0xbe,
  0x4c, 0xb7, 0xac, 0x3d, 0x73, 0x01, 0x9b, 0x3e, 0x05, 0xa1, 0xcb, 0x3e,
  0xb0, 0xc3, 0x83, 0x3d, 0x00, 0xb6, 0xe0, 0xbd, 0xdb, 0xca, 0xa1, 0x3e,
  0x24, 0xb9, 0xb7, 0x3d, 0x18, 0x56, 0x34, 0xbd, 0xde, 0x4a, 0x2b, 0x3e,
  0x1f, 0xc1, 0x81, 0xbe, 0x7c, 0xaa, 0xad, 0x3d, 0xb1, 0xfa, 0x92, 0xbe,
  0x06, 0x37, 0x33, 0xbe, 0x36, 0x18, 0x87, 0xbe, 0x0c, 0x60, 0xa6, 0xbe,
  0xcb, 0x7a, 0x83, 0x3e, 0x0a, 0xed, 0x16, 0x3e, 0x1e, 0xbc, 0x34, 0x3e,
  0xeb, 0x40, 0xd5, 0x3e, 0x60, 0x07, 0x7f, 0xbd, 0x0d, 0xf2, 0xb8, 0x3e,
  0x41, 0xa2, 0x56, 0xbe, 0x85, 0x0c, 0xdc, 0x3e, 0xd0, 0x45, 0x87, 0xbe,
  0x84, 0x5d, 0xab, 0xbe, 0x36, 0x01, 0x2a, 0xbe, 0x8b, 0x65, 0xdc, 0x3e,
  0xdf, 0x87, 0x9e, 0xbe, 0x97, 0x7f, 0x8f, 0x3e, 0x27, 0x3b, 0x7f, 0xbe,
  0x6a, 0x74, 0x79, 0xbe, 0x43, 0x2f, 0xcc, 0xbe, 0x6d, 0xdc, 0x68, 0xbe,
  0x00, 0x40, 0xfb, 0xb7, 0x4e, 0x0b, 0x6b, 0x3e, 0xc6, 0x18, 0x28, 0xbe,
  0x3b, 0x16, 0xcd, 0x3e, 0xfc, 0x46, 0xdd, 0x3d, 0x00, 0xf0, 0xf3, 0x3c,
  0x80, 0x64, 0x5f, 0xbe, 0x87, 0x83, 0xba, 0x3e, 0x38, 0x30, 0x17, 0xbe,
  0xaa, 0x79, 0x8f, 0xbe, 0x3a, 0xa1, 0x48, 0x3e, 0xe3, 0x2e, 0x6c, 0xbe,
  0x6c, 0xf6, 0xcf, 0x3d, 0x07, 0xce, 0xbf, 0x3e, 0x05, 0xad, 0xd8, 0x3e,
  0xd4, 0x5b, 0xf4, 0x3d, 0xfc, 0xcb, 0xaa, 0xbe, 0x48, 0x1d, 0xca, 0xbd,
  0x22, 0xbf, 0x14, 0xbe, 0x52, 0x4a, 0x7d, 0x3e, 0xab, 0x3b, 0x8d, 0x3e,
  0x7a, 0xb9, 0x0e, 0x3e, 0x10, 0x20, 0x75, 0xbe, 0x64, 0xd6, 0xbf, 0xbe,
  0x00, 0x58, 0x6c, 0x3b, 0xae, 0xb6, 0x99, 0xbe, 0x37, 0xba, 0xa2, 0x3e,
  0x20, 0xba, 0xef, 0xbd, 0x6d, 0xd0, 0x9b, 0x3e, 0x27, 0x0d, 0x96, 0xbe,
  0x16, 0x4e, 0x0c, 0x3e, 0x50, 0x4e, 0xb5, 0xbd, 0x90, 0x80, 0xa3, 0xbe,
  0x9e, 0x8c, 0x2d, 0xbe, 0x0d, 0x7a, 0x98, 0x3e, 0x3e, 0x20, 0x5a, 0x3e,
  0x9f, 0xe8, 0x81, 0x3e, 0x94, 0x2a, 0xd3, 0xbe, 0x80, 0xdc, 0x0f, 0x3b,
  0xb8, 0x78, 0xc3, 0xbe, 0xe8, 0x95, 0x54, 0x3d, 0x6b, 0x22, 0xce, 0x3e,
  0xc4, 0xb5, 0x8e, 0xbd, 0x31, 0x48, 0xd7, 0x3e, 0x94, 0xcc, 0xc3, 0xbd,
  0xbc, 0xa4, 0x02, 0xbe, 0x9a, 0x3a, 0x38, 0x3e, 0xb1, 0x77, 0xb9, 0x3e,
  0xee, 0xfe, 0x0c, 0x3e, 0x82, 0x41, 0x3e, 0x3e, 0x44, 0x9d, 0xbd, 0xbe,
  0xf0, 0x9a, 0xc5, 0xbe, 0x46, 0x5b, 0x11, 0xbe, 0xd0, 0xc0, 0xca, 0xbc,
  0xf7, 0x52, 0x94, 0xbe, 0xa8, 0x2a, 0x9f, 0xbd, 0x5a, 0x53, 0x2d, 0x3e,
  0x28, 0xf8, 0x63, 0xbd, 0x46, 0xfa, 0xff, 0xff, 0x10, 0x00, 0x00, 0x00,
  0x06, 0x00, 0x00, 0x00, 0x10, 0x00, 0x00, 0x00, 0x34, 0x00, 0x00, 0x00,
  0x01, 0x00, 0x00, 0x00, 0x10, 0x00, 0x00, 0x00, 0x23, 0x00, 0x00, 0x00,
  0x73, 0x65, 0x71, 0x75, 0x65, 0x6e, 0x74, 0x69, 0x61, 0x6c, 0x5f, 0x37,
  0x31, 0x2f, 0x64, 0x65, 0x6e, 0x73, 0x65, 0x5f, 0x31, 0x37, 0x37, 0x2f,
  0x4d, 0x61, 0x74, 0x4d, 0x75, 0x6c, 0x5f, 0x62, 0x69, 0x61, 0x73, 0x00,
  0xe0, 0xf9, 0xff, 0xff, 0x40, 0x00, 0x00, 0x00, 0x00, 0x00, 0x00, 0x00,
  0x00, 0x00, 0x00, 0x00, 0x00, 0x00, 0x00, 0x00, 0x00, 0x00, 0x00, 0x00,
  0x00, 0x00, 0x00, 0x00, 0x00, 0x00, 0x00, 0x00, 0x00, 0x00, 0x00, 0x00,
  0x00, 0x00, 0x00, 0x00, 0x00, 0x00, 0x00, 0x00, 0x00, 0x00, 0x00, 0x00,
  0x00, 0x00, 0x00, 0x00, 0x00, 0x00, 0x00, 0x00, 0x00, 0x00, 0x00, 0x00,
  0x00, 0x00, 0x00, 0x00, 0x00, 0x00, 0x00, 0x00, 0x00, 0x00, 0x00, 0x00,
  0xd2, 0xfa, 0xff, 0xff, 0x10, 0x00, 0x00, 0x00, 0x05, 0x00, 0x00, 0x00,
  0x14, 0x00, 0x00, 0x00, 0x4c, 0x00, 0x00, 0x00, 0x02, 0x00, 0x00, 0x00,
  0x10, 0x00, 0x00, 0x00, 0x10, 0x00, 0x00, 0x00, 0x37, 0x00, 0x00, 0x00,
  0x73, 0x65, 0x71, 0x75, 0x65, 0x6e, 0x74, 0x69, 0x61, 0x6c, 0x5f, 0x37,
  0x31, 0x2f, 0x64, 0x65, 0x6e, 0x73, 0x65, 0x5f, 0x31, 0x37, 0x37, 0x2f,
  0x4d, 0x61, 0x74, 0x4d, 0x75, 0x6c, 0x2f, 0x52, 0x65, 0x61, 0x64, 0x56,
  0x61, 0x72, 0x69, 0x61, 0x62, 0x6c, 0x65, 0x4f, 0x70, 0x2f, 0x74, 0x72,
  0x61, 0x6e, 0x73, 0x70, 0x6f, 0x73, 0x65, 0x00, 0x84, 0xfa, 0xff, 0xff,
  0x00, 0x04, 0x00, 0x00, 0x5c, 0x9e, 0x84, 0xbe, 0x72, 0xe7, 0x1c, 0xbe,
  0xae, 0xf3, 0x2c, 0xbe, 0xcd, 0xa8, 0xce, 0xbe, 0x64, 0x65, 0xb7, 0x3d,
  0xc2, 0xf5, 0x6b, 0x3e, 0x81, 0x1c, 0xa2, 0x3e, 0xc4, 0x27, 0x9b, 0xbe,
  0xeb, 0x1d, 0x45, 0xbe, 0x30, 0x90, 0xc9, 0xbc, 0x67, 0x5d, 0xb9, 0xbe,
  0xc7, 0xfe, 0xcb, 0xbe, 0xb8, 0xac, 0xae, 0xbe, 0x39, 0x28, 0x92, 0x3e,
  0xfb, 0xc6, 0x89, 0xbe, 0x6a, 0x6c, 0xb0, 0xbe, 0x22, 0xda, 0x8f, 0xbe,
  0x00, 0x32, 0x6f, 0x3c, 0x69, 0x5d, 0x99, 0x3e, 0x7d, 0x42, 0xbc, 0x3e,
  0xe8, 0xc1, 0x7f, 0x3d, 0x91, 0xda, 0xd0, 0x3e, 0x43, 0xf9, 0x88, 0x3e,
  0xca, 0x6d, 0x10, 0x3e, 0x10, 0x51, 0xd6, 0x3c, 0x1d, 0x52, 0xb8, 0x3e,
  0xb9, 0x0e, 0x93, 0x3e, 0x60, 0x96, 0x05, 0x3d, 0x4b, 0xc6, 0x71, 0xbe,
  0xbc, 0x7d, 0x26, 0xbe, 0x7e, 0xe1, 0x3d, 0xbe, 0xef, 0xeb, 0xbd, 0x3e,
  0x64, 0x1f, 0xb3, 0x3d, 0x80, 0x05, 0x60, 0x3d, 0xf8, 0x0d, 0x0b, 0xbd,
  0x93, 0x2c, 0x85, 0x3e, 0xa7, 0x6a, 0xd3, 0x3e, 0x5f, 0xb7, 0x9c, 0xbe,
  0x2c, 0x41, 0xe7, 0x3d, 0x2d, 0xc6, 0xcb, 0xbe, 0x72, 0xca, 0xcc, 0xbe,
  0x1f, 0xc0, 0x8e, 0x3e, 0x05, 0x79, 0xbe, 0x3e, 0xe9, 0x56, 0x49, 0xbe,
  0x60, 0x11, 0x76, 0xbc, 0x46, 0x6d, 0x3e, 0xbe, 0x26, 0xf7, 0x9f, 0xbe,
  0xd4, 0x1e, 0xdd, 0xbd, 0x23, 0x6f, 0xcd, 0x3e, 0xbf, 0x83, 0xd2, 0xbe,
  0x69, 0x3c, 0xcb, 0xbe, 0xed, 0x58, 0x8e, 0x3e, 0xc6, 0xc1, 0x0c, 0xbe,
  0x53, 0xd2, 0xda, 0xbe, 0xfc, 0xaf, 0xd1, 0xbd, 0xbe, 0xe3, 0x0f, 0x3e,
  0x22, 0x1e, 0x18, 0x3e, 0x6c, 0xac, 0x67, 0xbe, 0x38, 0x36, 0x5b, 0x3d,
  0x40, 0x37, 0xbd, 0xbe, 0x3e, 0x24, 0x43, 0xbe, 0x19, 0x1b, 0xdb, 0xbe,
  0xc0, 0x44, 0x17, 0xbc, 0x4c, 0x52, 0x23, 0xbe, 0x30, 0xa2, 0x7f, 0x3d,
  0xd4, 0x7a, 0xdf, 0xbd, 0x6e, 0x37, 0x35, 0x3e, 0x9f, 0x66, 0x6b, 0xbe,
  0x26, 0xd0, 0x63, 0x3e, 0x56, 0xd8, 0x2a, 0xbe, 0xc0, 0x9b, 0xa1, 0x3b,
  0xf8, 0x67, 0xec, 0xbd, 0x68, 0x3e, 0x7b, 0xbd, 0xdc, 0x44, 0xd3, 0x3d,
  0x71, 0x7f, 0x4d, 0xbe, 0xf9, 0x63, 0x85, 0x3e, 0xa4, 0x4a, 0xad, 0x3d,
  0x80, 0xba, 0x3e, 0xbc, 0x58, 0x8a, 0x44, 0xbe, 0x25, 0x37, 0xd8, 0x3e,
  0x70, 0xe0, 0x09, 0xbe, 0x38, 0xb2, 0x8b, 0xbe, 0x6e, 0x51, 0x75, 0x3e,
  0xb6, 0xf5, 0x09, 0x3e, 0x39, 0x25, 0xca, 0x3e, 0x75, 0x50, 0xca, 0x3e,
  0xb0, 0x40, 0xed, 0xbd, 0x00, 0x2e, 0x75, 0xbb, 0x75, 0x3d, 0x96, 0x3e,
  0x46, 0xa9, 0x21, 0x3e, 0x91, 0x64, 0xd2, 0x3e, 0xb5, 0x23, 0xab, 0x3e,
  0x91, 0xa8, 0xb6, 0xbe, 0x2b, 0x37, 0xd7, 0xbe, 0x80, 0x24, 0x8b, 0x3b,
  0x84, 0xea, 0xef, 0xbd, 0xb8, 0x74, 0x00, 0xbd, 0x9b, 0x58, 0x6e, 0xbe,
  0x9c, 0xbe, 0x9b, 0x3d, 0xe0, 0x4a, 0xb1, 0x3c, 0x2a, 0x59, 0x6b, 0x3e,
  0xf4, 0xe3, 0xc7, 0xbe, 0x0c, 0xd2, 0xfa, 0xbd, 0xfe, 0x42, 0x1f, 0x3e,
  0xa3, 0x7a, 0xc8, 0x3e, 0x15, 0x0d, 0xc7, 0x3e, 0x10, 0x76, 0xa6, 0xbc,
  0x55, 0xaf, 0xca, 0x3e, 0x1f, 0x4e, 0xc3, 0xbe, 0x2c, 0x7a, 0x1b, 0xbe,
  0x86, 0xd9, 0x49, 0x3e, 0x6c, 0x19, 0x2f, 0xbe, 0x20, 0xd7, 0x46, 0x3d,
  0x14, 0x04, 0xeb, 0xbd, 0xed, 0x93, 0xb0, 0xbe, 0x23, 0xb4, 0x77, 0xbe,
  0x78, 0x23, 0xfc, 0xbd, 0xbe, 0xe2, 0xcb, 0xbe, 0x40, 0x40, 0xbd, 0x3c,
  0x0a, 0xec, 0x27, 0xbe, 0x94, 0x91, 0x9a, 0x3d, 0xe1, 0x60, 0xb2, 0x3e,
  0x88, 0x95, 0x46, 0xbd, 0xa9, 0xfd, 0x9a, 0x3e, 0x06, 0x4d, 0x3d, 0x3e,
  0xbd, 0xcf, 0xcf, 0x3e, 0xe5, 0x09, 0xc0, 0xbe, 0x3c, 0xb3, 0x94, 0xbd,
  0xb8, 0x1a, 0x8f, 0xbd, 0xb5, 0x9c, 0x93, 0xbe, 0x00, 0xca, 0xf5, 0x3b,
  0x60, 0xf7, 0x56, 0xbd, 0x30, 0x16, 0x34, 0xbe, 0xfc, 0x85, 0xb1, 0x3d,
  0x17, 0x6a, 0xb8, 0x3e, 0xf5, 0xae, 0x85, 0x3e, 0x2f, 0x4c, 0x64, 0xbe,
  0x86, 0x1f, 0x13, 0xbe, 0x04, 0xa5, 0xbe, 0xbd, 0x74, 0x07, 0x28, 0xbe,
  0xbb, 0x80, 0x80, 0x3e, 0xac, 0xb7, 0x97, 0xbd, 0xcd, 0x94, 0x88, 0xbe,
  0xaa, 0xde, 0x4c, 0x3e, 0x25, 0x95, 0x3d, 0xbe, 0x38, 0x0e, 0x7b, 0x3d,
  0x6c, 0xa6, 0x01, 0xbe, 0x42, 0x56, 0x49, 0xbe, 0x6e, 0x69, 0x2b, 0x3e,
  0x92, 0xd5, 0x4f, 0x3e, 0x00, 0x5d, 0x89, 0x3b, 0x41, 0xf6, 0xd8, 0xbe,
  0x24, 0xb1, 0x01, 0xbe, 0xbb, 0x74, 0xb7, 0x3e, 0x83, 0xa2, 0xa7, 0x3e,
  0x9a, 0xbe, 0x14, 0x3e, 0x38, 0xc4, 0xf3, 0xbd, 0x0f, 0xf8, 0xc4, 0xbe,
  0x41, 0x22, 0xd3, 0xbe, 0xb8, 0x97, 0x6f, 0xbd, 0x41, 0x6e, 0xcc, 0xbe,
  0x10, 0xbd, 0x64, 0x3d, 0xb2, 0xeb, 0x12, 0xbe, 0x3e, 0xca, 0x0d, 0x3e,
  0x9f, 0x7b, 0xbf, 0xbe, 0xab, 0x70, 0xae, 0x3e, 0xbc, 0xea, 0xc0, 0x3d,
  0xa1, 0x85, 0x9f, 0x3e, 0x2d, 0x1b, 0xb3, 0x3e, 0x55, 0xf0, 0x7d, 0xbe,
  0x3a, 0x63, 0x14, 0x3e, 0x44, 0xec, 0x26, 0xbe, 0xea, 0x40, 0xae, 0xbe,
  0x89, 0xc5, 0xc5, 0x3e, 0xc5, 0x6a, 0xd5, 0x3e, 0x22, 0xaf, 0x9d, 0xbe,
  0x30, 0x51, 0xe1, 0xbc, 0x3c, 0x6d, 0xce, 0xbe, 0x22, 0x01, 0x0d, 0x3e,
  0xc1, 0x04, 0xcb, 0x3e, 0x51, 0xd2, 0x6d, 0xbe, 0x95, 0x18, 0xb7, 0xbe,
  0x17, 0xda, 0x8e, 0x3e, 0x18, 0xf5, 0xf6, 0xbd, 0xcd, 0x40, 0xc7, 0xbe,
  0x68, 0xfc, 0x2e, 0xbe, 0x24, 0xdf, 0xbe, 0xbe, 0xa0, 0x2c, 0x12, 0xbd,
  0x51, 0xd5, 0xca, 0x3e, 0xaa, 0xa6, 0x56, 0x3e, 0xf8, 0x9e, 0x75, 0x3d,
  0xcf, 0xda, 0xc3, 0x3e, 0x80, 0x88, 0xd8, 0xbd, 0x6d, 0xe2, 0x81, 0x3e,
  0x40, 0x59, 0x9f, 0x3b, 0xa5, 0x10, 0x87, 0xbe, 0x39, 0xd4, 0x8d, 0x3e,
  0x29, 0xb9, 0xc9, 0x3e, 0x15, 0x8a, 0xac, 0x3e, 0xbe, 0x4e, 0x5f, 0x3e,
  0x3a, 0x6d, 0x8e, 0xbe, 0xb4, 0x9c, 0xfc, 0x3d, 0x0e, 0x0c, 0x4c, 0xbe,
  0x08, 0x92, 0x6b, 0xbe, 0x7e, 0x68, 0x2d, 0xbe, 0x75, 0xc2, 0xb4, 0x3e,
  0x45, 0x14, 0xa0, 0x3e, 0x74, 0x04, 0xab, 0xbe, 0x0c, 0x8b, 0xd6, 0x3d,
  0xea, 0x92, 0x1b, 0x3e, 0x37, 0x8c, 0x99, 0x3e, 0xd2, 0xd3, 0x72, 0x3e,
  0xee, 0x41, 0x74, 0x3e, 0x00, 0xf7, 0xb7, 0xbd, 0x04, 0x9a, 0xa3, 0xbe,
  0xe8, 0x4b, 0x0a, 0xbe, 0x50, 0x4b, 0xf7, 0x3c, 0xc8, 0x72, 0x50, 0xbe,
  0x79, 0xde, 0x81, 0x3e, 0x61, 0xd6, 0xa0, 0xbe, 0x2a, 0x4d, 0xb9, 0xbe,
  0x7c, 0xe4, 0xc5, 0xbd, 0x66, 0xb5, 0x4a, 0x3e, 0x42, 0x70, 0x51, 0x3e,
  0xa2, 0x7a, 0xb7, 0xbe, 0x3e, 0x1e, 0x6d, 0x3e, 0x0a, 0x6d, 0x78, 0x3e,
  0xcc, 0xba, 0xb9, 0xbe, 0x80, 0x3c, 0x32, 0x3d, 0x1c, 0x3c, 0x84, 0xbe,
  0x54, 0x4d, 0x8d, 0x3d, 0x30, 0x2c, 0x00, 0xbd, 0x40, 0x86, 0x92, 0x3b,
  0xc8, 0x4c, 0x57, 0x3d, 0x30, 0x12, 0x50, 0xbd, 0xcc, 0x23, 0xc3, 0x3d,
  0x10, 0x04, 0x08, 0x3d, 0x12, 0x72, 0x3e, 0x3e, 0x43, 0xb4, 0xd9, 0x3e,
  0xc4, 0x6d, 0xa2, 0x3d, 0xe1, 0x81, 0x71, 0xbe, 0x80, 0xc4, 0xb3, 0xbb,
  0x0a, 0xf4, 0x32, 0xbe, 0xd3, 0xab, 0x82, 0x3e, 0xc8, 0x82, 0x8c, 0xbe,
  0x48, 0x45, 0x0c, 0xbe, 0x70, 0x24, 0xcf, 0xbc, 0xde, 0xf1, 0x26, 0xbe,
  0xc1, 0x94, 0xdc, 0xbe, 0xef, 0xe6, 0xd2, 0xbe, 0xfa, 0x2f, 0x61, 0x3e,
  0x66, 0x12, 0x65, 0x3e, 0xec, 0xed, 0xc0, 0x3d, 0x43, 0xfe, 0xc8, 0x3e,
  0x38, 0x3b, 0x74, 0xbe, 0xa3, 0x9b, 0xba, 0x3e, 0x36, 0xff, 0xff, 0xff,
  0x10, 0x00, 0x00, 0x00, 0x04, 0x00, 0x00, 0x00, 0x14, 0x00, 0x00, 0x00,
  0x20, 0x00, 0x00, 0x00, 0x02, 0x00, 0x00, 0x00, 0x01, 0x00, 0x00, 0x00,
  0x0c, 0x00, 0x00, 0x00, 0x08, 0x00, 0x00, 0x00, 0x49, 0x64, 0x65, 0x6e,
  0x74, 0x69, 0x74, 0x79, 0x00, 0x00, 0x00, 0x00, 0xbc, 0xfe, 0xff, 0xff,
  0x6a, 0xff, 0xff, 0xff, 0x10, 0x00, 0x00, 0x00, 0x03, 0x00, 0x00, 0x00,
  0x14, 0x00, 0x00, 0x00, 0x34, 0x00, 0x00, 0x00, 0x02, 0x00, 0x00, 0x00,
  0x01, 0x00, 0x00, 0x00, 0x10, 0x00, 0x00, 0x00, 0x1c, 0x00, 0x00, 0x00,
  0x73, 0x65, 0x71, 0x75, 0x65, 0x6e, 0x74, 0x69, 0x61, 0x6c, 0x5f, 0x37,
  0x31, 0x2f, 0x64, 0x65, 0x6e, 0x73, 0x65, 0x5f, 0x31, 0x37, 0x38, 0x2f,
  0x52, 0x65, 0x6c, 0x75, 0x00, 0x00, 0x00, 0x00, 0x04, 0xff, 0xff, 0xff,
  0xb2, 0xff, 0xff, 0xff, 0x10, 0x00, 0x00, 0x00, 0x02, 0x00, 0x00, 0x00,
  0x14, 0x00, 0x00, 0x00, 0x38, 0x00, 0x00, 0x00, 0x02, 0x00, 0x00, 0x00,
  0x01, 0x00, 0x00, 0x00, 0x10, 0x00, 0x00, 0x00, 0x1c, 0x00, 0x00, 0x00,
  0x73, 0x65, 0x71, 0x75, 0x65, 0x6e, 0x74, 0x69, 0x61, 0x6c, 0x5f, 0x37,
  0x31, 0x2f, 0x64, 0x65, 0x6e, 0x73, 0x65, 0x5f, 0x31, 0x37, 0x37, 0x2f,
  0x52, 0x65, 0x6c, 0x75, 0x00, 0x00, 0x00, 0x00, 0x04, 0x00, 0x06, 0x00,
  0x04, 0x00, 0x00, 0x00, 0x00, 0x00, 0x0e, 0x00, 0x14, 0x00, 0x04, 0x00,
  0x00, 0x00, 0x08, 0x00, 0x0c, 0x00, 0x10, 0x00, 0x0e, 0x00, 0x00, 0x00,
  0x10, 0x00, 0x00, 0x00, 0x01, 0x00, 0x00, 0x00, 0x14, 0x00, 0x00, 0x00,
  0x2c, 0x00, 0x00, 0x00, 0x02, 0x00, 0x00, 0x00, 0x01, 0x00, 0x00, 0x00,
  0x10, 0x00, 0x00, 0x00, 0x0f, 0x00, 0x00, 0x00, 0x64, 0x65, 0x6e, 0x73,
  0x65, 0x5f, 0x31, 0x37, 0x37, 0x5f, 0x69, 0x6e, 0x70, 0x75, 0x74, 0x00,
  0x08, 0x00, 0x0c, 0x00, 0x04, 0x00, 0x08, 0x00, 0x08, 0x00, 0x00, 0x00,
  0x10, 0x00, 0x00, 0x00, 0x04, 0x00, 0x00, 0x00, 0x01, 0x00, 0x00, 0x00,
  0x00, 0x00, 0x7f, 0x43, 0x01, 0x00, 0x00, 0x00, 0x00, 0x00, 0x00, 0x00,
  0x03, 0x00, 0x00, 0x00, 0x98, 0x00, 0x00, 0x00, 0x44, 0x00, 0x00, 0x00,
  0x04, 0x00, 0x00, 0x00, 0x88, 0xff, 0xff, 0xff, 0x00, 0x00, 0x00, 0x08,
  0x10, 0x00, 0x00, 0x00, 0x1c, 0x00, 0x00, 0x00, 0x28, 0x00, 0x00, 0x00,
  0x1c, 0x00, 0x00, 0x00, 0x03, 0x00, 0x00, 0x00, 0x06, 0x00, 0x00, 0x00,
  0x07, 0x00, 0x00, 0x00, 0x08, 0x00, 0x00, 0x00, 0x01, 0x00, 0x00, 0x00,
  0x00, 0x00, 0x00, 0x00, 0x00, 0x00, 0x00, 0x00, 0x04, 0x00, 0x04, 0x00,
  0x04, 0x00, 0x00, 0x00, 0xc4, 0xff, 0xff, 0xff, 0x00, 0x00, 0x00, 0x08,
  0x10, 0x00, 0x00, 0x00, 0x1c, 0x00, 0x00, 0x00, 0x24, 0x00, 0x00, 0x00,
  0x1c, 0x00, 0x00, 0x00, 0x03, 0x00, 0x00, 0x00, 0x04, 0x00, 0x00, 0x00,
  0x05, 0x00, 0x00, 0x00, 0x03, 0x00, 0x00, 0x00, 0x01, 0x00, 0x00, 0x00,
  0x06, 0x00, 0x00, 0x00, 0x00, 0x00, 0x00, 0x00, 0x8e, 0xff, 0xff, 0xff,
  0x00, 0x00, 0x00, 0x01, 0x14, 0x00, 0x18, 0x00, 0x00, 0x00, 0x08, 0x00,
  0x0c, 0x00, 0x07, 0x00, 0x10, 0x00, 0x00, 0x00, 0x00, 0x00, 0x14, 0x00,
  0x14, 0x00, 0x00, 0x00, 0x00, 0x00, 0x00, 0x08, 0x10, 0x00, 0x00, 0x00,
  0x1c, 0x00, 0x00, 0x00, 0x24, 0x00, 0x00, 0x00, 0x1c, 0x00, 0x00, 0x00,
  0x03, 0x00, 0x00, 0x00, 0x01, 0x00, 0x00, 0x00, 0x02, 0x00, 0x00, 0x00,
  0x03, 0x00, 0x00, 0x00, 0x01, 0x00, 0x00, 0x00, 0x04, 0x00, 0x00, 0x00,
  0x00, 0x00, 0x00, 0x00, 0xde, 0xff, 0xff, 0xff, 0x00, 0x00, 0x00, 0x01,
  0x01, 0x00, 0x00, 0x00, 0x04, 0x00, 0x00, 0x00, 0xfa, 0xff, 0xff, 0xff,
  0x00, 0x09, 0x06, 0x00, 0x06, 0x00, 0x05, 0x00, 0x06, 0x00, 0x00, 0x00,
  0x00, 0x09, 0x06, 0x00, 0x08, 0x00, 0x07, 0x00, 0x06, 0x00, 0x00, 0x00,
  0x00, 0x00, 0x00, 0x09
};
unsigned int DNN_hybrid_12_tflite_len = 4300;
