unsigned char DNN_Ah_12_tflite[] = {
  0x1c, 0x00, 0x00, 0x00, 0x54, 0x46, 0x4c, 0x33, 0x00, 0x00, 0x12, 0x00,
  0x1c, 0x00, 0x04, 0x00, 0x08, 0x00, 0x0c, 0x00, 0x10, 0x00, 0x14, 0x00,
  0x00, 0x00, 0x18, 0x00, 0x12, 0x00, 0x00, 0x00, 0x03, 0x00, 0x00, 0x00,
  0x0c, 0x0b, 0x00, 0x00, 0x10, 0x00, 0x00, 0x00, 0x1c, 0x00, 0x00, 0x00,
  0x2c, 0x00, 0x00, 0x00, 0x0c, 0x00, 0x00, 0x00, 0x01, 0x00, 0x00, 0x00,
  0xec, 0x00, 0x00, 0x00, 0x01, 0x00, 0x00, 0x00, 0xb4, 0x00, 0x00, 0x00,
  0x0f, 0x00, 0x00, 0x00, 0x54, 0x4f, 0x43, 0x4f, 0x20, 0x43, 0x6f, 0x6e,
  0x76, 0x65, 0x72, 0x74, 0x65, 0x64, 0x2e, 0x00, 0x0c, 0x00, 0x00, 0x00,
  0x88, 0x00, 0x00, 0x00, 0x80, 0x00, 0x00, 0x00, 0x78, 0x00, 0x00, 0x00,
  0x70, 0x00, 0x00, 0x00, 0x68, 0x00, 0x00, 0x00, 0x5c, 0x00, 0x00, 0x00,
  0x48, 0x00, 0x00, 0x00, 0x34, 0x00, 0x00, 0x00, 0x28, 0x00, 0x00, 0x00,
  0x1c, 0x00, 0x00, 0x00, 0x10, 0x00, 0x00, 0x00, 0x04, 0x00, 0x00, 0x00,
  0xc6, 0xff, 0xff, 0xff, 0x58, 0x00, 0x00, 0x00, 0xce, 0xff, 0xff, 0xff,
  0x24, 0x01, 0x00, 0x00, 0xd6, 0xff, 0xff, 0xff, 0xb0, 0x01, 0x00, 0x00,
  0xde, 0xff, 0xff, 0xff, 0x34, 0x04, 0x00, 0x00, 0xf6, 0xff, 0xff, 0xff,
  0xc0, 0x04, 0x00, 0x00, 0x00, 0x00, 0x06, 0x00, 0x0a, 0x00, 0x04, 0x00,
  0x06, 0x00, 0x00, 0x00, 0x3c, 0x07, 0x00, 0x00, 0x00, 0x00, 0x06, 0x00,
  0x08, 0x00, 0x04, 0x00, 0x06, 0x00, 0x00, 0x00, 0xc0, 0x07, 0x00, 0x00,
  0x3c, 0xf6, 0xff, 0xff, 0x40, 0xf6, 0xff, 0xff, 0x44, 0xf6, 0xff, 0xff,
  0x48, 0xf6, 0xff, 0xff, 0x4c, 0xf6, 0xff, 0xff, 0x05, 0x00, 0x00, 0x00,
  0x31, 0x2e, 0x35, 0x2e, 0x30, 0x00, 0x00, 0x00, 0xc4, 0xf6, 0xff, 0xff,
  0x08, 0x00, 0x00, 0x00, 0x0b, 0x00, 0x00, 0x00, 0x13, 0x00, 0x00, 0x00,
  0x6d, 0x69, 0x6e, 0x5f, 0x72, 0x75, 0x6e, 0x74, 0x69, 0x6d, 0x65, 0x5f,
  0x76, 0x65, 0x72, 0x73, 0x69, 0x6f, 0x6e, 0x00, 0x0c, 0x00, 0x14, 0x00,
  0x04, 0x00, 0x08, 0x00, 0x0c, 0x00, 0x10, 0x00, 0x0c, 0x00, 0x00, 0x00,
  0x20, 0x00, 0x00, 0x00, 0x14, 0x00, 0x00, 0x00, 0x08, 0x00, 0x00, 0x00,
  0x20, 0x09, 0x00, 0x00, 0x01, 0x00, 0x00, 0x00, 0x00, 0x00, 0x00, 0x00,
  0x01, 0x00, 0x00, 0x00, 0x01, 0x00, 0x00, 0x00, 0x0a, 0x00, 0x00, 0x00,
  0xd8, 0x07, 0x00, 0x00, 0xac, 0x08, 0x00, 0x00, 0xdc, 0x06, 0x00, 0x00,
  0x5c, 0x06, 0x00, 0x00, 0x44, 0x08, 0x00, 0x00, 0xb0, 0x03, 0x00, 0x00,
  0x30, 0x03, 0x00, 0x00, 0xf0, 0x07, 0x00, 0x00, 0x84, 0x00, 0x00, 0x00,
  0x04, 0x00, 0x00, 0x00, 0x86, 0xf7, 0xff, 0xff, 0x10, 0x00, 0x00, 0x00,
  0x0a, 0x00, 0x00, 0x00, 0x10, 0x00, 0x00, 0x00, 0x34, 0x00, 0x00, 0x00,
  0x01, 0x00, 0x00, 0x00, 0x0c, 0x00, 0x00, 0x00, 0x23, 0x00, 0x00, 0x00,
  0x73, 0x65, 0x71, 0x75, 0x65, 0x6e, 0x74, 0x69, 0x61, 0x6c, 0x5f, 0x36,
  0x37, 0x2f, 0x64, 0x65, 0x6e, 0x73, 0x65, 0x5f, 0x31, 0x36, 0x39, 0x2f,
  0x4d, 0x61, 0x74, 0x4d, 0x75, 0x6c, 0x5f, 0x62, 0x69, 0x61, 0x73, 0x00,
  0x20, 0xf7, 0xff, 0xff, 0x30, 0x00, 0x00, 0x00, 0x00, 0x00, 0x00, 0x00,
  0x00, 0x00, 0x00, 0x00, 0x00, 0x00, 0x00, 0x00, 0x00, 0x00, 0x00, 0x00,
  0x00, 0x00, 0x00, 0x00, 0x00, 0x00, 0x00, 0x00, 0x00, 0x00, 0x00, 0x00,
  0x00, 0x00, 0x00, 0x00, 0x00, 0x00, 0x00, 0x00, 0x00, 0x00, 0x00, 0x00,
  0x00, 0x00, 0x00, 0x00, 0x00, 0x00, 0x00, 0x00, 0x02, 0xf8, 0xff, 0xff,
  0x10, 0x00, 0x00, 0x00, 0x09, 0x00, 0x00, 0x00, 0x14, 0x00, 0x00, 0x00,
  0x4c, 0x00, 0x00, 0x00, 0x02, 0x00, 0x00, 0x00, 0x0c, 0x00, 0x00, 0x00,
  0x0c, 0x00, 0x00, 0x00, 0x37, 0x00, 0x00, 0x00, 0x73, 0x65, 0x71, 0x75,
  0x65, 0x6e, 0x74, 0x69, 0x61, 0x6c, 0x5f, 0x36, 0x37, 0x2f, 0x64, 0x65,
  0x6e, 0x73, 0x65, 0x5f, 0x31, 0x36, 0x39, 0x2f, 0x4d, 0x61, 0x74, 0x4d,
  0x75, 0x6c, 0x2f, 0x52, 0x65, 0x61, 0x64, 0x56, 0x61, 0x72, 0x69, 0x61,
  0x62, 0x6c, 0x65, 0x4f, 0x70, 0x2f, 0x74, 0x72, 0x61, 0x6e, 0x73, 0x70,
  0x6f, 0x73, 0x65, 0x00, 0xb4, 0xf7, 0xff, 0xff, 0x40, 0x02, 0x00, 0x00,
  0x48, 0xbc, 0x8d, 0x3e, 0x30, 0xae, 0x8d, 0xbd, 0xf8, 0xe6, 0x9e, 0x3e,
  0x18, 0xb4, 0x34, 0xbe, 0x40, 0x04, 0x13, 0x3d, 0xe0, 0x51, 0xa5, 0x3d,
  0xd8, 0x51, 0xdd, 0xbe, 0xd0, 0x1b, 0xdd, 0xbe, 0xd4, 0x10, 0xc4, 0xbe,
  0xd0, 0x68, 0x8f, 0xbe, 0xa0, 0xc4, 0x85, 0xbd, 0xc0, 0x68, 0x65, 0xbd,
  0x68, 0x44, 0xac, 0x3e, 0xa0, 0x70, 0x80, 0xbd, 0xc0, 0xe6, 0x2a, 0x3d,
  0x28, 0xe1, 0x3a, 0xbe, 0x5c, 0x36, 0xf4, 0xbe, 0xa4, 0xe3, 0xda, 0x3e,
  0x3c, 0x1e, 0xb4, 0xbe, 0x00, 0x78, 0x8c, 0xbb, 0xd0, 0xdf, 0xf8, 0xbe,
  0x94, 0xc8, 0x94, 0x3e, 0x90, 0xe1, 0xc3, 0xbd, 0x78, 0xb8, 0x66, 0xbe,
  0xc8, 0x98, 0x1b, 0xbe, 0xd0, 0x86, 0x80, 0x3e, 0xb8, 0xd7, 0xb3, 0xbe,
  0xd8, 0x42, 0x88, 0x3e, 0x10, 0x1e, 0xab, 0xbe, 0x20, 0x4c, 0x80, 0x3d,
  0xd8, 0x1e, 0x15, 0x3e, 0x80, 0x64, 0x9f, 0x3d, 0xf0, 0x83, 0xad, 0x3d,
  0x40, 0x95, 0xa0, 0x3d, 0x60, 0xb1, 0x07, 0x3d, 0x74, 0xe9, 0xb9, 0xbe,
  0x80, 0x13, 0x42, 0xbd, 0xa8, 0x30, 0xe2, 0x3e, 0x10, 0x36, 0x1c, 0x3e,
  0xa8, 0xe5, 0x24, 0x3e, 0xe0, 0xb4, 0x87, 0xbd, 0x48, 0x50, 0xfb, 0xbe,
  0x80, 0x01, 0xcd, 0x3d, 0x60, 0x66, 0xc4, 0x3e, 0xc0, 0x5c, 0x5b, 0xbd,
  0xd8, 0x99, 0x27, 0x3e, 0xb0, 0x12, 0xd0, 0xbe, 0x04, 0x49, 0xab, 0xbe,
  0x00, 0x28, 0x90, 0x3e, 0x50, 0x71, 0x28, 0xbe, 0xf8, 0x0a, 0x16, 0x3e,
  0x00, 0xce, 0x66, 0x3b, 0xb8, 0x1b, 0x8c, 0xbe, 0x9c, 0x1b, 0xf6, 0x3e,
  0x90, 0xa5, 0x08, 0x3e, 0x40, 0x1c, 0x8d, 0x3c, 0x58, 0x2a, 0xea, 0x3e,
  0x60, 0x86, 0x72, 0x3d, 0x7c, 0x4d, 0xe0, 0xbe, 0x18, 0x05, 0xe5, 0x3e,
  0x84, 0x1f, 0xcb, 0xbe, 0xbc, 0xab, 0xb6, 0xbe, 0x98, 0x0d, 0x5d, 0xbe,
  0x44, 0x30, 0xad, 0xbe, 0x18, 0x87, 0x4e, 0x3e, 0x20, 0x47, 0x38, 0xbe,
  0x48, 0xa9, 0xa8, 0xbe, 0x60, 0x07, 0xc4, 0x3e, 0xf8, 0x94, 0xc6, 0xbe,
  0x40, 0xbe, 0x74, 0xbe, 0xec, 0xb2, 0xff, 0xbe, 0xe0, 0xa0, 0x8f, 0x3e,
  0xc4, 0xb2, 0xdd, 0x3e, 0xc0, 0xda, 0x95, 0x3c, 0x6c, 0x22, 0xa6, 0xbe,
  0x68, 0xd4, 0x2f, 0x3e, 0x00, 0x98, 0x0a, 0xbe, 0xe0, 0x86, 0xc8, 0xbe,
  0x00, 0x7f, 0xa9, 0xbe, 0xd0, 0x8f, 0x14, 0xbe, 0x08, 0xd9, 0xd0, 0x3e,
  0x00, 0x6b, 0x5d, 0x3e, 0xc0, 0x42, 0x93, 0x3e, 0x58, 0xc9, 0xec, 0x3e,
  0x50, 0xe9, 0x84, 0x3d, 0xbc, 0x4a, 0xa4, 0xbe, 0x00, 0x14, 0x8f, 0xbe,
  0x24, 0x89, 0xc2, 0x3e, 0x60, 0xda, 0x1a, 0xbd, 0xb0, 0x07, 0x95, 0xbd,
  0x84, 0x7d, 0x8f, 0x3e, 0x00, 0xbf, 0xb7, 0xbd, 0x70, 0xbb, 0x60, 0x3e,
  0x80, 0xd5, 0x58, 0x3d, 0xa0, 0xe1, 0xba, 0x3d, 0x30, 0x06, 0x1c, 0xbe,
  0xf0, 0xc4, 0xb2, 0xbe, 0xe0, 0xc4, 0xbe, 0xbe, 0x00, 0x87, 0x32, 0xbe,
  0xc8, 0x99, 0x09, 0x3e, 0x24, 0xac, 0xb6, 0xbe, 0x20, 0x8f, 0x88, 0x3e,
  0xc0, 0x6a, 0xb9, 0x3e, 0x10, 0xd6, 0xf7, 0x3e, 0x90, 0x5e, 0xe7, 0xbe,
  0x10, 0xaa, 0x88, 0x3d, 0x7c, 0x4d, 0xf3, 0xbe, 0xa0, 0x42, 0xb2, 0xbd,
  0xe8, 0x70, 0x00, 0x3e, 0x90, 0x54, 0x47, 0xbe, 0x4c, 0xa1, 0xbc, 0xbe,
  0x80, 0x52, 0xd1, 0x3d, 0xcc, 0x00, 0x81, 0xbe, 0xa0, 0x27, 0x36, 0xbe,
  0xf8, 0xbc, 0x6b, 0x3e, 0x50, 0xfd, 0xcc, 0xbe, 0x88, 0x69, 0x0a, 0xbe,
  0x28, 0x96, 0xdc, 0x3e, 0x80, 0xe8, 0xae, 0x3d, 0x90, 0x11, 0xe4, 0x3e,
  0x80, 0xa8, 0x72, 0xbd, 0x04, 0xa7, 0xc7, 0xbe, 0x60, 0xde, 0x47, 0x3d,
  0x30, 0x35, 0xb3, 0xbd, 0x00, 0x65, 0x91, 0xbc, 0xcc, 0x65, 0x85, 0x3e,
  0x10, 0x01, 0x0a, 0x3e, 0xa8, 0xf2, 0xe9, 0x3e, 0x30, 0x1f, 0xc8, 0x3e,
  0xd0, 0x59, 0x96, 0x3d, 0x84, 0x02, 0x96, 0x3e, 0x88, 0x3f, 0xdd, 0x3e,
  0xf8, 0x8e, 0xe5, 0xbe, 0x80, 0xdb, 0xb7, 0xbc, 0xe0, 0xa2, 0xa9, 0xbd,
  0x30, 0x92, 0x86, 0xbd, 0xe0, 0x40, 0x8f, 0xbd, 0x80, 0x25, 0x21, 0x3e,
  0x24, 0x69, 0xd4, 0x3e, 0x50, 0x75, 0xae, 0xbe, 0x28, 0x6d, 0x8f, 0xbe,
  0xc0, 0x14, 0x30, 0x3d, 0x48, 0x1f, 0xb9, 0x3e, 0xd0, 0x97, 0x7e, 0xbe,
  0xa6, 0xfa, 0xff, 0xff, 0x10, 0x00, 0x00, 0x00, 0x08, 0x00, 0x00, 0x00,
  0x10, 0x00, 0x00, 0x00, 0x34, 0x00, 0x00, 0x00, 0x01, 0x00, 0x00, 0x00,
  0x0c, 0x00, 0x00, 0x00, 0x23, 0x00, 0x00, 0x00, 0x73, 0x65, 0x71, 0x75,
  0x65, 0x6e, 0x74, 0x69, 0x61, 0x6c, 0x5f, 0x36, 0x37, 0x2f, 0x64, 0x65,
  0x6e, 0x73, 0x65, 0x5f, 0x31, 0x36, 0x38, 0x2f, 0x4d, 0x61, 0x74, 0x4d,
  0x75, 0x6c, 0x5f, 0x62, 0x69, 0x61, 0x73, 0x00, 0x40, 0xfa, 0xff, 0xff,
  0x30, 0x00, 0x00, 0x00, 0x00, 0x00, 0x00, 0x00, 0x00, 0x00, 0x00, 0x00,
  0x00, 0x00, 0x00, 0x00, 0x00, 0x00, 0x00, 0x00, 0x00, 0x00, 0x00, 0x00,
  0x00, 0x00, 0x00, 0x00, 0x00, 0x00, 0x00, 0x00, 0x00, 0x00, 0x00, 0x00,
  0x00, 0x00, 0x00, 0x00, 0x00, 0x00, 0x00, 0x00, 0x00, 0x00, 0x00, 0x00,
  0x00, 0x00, 0x00, 0x00, 0x22, 0xfb, 0xff, 0xff, 0x10, 0x00, 0x00, 0x00,
  0x07, 0x00, 0x00, 0x00, 0x14, 0x00, 0x00, 0x00, 0x4c, 0x00, 0x00, 0x00,
  0x02, 0x00, 0x00, 0x00, 0x0c, 0x00, 0x00, 0x00, 0x0c, 0x00, 0x00, 0x00,
  0x37, 0x00, 0x00, 0x00, 0x73, 0x65, 0x71, 0x75, 0x65, 0x6e, 0x74, 0x69,
  0x61, 0x6c, 0x5f, 0x36, 0x37, 0x2f, 0x64, 0x65, 0x6e, 0x73, 0x65, 0x5f,
  0x31, 0x36, 0x38, 0x2f, 0x4d, 0x61, 0x74, 0x4d, 0x75, 0x6c, 0x2f, 0x52,
  0x65, 0x61, 0x64, 0x56, 0x61, 0x72, 0x69, 0x61, 0x62, 0x6c, 0x65, 0x4f,
  0x70, 0x2f, 0x74, 0x72, 0x61, 0x6e, 0x73, 0x70, 0x6f, 0x73, 0x65, 0x00,
  0xd4, 0xfa, 0xff, 0xff, 0x40, 0x02, 0x00, 0x00, 0x70, 0xfe, 0xef, 0x3e,
  0xdc, 0xe3, 0xc8, 0x3e, 0xf4, 0xcd, 0xca, 0x3e, 0xd0, 0x31, 0x31, 0xbe,
  0xc0, 0x20, 0xb8, 0x3c, 0xa8, 0xde, 0xd4, 0x3e, 0x40, 0x51, 0x8a, 0x3e,
  0xb0, 0x86, 0xc5, 0xbd, 0x40, 0xad, 0xae, 0x3e, 0x30, 0xcd, 0xf3, 0xbe,
  0x98, 0x43, 0xe7, 0xbe, 0xa0, 0x29, 0x64, 0x3d, 0x90, 0x04, 0xf9, 0xbd,
  0x8c, 0xc8, 0xc9, 0x3e, 0xf4, 0x6b, 0xf3, 0x3e, 0x18, 0xca, 0x9f, 0x3e,
  0x48, 0x36, 0xce, 0xbe, 0x14, 0x3e, 0xbb, 0xbe, 0x08, 0x05, 0x68, 0x3e,
  0xe4, 0x02, 0xda, 0x3e, 0xe0, 0xf6, 0x40, 0xbd, 0x80, 0x9c, 0x54, 0xbe,
  0x00, 0xb0, 0xb0, 0x3b, 0x0c, 0xe6, 0x9c, 0xbe, 0x90, 0x03, 0xc3, 0x3e,
  0x68, 0x5b, 0xaa, 0xbe, 0xf4, 0x12, 0xcf, 0xbe, 0x00, 0x28, 0xc3, 0xbd,
  0x3c, 0x17, 0xe3, 0xbe, 0xf8, 0x5e, 0x50, 0xbe, 0x48, 0x76, 0x6d, 0x3e,
  0x00, 0x8c, 0xa1, 0xbb, 0x78, 0x90, 0xdd, 0xbe, 0xf8, 0x3a, 0x7a, 0x3e,
  0x68, 0x3d, 0x94, 0x3e, 0xb0, 0x5b, 0x85, 0xbd, 0x70, 0x43, 0x5c, 0x3e,
  0x00, 0xde, 0xf0, 0x3d, 0xe8, 0x9f, 0xf2, 0xbe, 0x10, 0x77, 0x83, 0x3d,
  0xb0, 0xcd, 0x10, 0x3e, 0x08, 0x13, 0x13, 0x3e, 0xe0, 0x94, 0x85, 0xbd,
  0x40, 0x20, 0x17, 0xbe, 0xbc, 0x50, 0x81, 0x3e, 0x70, 0x4d, 0xc2, 0x3d,
  0xc8, 0x66, 0xfb, 0x3e, 0x9c, 0xb9, 0xef, 0x3e, 0xd8, 0xd9, 0x9a, 0x3e,
  0x80, 0x5b, 0x0f, 0x3c, 0xb0, 0x3c, 0xd8, 0xbd, 0x20, 0x03, 0xc7, 0x3d,
  0xcc, 0xc8, 0x97, 0xbe, 0x70, 0x83, 0x50, 0x3e, 0xf8, 0x1b, 0xed, 0xbe,
  0xe4, 0xb9, 0xfc, 0x3e, 0x68, 0x0c, 0x0e, 0x3e, 0xf0, 0x91, 0xfb, 0xbe,
  0x48, 0xfb, 0xa8, 0x3e, 0x98, 0x1c, 0x9a, 0xbe, 0x40, 0x04, 0xb8, 0xbe,
  0xbc, 0xde, 0x97, 0xbe, 0x40, 0x21, 0x89, 0x3c, 0xe8, 0x06, 0x59, 0xbe,
  0x80, 0x03, 0x1a, 0x3e, 0x34, 0x15, 0x85, 0x3e, 0x10, 0xf0, 0x97, 0x3e,
  0x00, 0x31, 0x89, 0xbd, 0x38, 0xf3, 0x65, 0xbe, 0xbc, 0x45, 0xe7, 0x3e,
  0x00, 0xf1, 0xe3, 0x3d, 0xa8, 0x3d, 0xca, 0xbe, 0x5c, 0x6d, 0xea, 0x3e,
  0x20, 0x67, 0x60, 0x3e, 0xc0, 0x29, 0x31, 0xbd, 0xfc, 0xee, 0xca, 0x3e,
  0xc0, 0xda, 0x7b, 0xbd, 0x00, 0x1c, 0x98, 0xbd, 0xc0, 0xbc, 0x1d, 0x3e,
  0x58, 0x4a, 0x29, 0x3e, 0x3c, 0xc2, 0xf1, 0x3e, 0x44, 0x2d, 0xc6, 0x3e,
  0xc8, 0xc7, 0x25, 0xbe, 0xe4, 0x73, 0xde, 0x3e, 0x38, 0xa1, 0x98, 0x3e,
  0x10, 0x0d, 0xe9, 0x3e, 0x88, 0x90, 0x8d, 0xbe, 0xb8, 0xfd, 0xac, 0x3e,
  0x78, 0x34, 0x29, 0xbe, 0x98, 0xbb, 0x5b, 0xbe, 0xf8, 0x21, 0x99, 0x3e,
  0x80, 0x70, 0xcb, 0x3d, 0xf4, 0xde, 0xe4, 0xbe, 0xec, 0x6b, 0x81, 0x3e,
  0x10, 0x9b, 0x86, 0xbe, 0x68, 0x26, 0xba, 0x3e, 0x7c, 0xbe, 0xbd, 0x3e,
  0xc0, 0x8d, 0xce, 0xbe, 0xa4, 0xad, 0x9b, 0xbe, 0xb0, 0x37, 0x91, 0xbe,
  0xa8, 0xfa, 0x08, 0xbe, 0x10, 0x26, 0x81, 0x3d, 0xf0, 0x08, 0x8d, 0x3e,
  0xc4, 0x8d, 0xd4, 0xbe, 0xe8, 0xe3, 0xe5, 0xbe, 0xe8, 0x00, 0x51, 0xbe,
  0x88, 0x7c, 0x2e, 0x3e, 0x28, 0xf8, 0x15, 0xbe, 0x28, 0x44, 0x2c, 0xbe,
  0xd0, 0x53, 0xd9, 0xbe, 0x54, 0xa4, 0xfb, 0x3e, 0x10, 0x37, 0xda, 0xbd,
  0x40, 0xde, 0x4f, 0x3d, 0xe0, 0x95, 0xb7, 0xbd, 0xb0, 0x8c, 0xe2, 0xbe,
  0xb0, 0x66, 0xda, 0x3d, 0x04, 0xab, 0xd5, 0x3e, 0x68, 0x98, 0xc9, 0x3e,
  0xd0, 0x11, 0xa4, 0xbe, 0xa4, 0xd3, 0xa8, 0xbe, 0x70, 0x12, 0x99, 0x3e,
  0xc0, 0x21, 0x25, 0xbd, 0x38, 0x8f, 0x89, 0x3e, 0x18, 0x4f, 0xbb, 0x3e,
  0x30, 0x4b, 0x42, 0xbe, 0x5c, 0x9f, 0x8d, 0x3e, 0xe8, 0x54, 0xf0, 0xbe,
  0x20, 0x03, 0x1b, 0xbe, 0x48, 0x98, 0x06, 0xbe, 0xb0, 0xa6, 0xeb, 0xbd,
  0x28, 0x3b, 0xe9, 0x3e, 0xac, 0xbb, 0xff, 0x3e, 0xe8, 0xa6, 0x5b, 0xbe,
  0x98, 0xa0, 0x0c, 0xbe, 0xe0, 0xb0, 0x41, 0x3d, 0xe8, 0xba, 0xf7, 0xbe,
  0x1c, 0x0b, 0xb9, 0xbe, 0xa8, 0x10, 0x24, 0x3e, 0x70, 0xc3, 0x4f, 0x3e,
  0xc8, 0x3e, 0x59, 0x3e, 0x60, 0x65, 0x4a, 0xbd, 0xd0, 0xcc, 0xbc, 0x3e,
  0xe4, 0x82, 0xbc, 0x3e, 0xc0, 0x36, 0x90, 0xbc, 0xc6, 0xfd, 0xff, 0xff,
  0x10, 0x00, 0x00, 0x00, 0x06, 0x00, 0x00, 0x00, 0x10, 0x00, 0x00, 0x00,
  0x34, 0x00, 0x00, 0x00, 0x01, 0x00, 0x00, 0x00, 0x0c, 0x00, 0x00, 0x00,
  0x23, 0x00, 0x00, 0x00, 0x73, 0x65, 0x71, 0x75, 0x65, 0x6e, 0x74, 0x69,
  0x61, 0x6c, 0x5f, 0x36, 0x37, 0x2f, 0x64, 0x65, 0x6e, 0x73, 0x65, 0x5f,
  0x31, 0x36, 0x37, 0x2f, 0x4d, 0x61, 0x74, 0x4d, 0x75, 0x6c, 0x5f, 0x62,
  0x69, 0x61, 0x73, 0x00, 0x60, 0xfd, 0xff, 0xff, 0x30, 0x00, 0x00, 0x00,
  0x00, 0x00, 0x00, 0x00, 0x00, 0x00, 0x00, 0x00, 0x00, 0x00, 0x00, 0x00,
  0x00, 0x00, 0x00, 0x00, 0x00, 0x00, 0x00, 0x00, 0x00, 0x00, 0x00, 0x00,
  0x00, 0x00, 0x00, 0x00, 0x00, 0x00, 0x00, 0x00, 0x00, 0x00, 0x00, 0x00,
  0x00, 0x00, 0x00, 0x00, 0x00, 0x00, 0x00, 0x00, 0x00, 0x00, 0x00, 0x00,
  0x42, 0xfe, 0xff, 0xff, 0x10, 0x00, 0x00, 0x00, 0x05, 0x00, 0x00, 0x00,
  0x14, 0x00, 0x00, 0x00, 0x4c, 0x00, 0x00, 0x00, 0x02, 0x00, 0x00, 0x00,
  0x0c, 0x00, 0x00, 0x00, 0x03, 0x00, 0x00, 0x00, 0x37, 0x00, 0x00, 0x00,
  0x73, 0x65, 0x71, 0x75, 0x65, 0x6e, 0x74, 0x69, 0x61, 0x6c, 0x5f, 0x36,
  0x37, 0x2f, 0x64, 0x65, 0x6e, 0x73, 0x65, 0x5f, 0x31, 0x36, 0x37, 0x2f,
  0x4d, 0x61, 0x74, 0x4d, 0x75, 0x6c, 0x2f, 0x52, 0x65, 0x61, 0x64, 0x56,
  0x61, 0x72, 0x69, 0x61, 0x62, 0x6c, 0x65, 0x4f, 0x70, 0x2f, 0x74, 0x72,
  0x61, 0x6e, 0x73, 0x70, 0x6f, 0x73, 0x65, 0x00, 0xf4, 0xfd, 0xff, 0xff,
  0x90, 0x00, 0x00, 0x00, 0xc0, 0x58, 0xc0, 0x3c, 0x0c, 0x16, 0x23, 0x3e,
  0x5e, 0xe1, 0xaa, 0xbe, 0x57, 0xb9, 0x04, 0xbf, 0x16, 0x8a, 0x90, 0xbe,
  0x38, 0xcc, 0xd5, 0xbd, 0xd8, 0x30, 0xf9, 0xbe, 0x92, 0x91, 0xf9, 0xbe,
  0xa0, 0x73, 0x0e, 0xbe, 0x94, 0x35, 0x8d, 0x3e, 0x08, 0x93, 0x9e, 0x3e,
  0xb0, 0x92, 0xb7, 0x3d, 0x74, 0xbb, 0x16, 0xbe, 0x8e, 0xea, 0xa0, 0x3e,
  0x10, 0xf2, 0xbb, 0x3d, 0x5a, 0x76, 0xcb, 0x3e, 0x79, 0x5e, 0x04, 0xbf,
  0x25, 0xaf, 0x0b, 0xbf, 0xc8, 0x9d, 0x1d, 0xbf, 0x78, 0x0a, 0x03, 0x3e,
  0xa9, 0x9b, 0x1a, 0xbf, 0x6e, 0x47, 0x42, 0xbe, 0x76, 0x5c, 0xf1, 0x3e,
  0x48, 0xfa, 0xac, 0x3e, 0xe4, 0xea, 0x13, 0x3e, 0x3a, 0xc7, 0xff, 0x3e,
  0x94, 0xf7, 0x67, 0x3e, 0x6e, 0x47, 0xf7, 0x3e, 0xe4, 0x8c, 0x1b, 0xbf,
  0xc8, 0xc0, 0xfb, 0xbe, 0x6a, 0xb2, 0xe4, 0x3e, 0xaf, 0xb4, 0x07, 0x3f,
  0xe4, 0x5e, 0x35, 0x3e, 0xc0, 0xd8, 0x7c, 0x3c, 0xd2, 0x25, 0x66, 0xbe,
  0xc8, 0x90, 0xad, 0xbd, 0x36, 0xff, 0xff, 0xff, 0x10, 0x00, 0x00, 0x00,
  0x04, 0x00, 0x00, 0x00, 0x14, 0x00, 0x00, 0x00, 0x20, 0x00, 0x00, 0x00,
  0x02, 0x00, 0x00, 0x00, 0x01, 0x00, 0x00, 0x00, 0x0c, 0x00, 0x00, 0x00,
  0x08, 0x00, 0x00, 0x00, 0x49, 0x64, 0x65, 0x6e, 0x74, 0x69, 0x74, 0x79,
  0x00, 0x00, 0x00, 0x00, 0xbc, 0xfe, 0xff, 0xff, 0x6a, 0xff, 0xff, 0xff,
  0x10, 0x00, 0x00, 0x00, 0x03, 0x00, 0x00, 0x00, 0x14, 0x00, 0x00, 0x00,
  0x34, 0x00, 0x00, 0x00, 0x02, 0x00, 0x00, 0x00, 0x01, 0x00, 0x00, 0x00,
  0x0c, 0x00, 0x00, 0x00, 0x1c, 0x00, 0x00, 0x00, 0x73, 0x65, 0x71, 0x75,
  0x65, 0x6e, 0x74, 0x69, 0x61, 0x6c, 0x5f, 0x36, 0x37, 0x2f, 0x64, 0x65,
  0x6e, 0x73, 0x65, 0x5f, 0x31, 0x36, 0x38, 0x2f, 0x52, 0x65, 0x6c, 0x75,
  0x00, 0x00, 0x00, 0x00, 0x04, 0xff, 0xff, 0xff, 0xb2, 0xff, 0xff, 0xff,
  0x10, 0x00, 0x00, 0x00, 0x02, 0x00, 0x00, 0x00, 0x14, 0x00, 0x00, 0x00,
  0x38, 0x00, 0x00, 0x00, 0x02, 0x00, 0x00, 0x00, 0x01, 0x00, 0x00, 0x00,
  0x0c, 0x00, 0x00, 0x00, 0x1c, 0x00, 0x00, 0x00, 0x73, 0x65, 0x71, 0x75,
  0x65, 0x6e, 0x74, 0x69, 0x61, 0x6c, 0x5f, 0x36, 0x37, 0x2f, 0x64, 0x65,
  0x6e, 0x73, 0x65, 0x5f, 0x31, 0x36, 0x37, 0x2f, 0x52, 0x65, 0x6c, 0x75,
  0x00, 0x00, 0x00, 0x00, 0x04, 0x00, 0x06, 0x00, 0x04, 0x00, 0x00, 0x00,
  0x00, 0x00, 0x0e, 0x00, 0x14, 0x00, 0x04, 0x00, 0x00, 0x00, 0x08, 0x00,
  0x0c, 0x00, 0x10, 0x00, 0x0e, 0x00, 0x00, 0x00, 0x10, 0x00, 0x00, 0x00,
  0x01, 0x00, 0x00, 0x00, 0x14, 0x00, 0x00, 0x00, 0x2c, 0x00, 0x00, 0x00,
  0x02, 0x00, 0x00, 0x00, 0x01, 0x00, 0x00, 0x00, 0x03, 0x00, 0x00, 0x00,
  0x0f, 0x00, 0x00, 0x00, 0x64, 0x65, 0x6e, 0x73, 0x65, 0x5f, 0x31, 0x36,
  0x37, 0x5f, 0x69, 0x6e, 0x70, 0x75, 0x74, 0x00, 0x08, 0x00, 0x0c, 0x00,
  0x04, 0x00, 0x08, 0x00, 0x08, 0x00, 0x00, 0x00, 0x10, 0x00, 0x00, 0x00,
  0x04, 0x00, 0x00, 0x00, 0x01, 0x00, 0x00, 0x00, 0x00, 0x00, 0x7f, 0x43,
  0x01, 0x00, 0x00, 0x00, 0x00, 0x00, 0x00, 0x00, 0x03, 0x00, 0x00, 0x00,
  0x98, 0x00, 0x00, 0x00, 0x44, 0x00, 0x00, 0x00, 0x04, 0x00, 0x00, 0x00,
  0x88, 0xff, 0xff, 0xff, 0x00, 0x00, 0x00, 0x08, 0x10, 0x00, 0x00, 0x00,
  0x1c, 0x00, 0x00, 0x00, 0x28, 0x00, 0x00, 0x00, 0x1c, 0x00, 0x00, 0x00,
  0x03, 0x00, 0x00, 0x00, 0x07, 0x00, 0x00, 0x00, 0x08, 0x00, 0x00, 0x00,
  0x09, 0x00, 0x00, 0x00, 0x01, 0x00, 0x00, 0x00, 0x00, 0x00, 0x00, 0x00,
  0x00, 0x00, 0x00, 0x00, 0x04, 0x00, 0x04, 0x00, 0x04, 0x00, 0x00, 0x00,
  0xc4, 0xff, 0xff, 0xff, 0x00, 0x00, 0x00, 0x08, 0x10, 0x00, 0x00, 0x00,
  0x1c, 0x00, 0x00, 0x00, 0x24, 0x00, 0x00, 0x00, 0x1c, 0x00, 0x00, 0x00,
  0x03, 0x00, 0x00, 0x00, 0x04, 0x00, 0x00, 0x00, 0x05, 0x00, 0x00, 0x00,
  0x06, 0x00, 0x00, 0x00, 0x01, 0x00, 0x00, 0x00, 0x07, 0x00, 0x00, 0x00,
  0x00, 0x00, 0x00, 0x00, 0x8e, 0xff, 0xff, 0xff, 0x00, 0x00, 0x00, 0x01,
  0x14, 0x00, 0x18, 0x00, 0x00, 0x00, 0x08, 0x00, 0x0c, 0x00, 0x07, 0x00,
  0x10, 0x00, 0x00, 0x00, 0x00, 0x00, 0x14, 0x00, 0x14, 0x00, 0x00, 0x00,
  0x00, 0x00, 0x00, 0x08, 0x10, 0x00, 0x00, 0x00, 0x1c, 0x00, 0x00, 0x00,
  0x24, 0x00, 0x00, 0x00, 0x1c, 0x00, 0x00, 0x00, 0x03, 0x00, 0x00, 0x00,
  0x01, 0x00, 0x00, 0x00, 0x02, 0x00, 0x00, 0x00, 0x03, 0x00, 0x00, 0x00,
  0x01, 0x00, 0x00, 0x00, 0x04, 0x00, 0x00, 0x00, 0x00, 0x00, 0x00, 0x00,
  0xde, 0xff, 0xff, 0xff, 0x00, 0x00, 0x00, 0x01, 0x01, 0x00, 0x00, 0x00,
  0x04, 0x00, 0x00, 0x00, 0xfa, 0xff, 0xff, 0xff, 0x00, 0x09, 0x06, 0x00,
  0x06, 0x00, 0x05, 0x00, 0x06, 0x00, 0x00, 0x00, 0x00, 0x09, 0x06, 0x00,
  0x08, 0x00, 0x07, 0x00, 0x06, 0x00, 0x00, 0x00, 0x00, 0x00, 0x00, 0x09
};
unsigned int DNN_Ah_12_tflite_len = 2904;
