unsigned char DNN_Ah_22_tflite[] = {
  0x1c, 0x00, 0x00, 0x00, 0x54, 0x46, 0x4c, 0x33, 0x00, 0x00, 0x12, 0x00,
  0x1c, 0x00, 0x04, 0x00, 0x08, 0x00, 0x0c, 0x00, 0x10, 0x00, 0x14, 0x00,
  0x00, 0x00, 0x18, 0x00, 0x12, 0x00, 0x00, 0x00, 0x03, 0x00, 0x00, 0x00,
  0x44, 0x15, 0x00, 0x00, 0x10, 0x00, 0x00, 0x00, 0x1c, 0x00, 0x00, 0x00,
  0x2c, 0x00, 0x00, 0x00, 0x0c, 0x00, 0x00, 0x00, 0x01, 0x00, 0x00, 0x00,
  0xd4, 0x00, 0x00, 0x00, 0x01, 0x00, 0x00, 0x00, 0x9c, 0x00, 0x00, 0x00,
  0x0f, 0x00, 0x00, 0x00, 0x54, 0x4f, 0x43, 0x4f, 0x20, 0x43, 0x6f, 0x6e,
  0x76, 0x65, 0x72, 0x74, 0x65, 0x64, 0x2e, 0x00, 0x0a, 0x00, 0x00, 0x00,
  0x70, 0x00, 0x00, 0x00, 0x68, 0x00, 0x00, 0x00, 0x60, 0x00, 0x00, 0x00,
  0x58, 0x00, 0x00, 0x00, 0x50, 0x00, 0x00, 0x00, 0x44, 0x00, 0x00, 0x00,
  0x30, 0x00, 0x00, 0x00, 0x1c, 0x00, 0x00, 0x00, 0x10, 0x00, 0x00, 0x00,
  0x04, 0x00, 0x00, 0x00, 0xd6, 0xff, 0xff, 0xff, 0x48, 0x00, 0x00, 0x00,
  0xde, 0xff, 0xff, 0xff, 0x28, 0x01, 0x00, 0x00, 0xf6, 0xff, 0xff, 0xff,
  0x18, 0x09, 0x00, 0x00, 0x00, 0x00, 0x06, 0x00, 0x0a, 0x00, 0x04, 0x00,
  0x06, 0x00, 0x00, 0x00, 0xe8, 0x10, 0x00, 0x00, 0x00, 0x00, 0x06, 0x00,
  0x08, 0x00, 0x04, 0x00, 0x06, 0x00, 0x00, 0x00, 0x98, 0x11, 0x00, 0x00,
  0xec, 0xeb, 0xff, 0xff, 0xf0, 0xeb, 0xff, 0xff, 0xf4, 0xeb, 0xff, 0xff,
  0xf8, 0xeb, 0xff, 0xff, 0xfc, 0xeb, 0xff, 0xff, 0x05, 0x00, 0x00, 0x00,
  0x31, 0x2e, 0x35, 0x2e, 0x30, 0x00, 0x00, 0x00, 0x74, 0xec, 0xff, 0xff,
  0x08, 0x00, 0x00, 0x00, 0x09, 0x00, 0x00, 0x00, 0x13, 0x00, 0x00, 0x00,
  0x6d, 0x69, 0x6e, 0x5f, 0x72, 0x75, 0x6e, 0x74, 0x69, 0x6d, 0x65, 0x5f,
  0x76, 0x65, 0x72, 0x73, 0x69, 0x6f, 0x6e, 0x00, 0x0c, 0x00, 0x14, 0x00,
  0x04, 0x00, 0x08, 0x00, 0x0c, 0x00, 0x10, 0x00, 0x0c, 0x00, 0x00, 0x00,
  0x20, 0x00, 0x00, 0x00, 0x14, 0x00, 0x00, 0x00, 0x08, 0x00, 0x00, 0x00,
  0x70, 0x13, 0x00, 0x00, 0x01, 0x00, 0x00, 0x00, 0x00, 0x00, 0x00, 0x00,
  0x01, 0x00, 0x00, 0x00, 0x01, 0x00, 0x00, 0x00, 0x08, 0x00, 0x00, 0x00,
  0x70, 0x12, 0x00, 0x00, 0xfc, 0x12, 0x00, 0x00, 0xb0, 0x10, 0x00, 0x00,
  0x04, 0x10, 0x00, 0x00, 0x94, 0x12, 0x00, 0x00, 0x04, 0x08, 0x00, 0x00,
  0x10, 0x12, 0x00, 0x00, 0x04, 0x00, 0x00, 0x00, 0x2e, 0xed, 0xff, 0xff,
  0x10, 0x00, 0x00, 0x00, 0x08, 0x00, 0x00, 0x00, 0x14, 0x00, 0x00, 0x00,
  0x50, 0x00, 0x00, 0x00, 0x02, 0x00, 0x00, 0x00, 0x16, 0x00, 0x00, 0x00,
  0x16, 0x00, 0x00, 0x00, 0x38, 0x00, 0x00, 0x00, 0x73, 0x65, 0x71, 0x75,
  0x65, 0x6e, 0x74, 0x69, 0x61, 0x6c, 0x5f, 0x31, 0x32, 0x37, 0x2f, 0x64,
  0x65, 0x6e, 0x73, 0x65, 0x5f, 0x33, 0x31, 0x39, 0x2f, 0x4d, 0x61, 0x74,
  0x4d, 0x75, 0x6c, 0x2f, 0x52, 0x65, 0x61, 0x64, 0x56, 0x61, 0x72, 0x69,
  0x61, 0x62, 0x6c, 0x65, 0x4f, 0x70, 0x2f, 0x74, 0x72, 0x61, 0x6e, 0x73,
  0x70, 0x6f, 0x73, 0x65, 0x00, 0x00, 0x00, 0x00, 0xe4, 0xec, 0xff, 0xff,
  0x90, 0x07, 0x00, 0x00, 0x06, 0x72, 0x67, 0x3e, 0xd6, 0xd3, 0x22, 0x3e,
  0x58, 0xbb, 0x10, 0x3d, 0x00, 0x09, 0x6c, 0x3b, 0x8e, 0xee, 0xa1, 0xbe,
  0xcb, 0x1d, 0x9f, 0x3e, 0x48, 0x33, 0xc0, 0xbd, 0xf4, 0xcf, 0x01, 0x3e,
  0x4b, 0xbd, 0x7e, 0xbe, 0xeb, 0x6a, 0xa1, 0x3e, 0xac, 0x40, 0x8a, 0xbe,
  0x70, 0xf5, 0xb1, 0xbe, 0x80, 0x79, 0xe4, 0x3b, 0xc0, 0x9b, 0x80, 0xbb,
  0xec, 0x21, 0x9c, 0xbe, 0x0c, 0xc8, 0xc6, 0xbd, 0x0a, 0x22, 0x80, 0xbe,
  0xbb, 0x83, 0x22, 0xbe, 0x00, 0x8c, 0x34, 0xbb, 0x6c, 0x5e, 0x84, 0x3d,
  0x72, 0x09, 0xa0, 0xbe, 0xe6, 0xb8, 0x64, 0x3e, 0xd0, 0x5e, 0x86, 0xbc,
  0xf2, 0xc4, 0x70, 0x3e, 0x92, 0x29, 0xa6, 0xbe, 0x79, 0xf3, 0xa4, 0x3e,
  0x04, 0x82, 0xde, 0x3d, 0xe1, 0xe8, 0x85, 0x3e, 0x36, 0xa7, 0xa9, 0xbe,
  0xbc, 0x95, 0x9c, 0xbe, 0xde, 0xfc, 0x3d, 0x3e, 0xd1, 0x89, 0x9b, 0x3e,
  0x7c, 0xed, 0xbf, 0xbd, 0xf4, 0xa9, 0xcf, 0xbd, 0xc5, 0x1f, 0x8d, 0x3e,
  0x88, 0x77, 0x8b, 0xbe, 0x2a, 0xe2, 0x26, 0x3e, 0x6a, 0x3d, 0x7d, 0x3e,
  0x98, 0xdf, 0x94, 0xbe, 0x4a, 0x63, 0x8d, 0xbe, 0x49, 0x03, 0xad, 0x3e,
  0x2b, 0xdf, 0xa6, 0x3e, 0xcf, 0x42, 0x24, 0xbe, 0x40, 0xec, 0xac, 0xbd,
  0xfe, 0xf3, 0x40, 0x3e, 0x37, 0xc2, 0xaa, 0x3e, 0x57, 0x69, 0x8a, 0xbe,
  0x40, 0x41, 0x85, 0x3d, 0xd0, 0x80, 0x28, 0xbd, 0x86, 0xa5, 0x86, 0xbe,
  0xd2, 0x50, 0x25, 0x3e, 0x10, 0x11, 0xb6, 0x3c, 0x60, 0x24, 0x32, 0x3d,
  0xe0, 0x3e, 0x79, 0x3c, 0x83, 0xe2, 0x97, 0x3e, 0xc2, 0xbe, 0x77, 0x3e,
  0x50, 0x9e, 0xae, 0xbe, 0x52, 0x83, 0x48, 0xbe, 0xed, 0x6b, 0xa3, 0x3e,
  0x40, 0x9e, 0x06, 0x3d, 0x59, 0x7d, 0x0d, 0xbe, 0xab, 0x75, 0xa0, 0x3e,
  0xa6, 0x3c, 0x0e, 0x3e, 0x1c, 0x7a, 0x89, 0xbe, 0x42, 0x5b, 0x0c, 0x3e,
  0x99, 0xda, 0x92, 0x3e, 0x8e, 0x87, 0x00, 0x3e, 0x04, 0x6f, 0xb3, 0x3d,
  0x3c, 0x3a, 0xa4, 0xbe, 0x2a, 0xe8, 0x37, 0xbe, 0xbe, 0xff, 0x98, 0xbe,
  0x02, 0xb0, 0xa2, 0xbe, 0x50, 0x44, 0xc5, 0x3d, 0x4c, 0xe9, 0x82, 0xbe,
  0xee, 0x4d, 0xbc, 0xbe, 0xa0, 0x7e, 0xb2, 0x3d, 0x80, 0x36, 0xc5, 0x3b,
  0xae, 0x1e, 0x9d, 0xbe, 0x20, 0xa9, 0x49, 0xbe, 0x8a, 0x71, 0x2a, 0x3e,
  0x31, 0x11, 0x99, 0x3e, 0xe2, 0x92, 0xb8, 0xbe, 0x4c, 0x82, 0xc9, 0xbd,
  0x34, 0xc4, 0x99, 0x3d, 0x94, 0x7a, 0x8e, 0xbd, 0x7a, 0x72, 0x6f, 0x3e,
  0x90, 0xc2, 0xc0, 0x3d, 0x40, 0x9a, 0xd4, 0xbd, 0xae, 0x5a, 0xae, 0xbe,
  0xd7, 0x89, 0x9f, 0x3e, 0x28, 0xd5, 0x48, 0xbd, 0x3b, 0xe2, 0x3b, 0xbe,
  0xce, 0x03, 0x22, 0x3e, 0x2f, 0x2d, 0x1f, 0xbe, 0x56, 0xb8, 0x17, 0xbe,
  0x92, 0x1d, 0x39, 0x3e, 0x10, 0xd0, 0x65, 0xbd, 0x13, 0xcc, 0xa3, 0x3e,
  0x14, 0x79, 0xbb, 0x3d, 0x50, 0x45, 0xdc, 0x3c, 0x68, 0xc2, 0x6d, 0xbd,
  0x92, 0x26, 0x9c, 0xbe, 0xd3, 0xc8, 0x96, 0x3e, 0xa4, 0xd3, 0x71, 0xbe,
  0xa8, 0xd8, 0xe4, 0xbd, 0x90, 0x80, 0x00, 0xbe, 0x7e, 0x2b, 0x01, 0x3e,
  0x7c, 0xc4, 0x04, 0xbe, 0x86, 0x2b, 0x1d, 0xbe, 0x9b, 0xf6, 0xa4, 0x3e,
  0xf2, 0xb5, 0x61, 0x3e, 0xc0, 0x6d, 0xe9, 0x3d, 0xac, 0x66, 0xad, 0x3d,
  0x08, 0x08, 0xcb, 0xbd, 0x96, 0x97, 0x97, 0xbe, 0x1d, 0xd1, 0xa8, 0x3e,
  0x1e, 0x96, 0x28, 0x3e, 0x46, 0xab, 0x0e, 0x3e, 0x80, 0x51, 0x28, 0x3c,
  0xbe, 0x2c, 0x76, 0x3e, 0xa5, 0x09, 0x9d, 0x3e, 0xc0, 0x5b, 0xed, 0xbd,
  0x66, 0x1d, 0x83, 0xbe, 0x60, 0x0e, 0x75, 0xbd, 0xc8, 0xe2, 0xac, 0xbe,
  0x94, 0x50, 0xeb, 0x3d, 0x94, 0x2e, 0xbf, 0xbd, 0xca, 0xb1, 0x85, 0xbe,
  0x86, 0xb7, 0x4d, 0xbe, 0xee, 0x3c, 0x42, 0xbe, 0x84, 0xcc, 0xd8, 0xbd,
  0xc8, 0x6c, 0xe6, 0x3d, 0xf0, 0xdd, 0xc5, 0xbd, 0xb1, 0xe0, 0xa8, 0xbe,
  0xf6, 0xf7, 0x54, 0xbe, 0x73, 0xa1, 0x89, 0x3e, 0x9e, 0x19, 0x7b, 0xbe,
  0xc0, 0x6b, 0x90, 0x3b, 0xe7, 0xa4, 0x42, 0xbe, 0xdc, 0xe6, 0xa1, 0xbd,
  0xa9, 0x62, 0x80, 0x3e, 0xf3, 0xfd, 0x3c, 0xbe, 0x50, 0x71, 0x10, 0x3d,
  0xd8, 0x14, 0x8e, 0xbd, 0xf4, 0x78, 0xff, 0xbd, 0x0c, 0x5c, 0x04, 0x3e,
  0x5a, 0x35, 0xba, 0xbe, 0x68, 0x81, 0x86, 0xbd, 0x50, 0x27, 0xf3, 0x3c,
  0xb8, 0x0a, 0xbb, 0xbd, 0xbc, 0xd3, 0x73, 0xbe, 0x1b, 0xbf, 0x83, 0x3e,
  0x7b, 0x97, 0xad, 0xbe, 0x50, 0x01, 0xfc, 0x3d, 0xda, 0x2a, 0x1e, 0xbe,
  0xc0, 0x0e, 0xcf, 0x3c, 0x00, 0x03, 0x9b, 0xbb, 0xf7, 0xd2, 0x21, 0xbe,
  0x83, 0x7c, 0x95, 0x3e, 0x2b, 0xa3, 0x7c, 0xbe, 0x6f, 0xd7, 0x82, 0x3e,
  0x12, 0x44, 0x52, 0x3e, 0xd0, 0xa3, 0xde, 0xbd, 0x66, 0x58, 0x04, 0x3e,
  0x30, 0xe1, 0x9d, 0xbd, 0xbe, 0x04, 0x29, 0x3e, 0xe8, 0x19, 0xb2, 0xbd,
  0xfa, 0x2b, 0x60, 0xbe, 0xd8, 0xb9, 0x37, 0xbd, 0xf6, 0x17, 0x3f, 0x3e,
  0xd7, 0x20, 0x16, 0xbe, 0x4c, 0xe5, 0x86, 0xbd, 0x24, 0xc2, 0x4d, 0xbe,
  0x36, 0x15, 0x0c, 0xbe, 0x3b, 0x01, 0x00, 0xbe, 0xc4, 0x4e, 0xb5, 0xbe,
  0xc0, 0x6b, 0x80, 0xbc, 0xc2, 0x68, 0x39, 0x3e, 0x50, 0xac, 0x89, 0xbc,
  0xa9, 0x77, 0x8b, 0xbe, 0x3c, 0x2a, 0x44, 0xbe, 0xf2, 0xb2, 0x80, 0xbe,
  0x21, 0x00, 0xab, 0x3e, 0x4e, 0xd5, 0x0d, 0x3e, 0xec, 0xc2, 0x21, 0xbe,
  0x75, 0x5c, 0x0f, 0xbe, 0x52, 0x44, 0x15, 0x3e, 0xfc, 0x7d, 0xa9, 0x3d,
  0x1a, 0x78, 0x2a, 0x3e, 0xad, 0x61, 0xa2, 0xbe, 0x20, 0x21, 0x0d, 0x3c,
  0xf4, 0x15, 0xe0, 0x3d, 0xaa, 0xb7, 0x9d, 0xbe, 0x50, 0x2b, 0x04, 0xbd,
  0x4a, 0x24, 0x08, 0x3e, 0x7d, 0x30, 0xb1, 0xbe, 0xe5, 0x28, 0x13, 0xbe,
  0xbd, 0x65, 0x9d, 0x3e, 0x45, 0x2b, 0x1d, 0xbe, 0x14, 0xbb, 0xc5, 0x3d,
  0x18, 0xb4, 0x77, 0x3d, 0xdc, 0x82, 0x94, 0xbe, 0x10, 0x78, 0xbc, 0xbe,
  0x16, 0x78, 0x8b, 0xbe, 0x35, 0x79, 0x22, 0xbe, 0x42, 0xf0, 0x3e, 0x3e,
  0x3f, 0x35, 0x88, 0x3e, 0x35, 0xb8, 0xaf, 0xbe, 0x09, 0xff, 0x9f, 0xbe,
  0xcb, 0x7f, 0xa8, 0x3e, 0x40, 0xd5, 0xf5, 0x3b, 0x54, 0x0c, 0xb7, 0xbe,
  0x40, 0xae, 0xf8, 0x3b, 0xf0, 0x31, 0xf2, 0xbc, 0xed, 0xd9, 0x63, 0xbe,
  0x68, 0x94, 0xb5, 0xbd, 0x90, 0x18, 0x87, 0xbe, 0x26, 0x82, 0x6d, 0x3e,
  0xc9, 0x2b, 0x88, 0x3e, 0xd5, 0x88, 0xb6, 0x3e, 0x73, 0x48, 0xa7, 0xbe,
  0x0a, 0xe5, 0x41, 0x3e, 0x86, 0x3d, 0x1b, 0x3e, 0x90, 0x67, 0x5b, 0x3d,
  0x66, 0x69, 0x1c, 0xbe, 0x3c, 0xf4, 0xa7, 0x3d, 0xf7, 0x47, 0xa5, 0x3e,
  0xbe, 0xb0, 0x72, 0x3e, 0x50, 0x2d, 0x67, 0xbd, 0x98, 0x7f, 0x81, 0xbe,
  0x3f, 0x4e, 0xa3, 0x3e, 0xce, 0x17, 0x0c, 0x3e, 0x44, 0xf5, 0x89, 0xbd,
  0x23, 0x2c, 0xa9, 0x3e, 0xf2, 0x99, 0x37, 0xbe, 0x1d, 0x48, 0x5a, 0xbe,
  0xe8, 0x9f, 0x15, 0xbd, 0xfa, 0x28, 0x60, 0xbe, 0x1a, 0xdb, 0x5f, 0x3e,
  0x1b, 0x9d, 0x8b, 0x3e, 0x80, 0xd5, 0x24, 0xbe, 0xc5, 0x42, 0xa7, 0xbe,
  0x67, 0x67, 0xa2, 0x3e, 0xf8, 0xaa, 0xd4, 0xbd, 0x26, 0x46, 0x6c, 0x3e,
  0x68, 0xb3, 0x98, 0xbe, 0xff, 0x7e, 0x96, 0x3e, 0x3c, 0x68, 0xba, 0x3d,
  0x17, 0x47, 0xa8, 0x3e, 0x90, 0x26, 0x98, 0xbd, 0x5e, 0x49, 0x78, 0x3e,
  0x34, 0x57, 0xaa, 0x3d, 0x5a, 0xd0, 0x67, 0x3e, 0x7e, 0xf0, 0x6e, 0xbe,
  0x9c, 0x62, 0xaf, 0xbd, 0x76, 0x8a, 0x63, 0xbe, 0x30, 0xa7, 0xd1, 0x3d,
  0xdf, 0x68, 0x46, 0xbe, 0xd7, 0x94, 0x93, 0xbe, 0x00, 0x6c, 0xaa, 0xba,
  0xb0, 0xef, 0x08, 0xbe, 0x43, 0x6f, 0x4e, 0xbe, 0x3a, 0xc6, 0xfe, 0xbd,
  0x3d, 0xf9, 0x8f, 0xbe, 0xe4, 0x79, 0x85, 0xbe, 0x8c, 0x60, 0x68, 0xbe,
  0xd7, 0xad, 0x8b, 0x3e, 0x30, 0x2f, 0xa4, 0x3d, 0x9a, 0x3a, 0x75, 0x3e,
  0x18, 0xe6, 0xd9, 0xbd, 0x17, 0xe0, 0xb5, 0x3e, 0x8a, 0x70, 0x79, 0x3e,
  0x61, 0x82, 0x3d, 0xbe, 0x5e, 0x1d, 0x31, 0xbe, 0xe2, 0x4f, 0x0e, 0x3e,
  0x7d, 0xc9, 0x6f, 0xbe, 0x63, 0x67, 0x58, 0xbe, 0x10, 0xc9, 0xb5, 0x3c,
  0x0d, 0x9a, 0xb6, 0xbe, 0x68, 0x6c, 0x21, 0x3d, 0x1f, 0x34, 0x37, 0xbe,
  0xa8, 0xf0, 0x4a, 0x3d, 0xcf, 0xb5, 0xaf, 0x3e, 0x00, 0x76, 0xdf, 0x3c,
  0x40, 0xa5, 0xf5, 0x3b, 0x03, 0x7e, 0x91, 0x3e, 0xeb, 0xff, 0x81, 0x3e,
  0x39, 0xc8, 0x99, 0xbe, 0xfd, 0xab, 0xae, 0x3e, 0x99, 0x61, 0x4e, 0xbe,
  0x0e, 0xac, 0x48, 0x3e, 0x70, 0x61, 0xf1, 0x3c, 0x98, 0x72, 0xec, 0xbd,
  0x85, 0xb9, 0x34, 0xbe, 0x2a, 0x89, 0xf7, 0xbd, 0x50, 0x13, 0x88, 0x3c,
  0x8e, 0x6a, 0x73, 0x3e, 0x70, 0x1f, 0xb4, 0x3d, 0x78, 0x10, 0x14, 0xbd,
  0x16, 0xd7, 0x75, 0x3e, 0x99, 0x0c, 0x79, 0xbe, 0xd8, 0xe4, 0x89, 0xbd,
  0x13, 0xbc, 0x78, 0xbe, 0xcc, 0xd1, 0x8d, 0xbe, 0x10, 0x53, 0x5d, 0xbd,
  0x8d, 0xb2, 0x85, 0x3e, 0x23, 0xce, 0xbb, 0x3e, 0xf0, 0x97, 0x55, 0x3d,
  0xd2, 0x5d, 0x64, 0x3e, 0x27, 0x55, 0x94, 0x3e, 0x41, 0x3c, 0x52, 0xbe,
  0x80, 0xeb, 0x98, 0xbb, 0x93, 0x1f, 0xa5, 0xbe, 0xb2, 0x80, 0x48, 0x3e,
  0x4c, 0x1a, 0xb1, 0xbe, 0xd8, 0xd1, 0xca, 0xbd, 0x5b, 0xb0, 0x82, 0x3e,
  0xd2, 0x04, 0x10, 0x3e, 0xe5, 0x0c, 0x86, 0x3e, 0x18, 0xf5, 0x41, 0x3d,
  0xe9, 0x40, 0xad, 0xbe, 0x30, 0x28, 0x88, 0xbe, 0xbd, 0x57, 0x2b, 0xbe,
  0x84, 0x33, 0x6b, 0xbe, 0x8b, 0xe6, 0x15, 0xbe, 0x80, 0x02, 0x44, 0x3c,
  0x00, 0xc0, 0x66, 0x3a, 0x4d, 0x93, 0x07, 0xbe, 0xe3, 0xa8, 0xa8, 0x3e,
  0x2d, 0x93, 0x9c, 0x3e, 0x8c, 0x01, 0xf8, 0x3d, 0x3c, 0x79, 0x90, 0x3d,
  0x52, 0x33, 0x7c, 0x3e, 0x20, 0x61, 0x09, 0xbe, 0xe8, 0x71, 0x52, 0x3d,
  0x70, 0xb2, 0xda, 0xbc, 0x98, 0x0e, 0xb0, 0xbe, 0x33, 0x76, 0xaa, 0x3e,
  0xc0, 0xa7, 0xb1, 0xbe, 0x4d, 0xdc, 0xb9, 0xbe, 0xbc, 0xf7, 0x94, 0xbe,
  0x3d, 0xa5, 0x2f, 0xbe, 0x62, 0xa1, 0x6b, 0x3e, 0x18, 0xd4, 0xa5, 0xbe,
  0x06, 0xb8, 0x96, 0xbe, 0x00, 0x51, 0x47, 0x3b, 0xd4, 0x08, 0xb7, 0xbd,
  0x13, 0xc1, 0x8a, 0x3e, 0xe0, 0x82, 0x26, 0xbe, 0xd6, 0x16, 0x04, 0x3e,
  0x76, 0xc0, 0x16, 0xbe, 0x35, 0x15, 0x81, 0xbe, 0xb7, 0x29, 0x81, 0x3e,
  0x76, 0x6d, 0x1c, 0x3e, 0xa0, 0x86, 0x07, 0xbd, 0x88, 0xd0, 0x87, 0xbe,
  0x8a, 0xb5, 0x2c, 0x3e, 0x7d, 0xc9, 0xb9, 0x3e, 0xf6, 0x9a, 0xba, 0xbe,
  0x00, 0xfd, 0x46, 0x3c, 0xa4, 0x87, 0x8e, 0xbe, 0x1f, 0x9e, 0xa8, 0xbe,
  0xd5, 0x98, 0x96, 0x3e, 0x07, 0x0c, 0x91, 0x3e, 0xeb, 0xdb, 0xb7, 0x3e,
  0x89, 0x7c, 0x9a, 0xbe, 0x5a, 0xb1, 0x40, 0x3e, 0x87, 0xd9, 0x95, 0x3e,
  0x98, 0xc3, 0x61, 0x3d, 0x5a, 0x45, 0x23, 0x3e, 0x75, 0x4a, 0x0a, 0xbe,
  0x62, 0x31, 0x61, 0x3e, 0x62, 0xd0, 0xad, 0xbe, 0x70, 0x87, 0x84, 0xbc,
  0x48, 0xad, 0x44, 0x3d, 0x86, 0xaa, 0x69, 0x3e, 0x2b, 0x71, 0x02, 0xbe,
  0x5a, 0xa8, 0x6f, 0x3e, 0x2b, 0xf4, 0x00, 0xbe, 0x30, 0x64, 0x1d, 0x3d,
  0xf7, 0xad, 0xab, 0x3e, 0xaf, 0xa8, 0xa2, 0x3e, 0xc8, 0xfc, 0x8e, 0xbe,
  0x90, 0x0c, 0x18, 0xbd, 0x82, 0xe7, 0x2a, 0x3e, 0xb2, 0x85, 0x5c, 0x3e,
  0x5e, 0xf4, 0x91, 0xbe, 0xa0, 0xa7, 0xa1, 0x3d, 0x7d, 0xc3, 0x6a, 0xbe,
  0xd1, 0x61, 0x87, 0x3e, 0x28, 0x10, 0x4b, 0xbd, 0xb7, 0x55, 0x1a, 0xbe,
  0x15, 0xd6, 0x9b, 0xbe, 0xb0, 0x78, 0x87, 0x3d, 0x44, 0x6d, 0x82, 0xbe,
  0x00, 0x90, 0x7a, 0x3d, 0x00, 0x7f, 0xb0, 0x3b, 0xa0, 0x6a, 0xcc, 0xbc,
  0xac, 0xae, 0x37, 0xbe, 0x95, 0xa3, 0xb9, 0xbe, 0x27, 0x61, 0xb2, 0x3e,
  0x64, 0x71, 0xed, 0x3d, 0xc2, 0xd5, 0xb7, 0xbe, 0x4a, 0xf5, 0x50, 0x3e,
  0xbd, 0x19, 0x9c, 0x3e, 0xfc, 0xc7, 0x96, 0xbe, 0x8b, 0xde, 0x86, 0x3e,
  0xd6, 0xe4, 0x3f, 0xbe, 0xe9, 0x6f, 0x78, 0xbe, 0x2b, 0x3c, 0x15, 0xbe,
  0xd6, 0x59, 0x57, 0x3e, 0xd0, 0xcb, 0xb4, 0xbe, 0x18, 0x15, 0xc4, 0x3d,
  0x00, 0x01, 0xd3, 0xba, 0xda, 0x59, 0x30, 0x3e, 0xe7, 0x98, 0x99, 0x3e,
  0xfc, 0x1c, 0x85, 0xbe, 0xb2, 0x20, 0x8e, 0xbe, 0xf0, 0x71, 0xa4, 0x3d,
  0x94, 0xf1, 0xfb, 0x3d, 0x40, 0xbc, 0x8e, 0xbe, 0x19, 0xec, 0x82, 0x3e,
  0x39, 0x1d, 0x3c, 0xbe, 0x67, 0x5d, 0x92, 0x3e, 0x03, 0xcd, 0x87, 0x3e,
  0xda, 0xeb, 0x3e, 0x3e, 0xb8, 0x4b, 0x8e, 0x3d, 0x64, 0x08, 0xa9, 0xbe,
  0xa8, 0x8f, 0xc0, 0xbd, 0xb8, 0x5e, 0x24, 0xbd, 0x3a, 0x34, 0xad, 0xbe,
  0xc0, 0x17, 0x46, 0x3c, 0x6c, 0xe9, 0xcb, 0xbd, 0xac, 0x3f, 0xac, 0xbd,
  0x4f, 0x06, 0x04, 0xbe, 0xd8, 0xd8, 0x52, 0xbd, 0x25, 0x6e, 0x95, 0x3e,
  0xfc, 0x7c, 0x82, 0xbd, 0xf0, 0xa3, 0xf2, 0x3d, 0xd4, 0xd2, 0x9d, 0xbd,
  0x70, 0x82, 0xf0, 0x3c, 0x50, 0x10, 0xf9, 0x3d, 0x68, 0x57, 0x58, 0xbd,
  0xc8, 0xaa, 0x66, 0x3d, 0x48, 0x81, 0x0e, 0xbd, 0x40, 0x0f, 0xb7, 0xbb,
  0x46, 0x2c, 0xb2, 0xbe, 0xc0, 0x77, 0xce, 0xbb, 0xfe, 0xd8, 0x19, 0xbe,
  0x08, 0x36, 0x01, 0x3d, 0x4a, 0x3c, 0x35, 0x3e, 0x00, 0xbe, 0xbb, 0xbd,
  0xa0, 0xe8, 0x07, 0xbe, 0xfe, 0xc6, 0x17, 0x3e, 0xbf, 0x1b, 0x86, 0xbe,
  0xb3, 0x87, 0x88, 0x3e, 0xf0, 0xd0, 0x05, 0x3d, 0xe1, 0x9c, 0x67, 0xbe,
  0xd8, 0xaa, 0xb8, 0x3d, 0x60, 0x54, 0xa9, 0xbc, 0x92, 0xb0, 0x6a, 0x3e,
  0x0e, 0x73, 0x89, 0xbe, 0x67, 0x41, 0x8c, 0x3e, 0x06, 0xf8, 0x2e, 0xbe,
  0x7e, 0xb4, 0x04, 0x3e, 0xc4, 0x2a, 0x45, 0xbe, 0x27, 0xbc, 0x06, 0xbe,
  0xeb, 0x06, 0x9d, 0x3e, 0x09, 0x25, 0x8b, 0xbe, 0x08, 0xa6, 0x07, 0xbd,
  0x00, 0x14, 0x71, 0xbd, 0xdf, 0x52, 0xbc, 0x3e, 0xc8, 0x7c, 0x57, 0xbe,
  0x6e, 0xb5, 0x1c, 0x3e, 0x20, 0x75, 0xfa, 0x3c, 0x44, 0x56, 0xde, 0x3d,
  0x9b, 0xac, 0x86, 0x3e, 0xeb, 0x00, 0xa1, 0x3e, 0x4b, 0xfe, 0x90, 0xbe,
  0xbc, 0x93, 0x8b, 0xbe, 0xa2, 0x21, 0x6a, 0x3e, 0xc5, 0xa8, 0x28, 0xbe,
  0x7e, 0x86, 0x04, 0x3e, 0x9c, 0xe0, 0xc4, 0x3d, 0x26, 0xf5, 0xff, 0xff,
  0x10, 0x00, 0x00, 0x00, 0x07, 0x00, 0x00, 0x00, 0x14, 0x00, 0x00, 0x00,
  0x50, 0x00, 0x00, 0x00, 0x02, 0x00, 0x00, 0x00, 0x16, 0x00, 0x00, 0x00,
  0x16, 0x00, 0x00, 0x00, 0x38, 0x00, 0x00, 0x00, 0x73, 0x65, 0x71, 0x75,
  0x65, 0x6e, 0x74, 0x69, 0x61, 0x6c, 0x5f, 0x31, 0x32, 0x37, 0x2f, 0x64,
  0x65, 0x6e, 0x73, 0x65, 0x5f, 0x33, 0x31, 0x38, 0x2f, 0x4d, 0x61, 0x74,
  0x4d, 0x75, 0x6c, 0x2f, 0x52, 0x65, 0x61, 0x64, 0x56, 0x61, 0x72, 0x69,
  0x61, 0x62, 0x6c, 0x65, 0x4f, 0x70, 0x2f, 0x74, 0x72, 0x61, 0x6e, 0x73,
  0x70, 0x6f, 0x73, 0x65, 0x00, 0x00, 0x00, 0x00, 0xdc, 0xf4, 0xff, 0xff,
  0x90, 0x07, 0x00, 0x00, 0x48, 0xed, 0x84, 0x3d, 0xf0, 0x9d, 0x3a, 0xbe,
  0xf2, 0xcd, 0xb5, 0xbe, 0x4e, 0x85, 0x4b, 0xbe, 0x40, 0x25, 0x9a, 0xbc,
  0xa8, 0xbd, 0xe5, 0xbd, 0xd0, 0x2a, 0x74, 0xbd, 0xb1, 0xde, 0x4b, 0xbe,
  0xc0, 0x62, 0xdd, 0xbb, 0xdc, 0x64, 0x71, 0xbe, 0x60, 0x11, 0x0b, 0xbc,
  0x75, 0x94, 0x9f, 0x3e, 0x5a, 0x38, 0x23, 0x3e, 0x70, 0xdc, 0xe6, 0xbd,
  0x68, 0x11, 0xc8, 0xbd, 0x03, 0x68, 0x83, 0x3e, 0x12, 0x2b, 0x7a, 0x3e,
  0xb0, 0xf6, 0x97, 0x3c, 0x0f, 0x2d, 0xbb, 0x3e, 0xdc, 0xae, 0xae, 0xbe,
  0x0e, 0x7c, 0x35, 0x3e, 0x88, 0x47, 0x6e, 0xbd, 0x80, 0x06, 0x88, 0x3b,
  0xeb, 0x66, 0x02, 0xbe, 0x40, 0xaf, 0xdb, 0x3d, 0xb8, 0xd1, 0x7a, 0x3d,
  0xda, 0x73, 0x20, 0xbe, 0xbe, 0xcd, 0x2a, 0x3e, 0x12, 0xca, 0xb2, 0xbe,
  0x4c, 0x13, 0x3c, 0xbe, 0xd8, 0x19, 0x30, 0x3d, 0x5b, 0x76, 0x85, 0x3e,
  0x1c, 0xef, 0xbd, 0x3d, 0xf4, 0xe3, 0xa3, 0x3d, 0x40, 0xdd, 0x6e, 0xbc,
  0x6d, 0xc0, 0xaa, 0x3e, 0x22, 0xb1, 0x3f, 0x3e, 0x12, 0xdc, 0x00, 0x3e,
  0xe5, 0xe9, 0x9f, 0x3e, 0xce, 0x0c, 0x59, 0x3e, 0xf8, 0xe1, 0x98, 0x3d,
  0xcc, 0x94, 0xa6, 0xbe, 0xc0, 0x8c, 0x29, 0xbe, 0xd8, 0xff, 0x9b, 0xbe,
  0xc2, 0xc7, 0x87, 0xbe, 0x5d, 0xba, 0xb5, 0x3e, 0x28, 0xe8, 0xfc, 0xbd,
  0xb0, 0x9e, 0xc4, 0x3c, 0x88, 0xa7, 0xf3, 0xbd, 0x00, 0xc0, 0x88, 0xbb,
  0xc0, 0x82, 0xb3, 0x3c, 0x00, 0xd1, 0x83, 0x3b, 0xa0, 0x39, 0x0a, 0xbd,
  0x17, 0xee, 0x8c, 0x3e, 0x06, 0x99, 0x73, 0x3e, 0x34, 0x2c, 0xe9, 0xbd,
  0xf0, 0xe9, 0xed, 0xbc, 0xe8, 0x88, 0xc3, 0x3d, 0xc6, 0x02, 0x69, 0xbe,
  0xa8, 0x25, 0x55, 0xbd, 0xa8, 0x1d, 0x16, 0xbd, 0xa0, 0xe6, 0x27, 0x3d,
  0xa0, 0x74, 0x04, 0xbd, 0x00, 0x57, 0x8b, 0x3c, 0xb2, 0x1e, 0x1d, 0x3e,
  0xff, 0x80, 0x89, 0xbe, 0x80, 0x27, 0x01, 0x3b, 0x80, 0x07, 0x8d, 0x3d,
  0x78, 0xc5, 0x53, 0xbd, 0x1e, 0xa1, 0x07, 0x3e, 0xa6, 0x6d, 0x6d, 0x3e,
  0xed, 0x86, 0xa6, 0xbe, 0xf1, 0x67, 0x53, 0xbe, 0x8b, 0x17, 0x88, 0x3e,
  0xe8, 0xf5, 0x9c, 0x3d, 0x26, 0x99, 0x8e, 0xbe, 0x1e, 0xf1, 0x8d, 0xbe,
  0xe9, 0x1b, 0x64, 0xbe, 0x33, 0x6a, 0x00, 0xbe, 0x2e, 0x70, 0x2d, 0x3e,
  0xea, 0xb7, 0x62, 0x3e, 0xf2, 0x54, 0x2f, 0x3e, 0xc0, 0xbf, 0x84, 0xbe,
  0x4a, 0x75, 0x79, 0xbe, 0x08, 0x72, 0x06, 0x3d, 0xfa, 0xf6, 0x4c, 0x3e,
  0xf2, 0x93, 0x59, 0x3e, 0x57, 0xf7, 0xa0, 0x3e, 0x92, 0x4e, 0x65, 0x3e,
  0xb1, 0xb2, 0xae, 0xbe, 0xc8, 0xaa, 0x5a, 0x3d, 0x02, 0x0d, 0x35, 0x3e,
  0xda, 0xd8, 0x4e, 0x3e, 0xaf, 0x81, 0x16, 0xbe, 0x85, 0x47, 0x82, 0x3e,
  0xa2, 0x0a, 0x4f, 0xbe, 0x01, 0x21, 0x91, 0x3e, 0x91, 0xb6, 0x9e, 0x3e,
  0x7a, 0xe0, 0xa2, 0xbe, 0xa1, 0xab, 0xaa, 0x3e, 0x52, 0xf0, 0x54, 0xbe,
  0x68, 0xe9, 0x23, 0xbd, 0xa0, 0x62, 0x5e, 0xbc, 0x45, 0xb1, 0xb1, 0x3e,
  0xd9, 0x9a, 0x63, 0xbe, 0x10, 0xba, 0xc4, 0xbd, 0x70, 0x17, 0x7a, 0x3d,
  0xba, 0xe6, 0x09, 0x3e, 0x94, 0x7d, 0xf0, 0xbd, 0xf8, 0x3e, 0x62, 0xbe,
  0xcb, 0x20, 0xb1, 0x3e, 0xb3, 0xc4, 0xbb, 0xbe, 0xfd, 0x5b, 0xa2, 0x3e,
  0x69, 0x17, 0x9a, 0x3e, 0x3b, 0xd3, 0xbc, 0x3e, 0x0a, 0x95, 0x19, 0x3e,
  0x1f, 0x2a, 0x98, 0x3e, 0x35, 0xe7, 0xa1, 0x3e, 0xae, 0x82, 0x06, 0x3e,
  0x50, 0xd2, 0xb9, 0x3c, 0x98, 0x99, 0xa9, 0xbe, 0xd4, 0x45, 0xd6, 0xbd,
  0xc0, 0x55, 0xfb, 0x3b, 0x9e, 0x27, 0x2a, 0x3e, 0x5b, 0xc9, 0xae, 0xbe,
  0x6d, 0xd5, 0xb4, 0xbe, 0xcc, 0xe1, 0x01, 0xbe, 0xea, 0x74, 0x1e, 0x3e,
  0xaf, 0x4f, 0x54, 0xbe, 0xf3, 0xc4, 0x8c, 0x3e, 0x34, 0x39, 0x92, 0xbe,
  0xee, 0x5c, 0x0a, 0x3e, 0x44, 0x5e, 0xb7, 0x3d, 0x7a, 0x28, 0x9e, 0xbe,
  0x4e, 0x5e, 0x70, 0x3e, 0x68, 0x8a, 0x9d, 0xbd, 0xcc, 0xc2, 0x9e, 0xbe,
  0xd0, 0x6b, 0xd1, 0x3c, 0xb4, 0x5e, 0x62, 0xbe, 0xb8, 0x6c, 0x92, 0xbe,
  0xc0, 0xb9, 0x58, 0x3d, 0xbc, 0xc0, 0xa2, 0xbd, 0x98, 0x78, 0x89, 0xbd,
  0x35, 0x23, 0xac, 0xbe, 0x9f, 0x43, 0x94, 0xbe, 0x06, 0x2a, 0x9a, 0xbe,
  0xc0, 0x0d, 0xac, 0xbc, 0xfa, 0x97, 0x4c, 0xbe, 0x7d, 0x73, 0x96, 0xbe,
  0xca, 0xbb, 0x31, 0x3e, 0x90, 0xef, 0xe6, 0x3c, 0x6d, 0x06, 0x84, 0x3e,
  0x32, 0x69, 0x24, 0x3e, 0x89, 0x5d, 0x86, 0xbe, 0x50, 0xc0, 0xa5, 0xbe,
  0xaf, 0x59, 0x77, 0xbe, 0x50, 0x17, 0x70, 0xbe, 0x3f, 0x19, 0x97, 0xbe,
  0xc0, 0x18, 0xa1, 0xbc, 0xd8, 0xd0, 0x9a, 0xbd, 0xcc, 0x91, 0x3c, 0xbe,
  0xf4, 0x29, 0xb8, 0xbe, 0x20, 0x71, 0xfd, 0x3c, 0x46, 0xff, 0x32, 0x3e,
  0x03, 0xc6, 0xa8, 0x3e, 0x58, 0xf4, 0x90, 0xbd, 0x3c, 0xf6, 0xfe, 0xbd,
  0xc0, 0x5d, 0xc3, 0x3b, 0x1e, 0x6c, 0x92, 0xbe, 0x7c, 0xc0, 0xb6, 0x3d,
  0xc5, 0x0b, 0xa6, 0x3e, 0xf8, 0x4c, 0xf5, 0x3d, 0x81, 0xf6, 0x8b, 0x3e,
  0x97, 0xe4, 0x86, 0x3e, 0x08, 0xc0, 0x05, 0x3e, 0xf0, 0x31, 0xa8, 0x3c,
  0x94, 0xea, 0x46, 0xbe, 0xca, 0x69, 0x24, 0xbe, 0x23, 0xfc, 0xa7, 0x3e,
  0x37, 0x4d, 0x54, 0xbe, 0xee, 0xba, 0x22, 0x3e, 0x94, 0x09, 0x86, 0x3d,
  0xfd, 0xaf, 0x9c, 0x3e, 0x9c, 0x85, 0x9e, 0x3d, 0xf0, 0xb2, 0x26, 0xbd,
  0xe0, 0xc9, 0xc4, 0xbc, 0x54, 0xae, 0x8c, 0xbd, 0xea, 0xa2, 0xa1, 0xbe,
  0xfb, 0x8d, 0x9e, 0xbe, 0x4a, 0xf4, 0x4e, 0x3e, 0x80, 0x93, 0x82, 0x3b,
  0xb0, 0x08, 0x9d, 0x3c, 0x01, 0xdb, 0xbc, 0xbe, 0x50, 0x5f, 0xd0, 0xbd,
  0xad, 0xab, 0x97, 0x3e, 0xfa, 0x4c, 0x6f, 0x3e, 0x9f, 0xfa, 0xac, 0xbe,
  0xbb, 0x6a, 0x2b, 0xbe, 0xd1, 0x0f, 0x9d, 0x3e, 0x1e, 0x0d, 0x54, 0x3e,
  0xa5, 0x6c, 0x00, 0xbe, 0x08, 0xe5, 0x5d, 0xbd, 0x68, 0x89, 0x08, 0x3d,
  0x27, 0xac, 0x74, 0xbe, 0x05, 0x4a, 0x8c, 0xbe, 0x1b, 0x6f, 0x12, 0xbe,
  0x50, 0xbd, 0xdc, 0x3c, 0xb0, 0x97, 0xa0, 0x3c, 0x3a, 0x46, 0x52, 0x3e,
  0xa9, 0xec, 0x8f, 0x3e, 0x00, 0x00, 0x9f, 0x3c, 0x80, 0xa4, 0x3e, 0xbd,
  0x70, 0x3e, 0xee, 0x3d, 0xaa, 0xc7, 0xa2, 0xbe, 0xee, 0x08, 0x7e, 0x3e,
  0x2e, 0x37, 0x9c, 0xbe, 0x27, 0xe2, 0xa0, 0xbe, 0x6c, 0x26, 0x86, 0xbe,
  0x24, 0x28, 0x8e, 0xbd, 0x4d, 0xf0, 0x83, 0xbe, 0x30, 0x8a, 0xee, 0xbd,
  0xaa, 0xc0, 0x27, 0x3e, 0xea, 0x16, 0xf6, 0xbd, 0x21, 0x47, 0x75, 0xbe,
  0x44, 0x06, 0xd4, 0x3d, 0xf8, 0x99, 0x4e, 0xbd, 0xac, 0xf6, 0x95, 0xbe,
  0xdd, 0x97, 0x9a, 0x3e, 0x90, 0x2a, 0xb1, 0xbd, 0xa7, 0x66, 0xb5, 0xbe,
  0xaf, 0x06, 0x95, 0x3e, 0xc0, 0x92, 0x9a, 0x3b, 0x5d, 0xa6, 0x09, 0xbe,
  0x16, 0x4b, 0xb2, 0xbe, 0xda, 0x01, 0x0a, 0x3e, 0xbe, 0x30, 0x77, 0xbe,
  0x9d, 0x0d, 0x79, 0xbe, 0x77, 0xad, 0x8f, 0x3e, 0xae, 0xb1, 0x7c, 0x3e,
  0x0e, 0xbf, 0x31, 0x3e, 0xfa, 0x9d, 0x4e, 0x3e, 0x19, 0xe1, 0x3d, 0xbe,
  0x4d, 0x14, 0xa3, 0xbe, 0x00, 0x4d, 0x89, 0xbb, 0x39, 0xd4, 0xbc, 0x3e,
  0xb6, 0x57, 0x2b, 0x3e, 0x84, 0xeb, 0xb8, 0xbd, 0xcd, 0x8c, 0x50, 0xbe,
  0x71, 0x49, 0x0e, 0xbe, 0xf1, 0xe2, 0x14, 0xbe, 0x3a, 0x0f, 0x1a, 0x3e,
  0x78, 0x53, 0xa0, 0xbd, 0x52, 0x1b, 0x40, 0x3e, 0x5b, 0xd4, 0x45, 0xbe,
  0xf7, 0x06, 0x4b, 0xbe, 0x9e, 0xf2, 0x6d, 0x3e, 0x4f, 0x6f, 0x7e, 0xbe,
  0x40, 0x49, 0x31, 0xbc, 0x88, 0x64, 0x47, 0x3d, 0x04, 0x20, 0x6c, 0xbe,
  0x20, 0x15, 0xe8, 0xbd, 0x16, 0x85, 0x6c, 0x3e, 0x51, 0x15, 0x54, 0xbe,
  0x1d, 0xca, 0xa4, 0x3e, 0x30, 0xbf, 0xbc, 0xbc, 0x63, 0x2e, 0xb0, 0x3e,
  0x01, 0x5b, 0xa5, 0xbe, 0x0b, 0x78, 0xba, 0x3e, 0x32, 0xb9, 0x38, 0x3e,
  0xc3, 0x6b, 0xa2, 0x3e, 0xc3, 0xac, 0x2b, 0xbe, 0xfa, 0xdc, 0x33, 0x3e,
  0x04, 0x88, 0xe8, 0xbd, 0x98, 0x91, 0x2e, 0x3d, 0x90, 0x17, 0x82, 0xbe,
  0x7b, 0x41, 0x38, 0xbe, 0x01, 0x00, 0x67, 0xbe, 0xa8, 0xac, 0x44, 0xbe,
  0x87, 0x31, 0x48, 0xbe, 0xe6, 0xd4, 0x06, 0x3e, 0x9a, 0x0e, 0x56, 0xbe,
  0x07, 0x88, 0x79, 0xbe, 0x11, 0xe2, 0xae, 0x3e, 0x90, 0x6a, 0x15, 0x3d,
  0x68, 0x91, 0xc8, 0xbd, 0xee, 0xce, 0x98, 0xbe, 0x9d, 0x6e, 0xb7, 0x3e,
  0x50, 0x22, 0xf7, 0xbc, 0x16, 0xf5, 0x0d, 0xbe, 0x6b, 0x57, 0xb8, 0x3e,
  0x00, 0x75, 0x04, 0xbc, 0x71, 0x6e, 0xb9, 0xbe, 0x1a, 0x39, 0xa7, 0xbe,
  0xf2, 0x5d, 0x96, 0xbe, 0x97, 0x47, 0x95, 0x3e, 0x12, 0x6e, 0x13, 0x3e,
  0xaa, 0xc3, 0x1e, 0x3e, 0xeb, 0xbd, 0x4b, 0xbe, 0x1d, 0x42, 0xbc, 0xbe,
  0xa0, 0x22, 0xc2, 0x3d, 0x46, 0xf4, 0x42, 0xbe, 0x9e, 0x21, 0x53, 0xbe,
  0x79, 0x4b, 0x3e, 0xbe, 0x97, 0x80, 0x89, 0x3e, 0xb5, 0xa6, 0xbc, 0xbe,
  0xa7, 0x92, 0x8b, 0xbe, 0x14, 0x3d, 0xb5, 0xbd, 0x6f, 0x23, 0x86, 0xbe,
  0x6c, 0x8c, 0xc3, 0xbd, 0x3f, 0x12, 0x8f, 0x3e, 0x98, 0x2c, 0x8a, 0xbe,
  0x60, 0xa9, 0x67, 0x3d, 0x48, 0xc3, 0x68, 0xbe, 0x65, 0x5c, 0x66, 0xbe,
  0xc6, 0x05, 0x65, 0x3e, 0xe0, 0x2d, 0xe6, 0x3c, 0xec, 0x07, 0x8f, 0xbd,
  0x9a, 0x04, 0x2e, 0x3e, 0x96, 0x02, 0x3b, 0x3e, 0xd0, 0x0c, 0x6f, 0xbd,
  0xd3, 0x3a, 0x9c, 0xbe, 0x38, 0x51, 0x5f, 0xbd, 0x67, 0xd6, 0x21, 0xbe,
  0x30, 0xa6, 0x27, 0xbe, 0x94, 0x6b, 0xbb, 0xbe, 0x00, 0xbb, 0x79, 0xbd,
  0xc7, 0xcb, 0xbb, 0x3e, 0x9e, 0x96, 0x95, 0xbe, 0x6f, 0xea, 0xa3, 0x3e,
  0xf5, 0xf3, 0x8b, 0x3e, 0x04, 0x1b, 0x8c, 0xbe, 0xa9, 0x96, 0xb2, 0x3e,
  0x61, 0x8f, 0x9e, 0x3e, 0x10, 0x28, 0x4f, 0xbd, 0x80, 0x34, 0x0b, 0xbc,
  0xe8, 0x41, 0xd7, 0x3d, 0x32, 0x43, 0x6d, 0x3e, 0xa2, 0x76, 0x36, 0x3e,
  0x00, 0xf3, 0x31, 0x3b, 0x48, 0x1d, 0xfd, 0x3d, 0x9b, 0x4d, 0xb1, 0x3e,
  0x09, 0x69, 0x95, 0x3e, 0x24, 0xa4, 0xb2, 0xbe, 0xdc, 0xd3, 0xe6, 0xbd,
  0x10, 0x44, 0x20, 0xbd, 0x98, 0x57, 0xd5, 0xbd, 0x3d, 0xfa, 0x30, 0xbe,
  0x2a, 0xc9, 0x4e, 0x3e, 0x5c, 0x57, 0xf3, 0xbd, 0x96, 0xe7, 0x0b, 0x3e,
  0x00, 0xe4, 0x86, 0xba, 0x3a, 0x46, 0x3d, 0x3e, 0x2c, 0x64, 0x01, 0x3e,
  0x0e, 0x41, 0x1e, 0x3e, 0x4c, 0x73, 0xd8, 0x3d, 0xbf, 0x6c, 0xa0, 0xbe,
  0x86, 0xe1, 0x62, 0x3e, 0x1c, 0xd7, 0xa8, 0xbd, 0x3f, 0xce, 0x33, 0xbe,
  0xd2, 0xb8, 0x3c, 0x3e, 0x5c, 0x74, 0xdb, 0xbd, 0xcb, 0x1f, 0xa2, 0x3e,
  0x50, 0x89, 0x08, 0x3d, 0x57, 0x9f, 0x76, 0xbe, 0x9e, 0x5e, 0x78, 0x3e,
  0x22, 0xba, 0x9c, 0xbe, 0xf7, 0xf1, 0x4a, 0xbe, 0xa7, 0xe7, 0x94, 0x3e,
  0x70, 0xf6, 0xd9, 0x3d, 0xd0, 0xee, 0x67, 0xbd, 0x4e, 0x32, 0x56, 0xbe,
  0x9e, 0x70, 0x30, 0x3e, 0xe0, 0x69, 0xd0, 0x3c, 0x56, 0x96, 0x4d, 0x3e,
  0xa3, 0xd7, 0x6f, 0xbe, 0x00, 0x6b, 0x3c, 0x3d, 0xd1, 0xe0, 0x9f, 0x3e,
  0xec, 0x09, 0xd3, 0xbd, 0xef, 0x32, 0xaf, 0xbe, 0x5c, 0xba, 0xaf, 0x3d,
  0x3f, 0x89, 0x90, 0x3e, 0x4e, 0xf4, 0x2b, 0x3e, 0x22, 0x7a, 0x88, 0xbe,
  0x97, 0xff, 0x8b, 0x3e, 0x8c, 0x00, 0x50, 0xbe, 0xca, 0xb6, 0x48, 0xbe,
  0xca, 0x66, 0x44, 0x3e, 0xbe, 0x29, 0x25, 0xbe, 0x50, 0x4f, 0x98, 0xbc,
  0xeb, 0xbe, 0xa5, 0xbe, 0x19, 0x39, 0x91, 0x3e, 0x82, 0xbb, 0x60, 0xbe,
  0xba, 0x72, 0x38, 0x3e, 0x2e, 0x81, 0x6b, 0xbe, 0x43, 0x9c, 0xa5, 0x3e,
  0x3a, 0xf9, 0x91, 0xbe, 0x28, 0xf3, 0x5b, 0xbe, 0x69, 0x8a, 0x8e, 0xbe,
  0xeb, 0x00, 0x88, 0x3e, 0x53, 0xe4, 0x49, 0xbe, 0x68, 0x76, 0xaa, 0x3d,
  0x34, 0xce, 0xb2, 0xbd, 0xec, 0xf9, 0x95, 0xbd, 0xdc, 0xd8, 0x6c, 0xbe,
  0x14, 0x3e, 0xc2, 0xbd, 0x0b, 0xe0, 0xb7, 0x3e, 0xac, 0x54, 0xae, 0x3d,
  0x7c, 0x0c, 0xed, 0xbd, 0xab, 0xdf, 0x8b, 0x3e, 0x78, 0x9f, 0xd8, 0xbd,
  0x9c, 0x69, 0x4b, 0xbe, 0xd0, 0x6f, 0xca, 0x3c, 0x00, 0x55, 0xf8, 0x3d,
  0x58, 0xde, 0xc1, 0xbd, 0xc2, 0x58, 0x42, 0x3e, 0xfe, 0x93, 0x62, 0x3e,
  0x40, 0xcc, 0x88, 0xbe, 0x2f, 0x9c, 0x82, 0x3e, 0x58, 0x8b, 0xd8, 0xbd,
  0x02, 0x88, 0x51, 0x3e, 0x96, 0x94, 0x1a, 0x3e, 0x10, 0x7c, 0x4c, 0x3d,
  0xa0, 0xa9, 0x28, 0xbe, 0x84, 0xc4, 0x50, 0xbe, 0x66, 0x0f, 0x42, 0x3e,
  0x41, 0x0a, 0xba, 0x3e, 0xe0, 0x2c, 0xbf, 0xbc, 0x64, 0x59, 0xa0, 0xbe,
  0x99, 0x03, 0x48, 0xbe, 0xb8, 0x53, 0x81, 0xbd, 0x8c, 0x25, 0x95, 0xbd,
  0xe0, 0xa9, 0x2a, 0x3d, 0x1b, 0x19, 0x95, 0x3e, 0xfe, 0x1b, 0x7a, 0x3e,
  0x12, 0x74, 0x6c, 0xbe, 0x18, 0x24, 0x29, 0x3d, 0x90, 0x1a, 0xf1, 0xbc,
  0x28, 0xcf, 0xd1, 0xbd, 0x3a, 0x77, 0x6d, 0x3e, 0x90, 0x48, 0x93, 0xbe,
  0x7d, 0xee, 0xb5, 0x3e, 0x4a, 0xf8, 0x21, 0x3e, 0xaf, 0x98, 0x8b, 0x3e,
  0x50, 0xfc, 0x48, 0x3d, 0x7b, 0x6a, 0xab, 0x3e, 0x88, 0xde, 0xbb, 0x3d,
  0xf8, 0x1e, 0x4e, 0xbe, 0x2d, 0xf0, 0x5d, 0xbe, 0x70, 0x99, 0xd3, 0xbc,
  0x50, 0xee, 0x50, 0xbe, 0x86, 0x34, 0x9d, 0xbe, 0x1b, 0x23, 0x3e, 0xbe,
  0x55, 0x11, 0x14, 0xbe, 0xbc, 0x04, 0x94, 0xbd, 0x90, 0x31, 0xa0, 0xbc,
  0xe2, 0xcd, 0x1f, 0x3e, 0xae, 0x51, 0x61, 0x3e, 0x0e, 0x9b, 0x05, 0x3e,
  0xa1, 0x55, 0x8a, 0xbe, 0xae, 0xd9, 0x20, 0xbe, 0x4a, 0x09, 0x4e, 0x3e,
  0xa8, 0x4b, 0xc6, 0x3d, 0x97, 0x55, 0x5c, 0xbe, 0x69, 0xac, 0x83, 0x3e,
  0x5c, 0xf3, 0xa5, 0xbd, 0xb3, 0x2a, 0xad, 0x3e, 0x55, 0x1b, 0xb0, 0x3e,
  0x5e, 0x0e, 0x2b, 0xbe, 0x9c, 0x6a, 0x37, 0xbe, 0x38, 0x41, 0x4f, 0xbe,
  0x7a, 0x7e, 0x3c, 0x3e, 0x86, 0x23, 0x3e, 0x3e, 0xe8, 0xdb, 0x41, 0x3d,
  0xcf, 0xef, 0xa9, 0x3e, 0xac, 0x6b, 0x88, 0xbe, 0xe8, 0xb0, 0x82, 0xbd,
  0xe8, 0x41, 0x71, 0xbd, 0xda, 0xbe, 0x06, 0x3e, 0xf9, 0x89, 0xa5, 0xbe,
  0x80, 0xb0, 0xe1, 0xbd, 0x59, 0xc6, 0xa8, 0x3e, 0xf5, 0x1b, 0x9b, 0x3e,
  0x24, 0x2b, 0xa2, 0xbe, 0x44, 0x25, 0x22, 0xbe, 0x1e, 0xfd, 0xff, 0xff,
  0x10, 0x00, 0x00, 0x00, 0x06, 0x00, 0x00, 0x00, 0x10, 0x00, 0x00, 0x00,
  0x38, 0x00, 0x00, 0x00, 0x01, 0x00, 0x00, 0x00, 0x16, 0x00, 0x00, 0x00,
  0x24, 0x00, 0x00, 0x00, 0x73, 0x65, 0x71, 0x75, 0x65, 0x6e, 0x74, 0x69,
  0x61, 0x6c, 0x5f, 0x31, 0x32, 0x37, 0x2f, 0x64, 0x65, 0x6e, 0x73, 0x65,
  0x5f, 0x33, 0x31, 0x37, 0x2f, 0x4d, 0x61, 0x74, 0x4d, 0x75, 0x6c, 0x5f,
  0x62, 0x69, 0x61, 0x73, 0x00, 0x00, 0x00, 0x00, 0xbc, 0xfc, 0xff, 0xff,
  0x58, 0x00, 0x00, 0x00, 0x00, 0x00, 0x00, 0x00, 0x00, 0x00, 0x00, 0x00,
  0x00, 0x00, 0x00, 0x00, 0x00, 0x00, 0x00, 0x00, 0x00, 0x00, 0x00, 0x00,
  0x00, 0x00, 0x00, 0x00, 0x00, 0x00, 0x00, 0x00, 0x00, 0x00, 0x00, 0x00,
  0x00, 0x00, 0x00, 0x00, 0x00, 0x00, 0x00, 0x00, 0x00, 0x00, 0x00, 0x00,
  0x00, 0x00, 0x00, 0x00, 0x00, 0x00, 0x00, 0x00, 0x00, 0x00, 0x00, 0x00,
  0x00, 0x00, 0x00, 0x00, 0x00, 0x00, 0x00, 0x00, 0x00, 0x00, 0x00, 0x00,
  0x00, 0x00, 0x00, 0x00, 0x00, 0x00, 0x00, 0x00, 0x00, 0x00, 0x00, 0x00,
  0x00, 0x00, 0x00, 0x00, 0x00, 0x00, 0x00, 0x00, 0xc6, 0xfd, 0xff, 0xff,
  0x10, 0x00, 0x00, 0x00, 0x05, 0x00, 0x00, 0x00, 0x14, 0x00, 0x00, 0x00,
  0x50, 0x00, 0x00, 0x00, 0x02, 0x00, 0x00, 0x00, 0x16, 0x00, 0x00, 0x00,
  0x03, 0x00, 0x00, 0x00, 0x38, 0x00, 0x00, 0x00, 0x73, 0x65, 0x71, 0x75,
  0x65, 0x6e, 0x74, 0x69, 0x61, 0x6c, 0x5f, 0x31, 0x32, 0x37, 0x2f, 0x64,
  0x65, 0x6e, 0x73, 0x65, 0x5f, 0x33, 0x31, 0x37, 0x2f, 0x4d, 0x61, 0x74,
  0x4d, 0x75, 0x6c, 0x2f, 0x52, 0x65, 0x61, 0x64, 0x56, 0x61, 0x72, 0x69,
  0x61, 0x62, 0x6c, 0x65, 0x4f, 0x70, 0x2f, 0x74, 0x72, 0x61, 0x6e, 0x73,
  0x70, 0x6f, 0x73, 0x65, 0x00, 0x00, 0x00, 0x00, 0x7c, 0xfd, 0xff, 0xff,
  0x08, 0x01, 0x00, 0x00, 0x7a, 0x56, 0x0b, 0x3e, 0x50, 0xb5, 0xa3, 0x3c,
  0xac, 0x81, 0xeb, 0x3d, 0xc6, 0x44, 0x22, 0x3e, 0xc3, 0x18, 0xec, 0x3e,
  0x38, 0x06, 0xe6, 0xbd, 0x01, 0x9a, 0xa3, 0x3e, 0x52, 0xe9, 0x63, 0x3e,
  0xd7, 0x8b, 0xd0, 0x3e, 0x5c, 0x19, 0xbe, 0xbe, 0x62, 0x2b, 0x05, 0xbe,
  0xb4, 0xa2, 0xab, 0x3d, 0x4d, 0x54, 0xc4, 0x3e, 0xc2, 0x52, 0x8b, 0xbe,
  0xec, 0x30, 0xc7, 0xbd, 0xd6, 0xc6, 0x14, 0xbe, 0x1a, 0x9f, 0x71, 0x3e,
  0x2b, 0xca, 0xb0, 0x3e, 0xb4, 0xa4, 0xe4, 0xbd, 0x00, 0x79, 0x2a, 0xbe,
  0xe0, 0xeb, 0x01, 0xbe, 0x2f, 0xcf, 0xb4, 0x3e, 0xd5, 0xb7, 0xdd, 0x3e,
  0x00, 0xca, 0x9d, 0x3b, 0x36, 0x33, 0x42, 0x3e, 0xb2, 0x8f, 0x04, 0x3e,
  0x91, 0xc1, 0xac, 0x3e, 0x0d, 0xe0, 0xf7, 0x3e, 0xa2, 0xbc, 0x8f, 0xbe,
  0x30, 0x6f, 0x8d, 0xbd, 0xf6, 0x07, 0x1f, 0xbe, 0x76, 0x7a, 0x5c, 0x3e,
  0x50, 0x14, 0x32, 0xbd, 0x3f, 0x76, 0x99, 0x3e, 0xaa, 0x67, 0x6e, 0x3e,
  0xc8, 0x68, 0xda, 0xbd, 0x0b, 0xc9, 0xe9, 0x3e, 0xe7, 0x3a, 0xbe, 0x3e,
  0xe0, 0x1a, 0x7a, 0xbe, 0xbc, 0xbc, 0xab, 0xbd, 0x69, 0x9f, 0xef, 0x3e,
  0xe0, 0xb4, 0xb3, 0xbe, 0x8a, 0x86, 0x4c, 0x3e, 0x7f, 0xd4, 0xa7, 0x3e,
  0xfa, 0xb2, 0xd4, 0xbe, 0x5c, 0xbb, 0xaf, 0xbe, 0xcb, 0x51, 0x9e, 0x3e,
  0x23, 0xb1, 0xcc, 0x3e, 0x08, 0xe4, 0x07, 0x3d, 0x05, 0x1c, 0xed, 0x3e,
  0xcd, 0x5f, 0xc7, 0xbe, 0x2f, 0x79, 0xab, 0x3e, 0x6c, 0x1c, 0x97, 0xbe,
  0xb2, 0x0a, 0xc0, 0xbe, 0x80, 0xe8, 0x5d, 0xbe, 0x00, 0xea, 0xf5, 0xba,
  0xa4, 0x9b, 0xdf, 0xbe, 0x9c, 0x1f, 0xcd, 0x3d, 0x7d, 0xc1, 0xe0, 0x3e,
  0x9e, 0x95, 0x8d, 0xbe, 0x82, 0x30, 0x5c, 0x3e, 0xe5, 0xb7, 0xf0, 0xbe,
  0x5f, 0xbb, 0xae, 0x3e, 0x46, 0x5c, 0x61, 0x3e, 0x7e, 0xef, 0x0d, 0x3e,
  0x77, 0x74, 0xee, 0x3e, 0x36, 0xff, 0xff, 0xff, 0x10, 0x00, 0x00, 0x00,
  0x04, 0x00, 0x00, 0x00, 0x14, 0x00, 0x00, 0x00, 0x34, 0x00, 0x00, 0x00,
  0x02, 0x00, 0x00, 0x00, 0x01, 0x00, 0x00, 0x00, 0x16, 0x00, 0x00, 0x00,
  0x1d, 0x00, 0x00, 0x00, 0x73, 0x65, 0x71, 0x75, 0x65, 0x6e, 0x74, 0x69,
  0x61, 0x6c, 0x5f, 0x31, 0x32, 0x37, 0x2f, 0x64, 0x65, 0x6e, 0x73, 0x65,
  0x5f, 0x33, 0x31, 0x38, 0x2f, 0x52, 0x65, 0x6c, 0x75, 0x00, 0x00, 0x00,
  0xd0, 0xfe, 0xff, 0xff, 0x7e, 0xff, 0xff, 0xff, 0x10, 0x00, 0x00, 0x00,
  0x03, 0x00, 0x00, 0x00, 0x14, 0x00, 0x00, 0x00, 0x20, 0x00, 0x00, 0x00,
  0x02, 0x00, 0x00, 0x00, 0x01, 0x00, 0x00, 0x00, 0x16, 0x00, 0x00, 0x00,
  0x08, 0x00, 0x00, 0x00, 0x49, 0x64, 0x65, 0x6e, 0x74, 0x69, 0x74, 0x79,
  0x00, 0x00, 0x00, 0x00, 0x04, 0xff, 0xff, 0xff, 0xb2, 0xff, 0xff, 0xff,
  0x10, 0x00, 0x00, 0x00, 0x02, 0x00, 0x00, 0x00, 0x14, 0x00, 0x00, 0x00,
  0x38, 0x00, 0x00, 0x00, 0x02, 0x00, 0x00, 0x00, 0x01, 0x00, 0x00, 0x00,
  0x16, 0x00, 0x00, 0x00, 0x1d, 0x00, 0x00, 0x00, 0x73, 0x65, 0x71, 0x75,
  0x65, 0x6e, 0x74, 0x69, 0x61, 0x6c, 0x5f, 0x31, 0x32, 0x37, 0x2f, 0x64,
  0x65, 0x6e, 0x73, 0x65, 0x5f, 0x33, 0x31, 0x37, 0x2f, 0x52, 0x65, 0x6c,
  0x75, 0x00, 0x00, 0x00, 0x04, 0x00, 0x06, 0x00, 0x04, 0x00, 0x00, 0x00,
  0x00, 0x00, 0x0e, 0x00, 0x14, 0x00, 0x04, 0x00, 0x00, 0x00, 0x08, 0x00,
  0x0c, 0x00, 0x10, 0x00, 0x0e, 0x00, 0x00, 0x00, 0x10, 0x00, 0x00, 0x00,
  0x01, 0x00, 0x00, 0x00, 0x14, 0x00, 0x00, 0x00, 0x2c, 0x00, 0x00, 0x00,
  0x02, 0x00, 0x00, 0x00, 0x01, 0x00, 0x00, 0x00, 0x03, 0x00, 0x00, 0x00,
  0x0f, 0x00, 0x00, 0x00, 0x64, 0x65, 0x6e, 0x73, 0x65, 0x5f, 0x33, 0x31,
  0x37, 0x5f, 0x69, 0x6e, 0x70, 0x75, 0x74, 0x00, 0x08, 0x00, 0x0c, 0x00,
  0x04, 0x00, 0x08, 0x00, 0x08, 0x00, 0x00, 0x00, 0x10, 0x00, 0x00, 0x00,
  0x04, 0x00, 0x00, 0x00, 0x01, 0x00, 0x00, 0x00, 0x00, 0x00, 0x7f, 0x43,
  0x01, 0x00, 0x00, 0x00, 0x00, 0x00, 0x00, 0x00, 0x03, 0x00, 0x00, 0x00,
  0x98, 0x00, 0x00, 0x00, 0x44, 0x00, 0x00, 0x00, 0x04, 0x00, 0x00, 0x00,
  0x88, 0xff, 0xff, 0xff, 0x00, 0x00, 0x00, 0x08, 0x10, 0x00, 0x00, 0x00,
  0x1c, 0x00, 0x00, 0x00, 0x28, 0x00, 0x00, 0x00, 0x1c, 0x00, 0x00, 0x00,
  0x03, 0x00, 0x00, 0x00, 0x06, 0x00, 0x00, 0x00, 0x07, 0x00, 0x00, 0x00,
  0x03, 0x00, 0x00, 0x00, 0x01, 0x00, 0x00, 0x00, 0x00, 0x00, 0x00, 0x00,
  0x00, 0x00, 0x00, 0x00, 0x04, 0x00, 0x04, 0x00, 0x04, 0x00, 0x00, 0x00,
  0xc4, 0xff, 0xff, 0xff, 0x00, 0x00, 0x00, 0x08, 0x10, 0x00, 0x00, 0x00,
  0x1c, 0x00, 0x00, 0x00, 0x24, 0x00, 0x00, 0x00, 0x1c, 0x00, 0x00, 0x00,
  0x03, 0x00, 0x00, 0x00, 0x04, 0x00, 0x00, 0x00, 0x05, 0x00, 0x00, 0x00,
  0x03, 0x00, 0x00, 0x00, 0x01, 0x00, 0x00, 0x00, 0x06, 0x00, 0x00, 0x00,
  0x00, 0x00, 0x00, 0x00, 0x8e, 0xff, 0xff, 0xff, 0x00, 0x00, 0x00, 0x01,
  0x14, 0x00, 0x18, 0x00, 0x00, 0x00, 0x08, 0x00, 0x0c, 0x00, 0x07, 0x00,
  0x10, 0x00, 0x00, 0x00, 0x00, 0x00, 0x14, 0x00, 0x14, 0x00, 0x00, 0x00,
  0x00, 0x00, 0x00, 0x08, 0x10, 0x00, 0x00, 0x00, 0x1c, 0x00, 0x00, 0x00,
  0x24, 0x00, 0x00, 0x00, 0x1c, 0x00, 0x00, 0x00, 0x03, 0x00, 0x00, 0x00,
  0x01, 0x00, 0x00, 0x00, 0x02, 0x00, 0x00, 0x00, 0x03, 0x00, 0x00, 0x00,
  0x01, 0x00, 0x00, 0x00, 0x04, 0x00, 0x00, 0x00, 0x00, 0x00, 0x00, 0x00,
  0xde, 0xff, 0xff, 0xff, 0x00, 0x00, 0x00, 0x01, 0x01, 0x00, 0x00, 0x00,
  0x04, 0x00, 0x00, 0x00, 0xfa, 0xff, 0xff, 0xff, 0x00, 0x09, 0x06, 0x00,
  0x06, 0x00, 0x05, 0x00, 0x06, 0x00, 0x00, 0x00, 0x00, 0x09, 0x06, 0x00,
  0x08, 0x00, 0x07, 0x00, 0x06, 0x00, 0x00, 0x00, 0x00, 0x00, 0x00, 0x09
};
unsigned int DNN_Ah_22_tflite_len = 5520;
