unsigned char DNN_hybrid_22_tflite[] = {
  0x1c, 0x00, 0x00, 0x00, 0x54, 0x46, 0x4c, 0x33, 0x00, 0x00, 0x12, 0x00,
  0x1c, 0x00, 0x04, 0x00, 0x08, 0x00, 0x0c, 0x00, 0x10, 0x00, 0x14, 0x00,
  0x00, 0x00, 0x18, 0x00, 0x12, 0x00, 0x00, 0x00, 0x03, 0x00, 0x00, 0x00,
  0xf4, 0x23, 0x00, 0x00, 0x10, 0x00, 0x00, 0x00, 0x1c, 0x00, 0x00, 0x00,
  0x2c, 0x00, 0x00, 0x00, 0x0c, 0x00, 0x00, 0x00, 0x01, 0x00, 0x00, 0x00,
  0xe0, 0x00, 0x00, 0x00, 0x01, 0x00, 0x00, 0x00, 0xa8, 0x00, 0x00, 0x00,
  0x0f, 0x00, 0x00, 0x00, 0x54, 0x4f, 0x43, 0x4f, 0x20, 0x43, 0x6f, 0x6e,
  0x76, 0x65, 0x72, 0x74, 0x65, 0x64, 0x2e, 0x00, 0x0b, 0x00, 0x00, 0x00,
  0x7c, 0x00, 0x00, 0x00, 0x74, 0x00, 0x00, 0x00, 0x6c, 0x00, 0x00, 0x00,
  0x64, 0x00, 0x00, 0x00, 0x5c, 0x00, 0x00, 0x00, 0x50, 0x00, 0x00, 0x00,
  0x3c, 0x00, 0x00, 0x00, 0x28, 0x00, 0x00, 0x00, 0x1c, 0x00, 0x00, 0x00,
  0x10, 0x00, 0x00, 0x00, 0x04, 0x00, 0x00, 0x00, 0xce, 0xff, 0xff, 0xff,
  0x50, 0x00, 0x00, 0x00, 0xd6, 0xff, 0xff, 0xff, 0x1c, 0x01, 0x00, 0x00,
  0xde, 0xff, 0xff, 0xff, 0xd4, 0x01, 0x00, 0x00, 0xf6, 0xff, 0xff, 0xff,
  0x24, 0x0b, 0x00, 0x00, 0x00, 0x00, 0x06, 0x00, 0x0a, 0x00, 0x04, 0x00,
  0x06, 0x00, 0x00, 0x00, 0xf4, 0x15, 0x00, 0x00, 0x00, 0x00, 0x06, 0x00,
  0x08, 0x00, 0x04, 0x00, 0x06, 0x00, 0x00, 0x00, 0xb4, 0x16, 0x00, 0x00,
  0x48, 0xdd, 0xff, 0xff, 0x4c, 0xdd, 0xff, 0xff, 0x50, 0xdd, 0xff, 0xff,
  0x54, 0xdd, 0xff, 0xff, 0x58, 0xdd, 0xff, 0xff, 0x05, 0x00, 0x00, 0x00,
  0x31, 0x2e, 0x35, 0x2e, 0x30, 0x00, 0x00, 0x00, 0xd0, 0xdd, 0xff, 0xff,
  0x08, 0x00, 0x00, 0x00, 0x0a, 0x00, 0x00, 0x00, 0x13, 0x00, 0x00, 0x00,
  0x6d, 0x69, 0x6e, 0x5f, 0x72, 0x75, 0x6e, 0x74, 0x69, 0x6d, 0x65, 0x5f,
  0x76, 0x65, 0x72, 0x73, 0x69, 0x6f, 0x6e, 0x00, 0x0c, 0x00, 0x14, 0x00,
  0x04, 0x00, 0x08, 0x00, 0x0c, 0x00, 0x10, 0x00, 0x0c, 0x00, 0x00, 0x00,
  0x20, 0x00, 0x00, 0x00, 0x14, 0x00, 0x00, 0x00, 0x08, 0x00, 0x00, 0x00,
  0x14, 0x22, 0x00, 0x00, 0x01, 0x00, 0x00, 0x00, 0x00, 0x00, 0x00, 0x00,
  0x01, 0x00, 0x00, 0x00, 0x01, 0x00, 0x00, 0x00, 0x09, 0x00, 0x00, 0x00,
  0xcc, 0x20, 0x00, 0x00, 0xa0, 0x21, 0x00, 0x00, 0xcc, 0x15, 0x00, 0x00,
  0x10, 0x15, 0x00, 0x00, 0x38, 0x21, 0x00, 0x00, 0x10, 0x0a, 0x00, 0x00,
  0xe8, 0x20, 0x00, 0x00, 0xb0, 0x00, 0x00, 0x00, 0x04, 0x00, 0x00, 0x00,
  0x8e, 0xde, 0xff, 0xff, 0x10, 0x00, 0x00, 0x00, 0x09, 0x00, 0x00, 0x00,
  0x10, 0x00, 0x00, 0x00, 0x38, 0x00, 0x00, 0x00, 0x01, 0x00, 0x00, 0x00,
  0x16, 0x00, 0x00, 0x00, 0x24, 0x00, 0x00, 0x00, 0x73, 0x65, 0x71, 0x75,
  0x65, 0x6e, 0x74, 0x69, 0x61, 0x6c, 0x5f, 0x31, 0x33, 0x31, 0x2f, 0x64,
  0x65, 0x6e, 0x73, 0x65, 0x5f, 0x33, 0x32, 0x39, 0x2f, 0x4d, 0x61, 0x74,
  0x4d, 0x75, 0x6c, 0x5f, 0x62, 0x69, 0x61, 0x73, 0x00, 0x00, 0x00, 0x00,
  0x2c, 0xde, 0xff, 0xff, 0x58, 0x00, 0x00, 0x00, 0x00, 0x00, 0x00, 0x00,
  0x00, 0x00, 0x00, 0x00, 0x00, 0x00, 0x00, 0x00, 0x00, 0x00, 0x00, 0x00,
  0x00, 0x00, 0x00, 0x00, 0x00, 0x00, 0x00, 0x00, 0x00, 0x00, 0x00, 0x00,
  0x00, 0x00, 0x00, 0x00, 0x00, 0x00, 0x00, 0x00, 0x00, 0x00, 0x00, 0x00,
  0x00, 0x00, 0x00, 0x00, 0x00, 0x00, 0x00, 0x00, 0x00, 0x00, 0x00, 0x00,
  0x00, 0x00, 0x00, 0x00, 0x00, 0x00, 0x00, 0x00, 0x00, 0x00, 0x00, 0x00,
  0x00, 0x00, 0x00, 0x00, 0x00, 0x00, 0x00, 0x00, 0x00, 0x00, 0x00, 0x00,
  0x00, 0x00, 0x00, 0x00, 0x00, 0x00, 0x00, 0x00, 0x00, 0x00, 0x00, 0x00,
  0x36, 0xdf, 0xff, 0xff, 0x10, 0x00, 0x00, 0x00, 0x08, 0x00, 0x00, 0x00,
  0x14, 0x00, 0x00, 0x00, 0x50, 0x00, 0x00, 0x00, 0x02, 0x00, 0x00, 0x00,
  0x16, 0x00, 0x00, 0x00, 0x1a, 0x00, 0x00, 0x00, 0x38, 0x00, 0x00, 0x00,
  0x73, 0x65, 0x71, 0x75, 0x65, 0x6e, 0x74, 0x69, 0x61, 0x6c, 0x5f, 0x31,
  0x33, 0x31, 0x2f, 0x64, 0x65, 0x6e, 0x73, 0x65, 0x5f, 0x33, 0x32, 0x39,
  0x2f, 0x4d, 0x61, 0x74, 0x4d, 0x75, 0x6c, 0x2f, 0x52, 0x65, 0x61, 0x64,
  0x56, 0x61, 0x72, 0x69, 0x61, 0x62, 0x6c, 0x65, 0x4f, 0x70, 0x2f, 0x74,
  0x72, 0x61, 0x6e, 0x73, 0x70, 0x6f, 0x73, 0x65, 0x00, 0x00, 0x00, 0x00,
  0xec, 0xde, 0xff, 0xff, 0xf0, 0x08, 0x00, 0x00, 0xdd, 0x0d, 0x8b, 0x3e,
  0x76, 0x12, 0xd9, 0xbd, 0x75, 0xd4, 0xb2, 0x3e, 0x40, 0x6e, 0xa7, 0xbe,
  0x22, 0x6c, 0x6f, 0x3e, 0xa9, 0xe1, 0x86, 0xbe, 0xd3, 0xef, 0x84, 0x3e,
  0x52, 0x2b, 0x62, 0x3e, 0xd2, 0xf2, 0x2c, 0x3e, 0x40, 0xaa, 0x0b, 0x3d,
  0x00, 0x44, 0xc7, 0xb9, 0x2a, 0xaf, 0x7c, 0x3e, 0xcc, 0x32, 0x9f, 0xbe,
  0x2b, 0x03, 0x7f, 0xbe, 0xa2, 0xe4, 0x2e, 0x3e, 0xbc, 0xb4, 0xbc, 0x3d,
  0x93, 0xd1, 0x96, 0x3e, 0x24, 0xf0, 0x54, 0xbe, 0x80, 0x12, 0xae, 0xbb,
  0x90, 0x47, 0xde, 0x3c, 0x60, 0x13, 0xcc, 0xbc, 0xae, 0x24, 0x81, 0xbe,
  0xc0, 0xf6, 0x84, 0x3d, 0x45, 0xfc, 0x66, 0xbe, 0xb8, 0x70, 0x44, 0x3d,
  0xc0, 0xf0, 0x1f, 0x3d, 0x38, 0x07, 0x19, 0xbd, 0xbe, 0x84, 0x63, 0x3e,
  0x1e, 0xaf, 0x85, 0xbe, 0xc0, 0x38, 0x48, 0xbc, 0x35, 0x35, 0x91, 0x3e,
  0xe8, 0x3b, 0x8b, 0xbe, 0x3e, 0x43, 0x0f, 0xbe, 0xa2, 0xe8, 0xb2, 0xbe,
  0x62, 0x0c, 0x6a, 0xbe, 0xcc, 0x53, 0x30, 0xbe, 0x10, 0x9c, 0x26, 0xbd,
  0x08, 0x42, 0x5a, 0xbe, 0x07, 0xd1, 0xa4, 0x3e, 0x28, 0xe5, 0x9b, 0x3d,
  0x42, 0xf6, 0x2b, 0xbe, 0x2c, 0x8b, 0x0e, 0xbe, 0xe0, 0xb2, 0xa7, 0xbd,
  0x75, 0xa6, 0x98, 0x3e, 0xd0, 0x5f, 0x1c, 0xbe, 0x99, 0xbc, 0xa2, 0xbe,
  0x30, 0xff, 0xf8, 0x3c, 0xe4, 0xf9, 0xd0, 0xbd, 0xa8, 0xcf, 0xd9, 0xbd,
  0xdb, 0xa0, 0x89, 0xbe, 0xd0, 0x58, 0x0e, 0xbe, 0x98, 0x0f, 0xd7, 0x3d,
  0x06, 0x8a, 0x38, 0xbe, 0x3d, 0xca, 0x94, 0x3e, 0x13, 0xa9, 0xa5, 0x3e,
  0x00, 0x2c, 0xa0, 0x3a, 0x59, 0x69, 0x9e, 0xbe, 0xe6, 0x45, 0x67, 0x3e,
  0x28, 0x31, 0x65, 0xbe, 0xb3, 0x02, 0x9d, 0xbe, 0x16, 0xd1, 0x93, 0xbe,
  0xdc, 0xb3, 0xc7, 0xbd, 0x96, 0x0f, 0x12, 0x3e, 0xa2, 0xdd, 0x29, 0x3e,
  0x15, 0xec, 0x25, 0xbe, 0xd6, 0xd9, 0x1e, 0x3e, 0x5a, 0x42, 0x2d, 0x3e,
  0x2c, 0xd7, 0x04, 0xbe, 0x52, 0xb2, 0x19, 0x3e, 0x3c, 0xaf, 0xcd, 0xbd,
  0x12, 0x94, 0x42, 0x3e, 0x50, 0x5e, 0x82, 0xbe, 0xf0, 0x7b, 0xb3, 0xbd,
  0x4e, 0xce, 0x92, 0xbe, 0xbe, 0xc3, 0xe2, 0xbd, 0xe0, 0x8a, 0x6d, 0xbe,
  0x0a, 0x33, 0x43, 0x3e, 0x5c, 0xea, 0x42, 0xbe, 0xf9, 0x35, 0xb3, 0xbe,
  0x52, 0x56, 0xf7, 0xbd, 0xc2, 0x77, 0x5b, 0x3e, 0x60, 0x60, 0x2e, 0xbc,
  0xd7, 0x19, 0x51, 0xbe, 0x1e, 0x79, 0x17, 0xbe, 0x9f, 0x61, 0x9a, 0x3e,
  0x19, 0x95, 0x16, 0xbe, 0x78, 0x99, 0x0e, 0xbe, 0x70, 0xdd, 0xbc, 0x3d,
  0x23, 0xf8, 0x89, 0x3e, 0x68, 0x38, 0xc6, 0x3d, 0x52, 0x93, 0x35, 0x3e,
  0x0d, 0xc4, 0x94, 0x3e, 0x00, 0xbc, 0xfc, 0x3d, 0x78, 0x4a, 0x37, 0x3d,
  0x86, 0x9f, 0xeb, 0xbd, 0x15, 0x5b, 0x9c, 0xbe, 0xaa, 0x02, 0x0c, 0x3e,
  0x50, 0x9b, 0xc0, 0xbd, 0xf8, 0xb1, 0xb3, 0xbe, 0xb6, 0x7d, 0x78, 0x3e,
  0x30, 0x18, 0xc4, 0x3c, 0x98, 0x91, 0xeb, 0x3d, 0x74, 0x9b, 0xd6, 0xbd,
  0xc0, 0xa4, 0xb5, 0xbd, 0xd9, 0x36, 0xae, 0x3e, 0xdd, 0x99, 0x39, 0xbe,
  0x40, 0x33, 0xc2, 0xbc, 0x88, 0xed, 0x09, 0xbe, 0x57, 0x1b, 0x45, 0xbe,
  0xb2, 0xb7, 0x25, 0x3e, 0xde, 0x80, 0x18, 0x3e, 0x10, 0xae, 0x9d, 0x3c,
  0x20, 0x6a, 0x00, 0x3e, 0xd6, 0x68, 0x4e, 0x3e, 0x72, 0x95, 0x35, 0x3e,
  0xc0, 0x35, 0x40, 0xbc, 0x37, 0xf1, 0xb2, 0x3e, 0x70, 0x70, 0xa6, 0x3d,
  0x23, 0xea, 0xa0, 0x3e, 0x25, 0x8a, 0xa9, 0x3e, 0xa7, 0xf9, 0x9e, 0x3e,
  0x98, 0xff, 0xd6, 0x3d, 0x50, 0xa4, 0x22, 0xbd, 0xfc, 0xf1, 0xfd, 0x3d,
  0xb0, 0x13, 0x1f, 0x3d, 0xc9, 0x5f, 0x29, 0xbe, 0xbe, 0x1c, 0x79, 0xbe,
  0xd0, 0x30, 0x2e, 0xbd, 0xdb, 0x7c, 0xb2, 0x3e, 0x3b, 0xa5, 0xb3, 0xbe,
  0xfd, 0x49, 0x51, 0xbe, 0x22, 0xcd, 0x55, 0x3e, 0xa0, 0x78, 0x8c, 0x3d,
  0x70, 0x61, 0xb7, 0x3d, 0xd8, 0xed, 0x92, 0x3d, 0x1e, 0xff, 0x37, 0x3e,
  0x64, 0x14, 0x0c, 0x3e, 0x1d, 0x87, 0x88, 0x3e, 0xcc, 0x15, 0xf2, 0x3d,
  0x6a, 0x61, 0x17, 0x3e, 0x4c, 0xce, 0xf1, 0x3d, 0x30, 0x17, 0x64, 0xbd,
  0x00, 0x00, 0xb0, 0x37, 0xc0, 0xea, 0x38, 0x3d, 0x91, 0xc2, 0x91, 0xbe,
  0x70, 0xfd, 0x00, 0xbd, 0x40, 0xc7, 0xd7, 0xbb, 0x0c, 0x81, 0xba, 0xbd,
  0x40, 0xc3, 0x23, 0xbc, 0xa3, 0x01, 0x9c, 0x3e, 0x40, 0x55, 0xba, 0xbc,
  0x08, 0x2e, 0x12, 0xbd, 0x10, 0xbf, 0xe5, 0x3d, 0x92, 0x41, 0x67, 0x3e,
  0x0c, 0x3e, 0x80, 0xbd, 0xf8, 0x04, 0x55, 0xbd, 0x09, 0xed, 0xad, 0x3e,
  0x5a, 0xd1, 0x5e, 0x3e, 0x35, 0x62, 0xa5, 0x3e, 0xa3, 0x4c, 0x97, 0xbe,
  0x50, 0x66, 0x7a, 0x3d, 0x60, 0x8f, 0x01, 0x3d, 0xa3, 0x0d, 0x67, 0xbe,
  0x37, 0x65, 0xa0, 0x3e, 0xc6, 0x57, 0x38, 0x3e, 0x1a, 0xde, 0x70, 0x3e,
  0xc2, 0xe7, 0x4a, 0x3e, 0xf9, 0x19, 0xb1, 0x3e, 0xd8, 0x15, 0x3b, 0x3d,
  0x14, 0x7e, 0xa2, 0xbd, 0x88, 0x31, 0xaf, 0x3d, 0x6b, 0xc1, 0xaa, 0x3e,
  0xba, 0x18, 0x02, 0x3e, 0x02, 0x41, 0x57, 0xbe, 0xb4, 0xdc, 0xc5, 0xbd,
  0xc5, 0xf1, 0x81, 0x3e, 0x9d, 0xec, 0x46, 0xbe, 0xd5, 0x52, 0xa6, 0x3e,
  0xf2, 0x90, 0x59, 0xbe, 0x71, 0x46, 0x96, 0xbe, 0x70, 0x59, 0xaa, 0x3d,
  0x6a, 0x4e, 0x08, 0x3e, 0x20, 0x86, 0xa3, 0x3c, 0xb5, 0xdc, 0x97, 0x3e,
  0x15, 0x18, 0x94, 0xbe, 0x59, 0x7a, 0x68, 0xbe, 0x88, 0x5a, 0x94, 0xbd,
  0x1e, 0x78, 0x31, 0xbe, 0xf9, 0xf4, 0x30, 0xbe, 0x51, 0x85, 0x8e, 0xbe,
  0x14, 0x30, 0x9d, 0xbe, 0x0a, 0xb2, 0x57, 0x3e, 0x14, 0xb8, 0xf2, 0x3d,
  0xb0, 0x7d, 0x4f, 0x3d, 0x4c, 0x4c, 0x9f, 0xbe, 0xa0, 0xd6, 0xf5, 0xbd,
  0x30, 0xd3, 0x00, 0x3d, 0xfa, 0xac, 0xa4, 0xbe, 0x4a, 0x1c, 0x1b, 0x3e,
  0x4a, 0x5f, 0x51, 0xbe, 0x9a, 0x7c, 0xaf, 0xbe, 0x30, 0xa6, 0x75, 0x3d,
  0x54, 0x2d, 0x92, 0xbd, 0x20, 0x92, 0x7f, 0xbd, 0x84, 0x59, 0xfd, 0xbd,
  0x2f, 0xba, 0x94, 0x3e, 0xbd, 0xab, 0x99, 0x3e, 0x6a, 0xeb, 0x1a, 0x3e,
  0xcc, 0x03, 0x89, 0xbe, 0x44, 0xfb, 0xf8, 0x3d, 0xd8, 0x5d, 0x0c, 0x3e,
  0x78, 0xe3, 0x33, 0x3d, 0xd4, 0x35, 0x9b, 0xbd, 0x8c, 0xde, 0xc4, 0x3d,
  0x22, 0x96, 0x02, 0x3e, 0x19, 0x71, 0x8a, 0x3e, 0x7c, 0x27, 0x97, 0x3d,
  0xcf, 0x54, 0x5f, 0xbe, 0xa0, 0xc3, 0xb9, 0xbd, 0xe6, 0x76, 0x0c, 0xbe,
  0x10, 0x3a, 0x6f, 0x3d, 0x50, 0x4a, 0xc9, 0xbd, 0xf9, 0x87, 0xab, 0xbe,
  0x46, 0x27, 0x12, 0x3e, 0x3d, 0x38, 0x89, 0x3e, 0xb9, 0x60, 0x8e, 0x3e,
  0x00, 0x27, 0x84, 0x3d, 0xf8, 0xb0, 0xcb, 0xbd, 0xc0, 0xe1, 0x0b, 0xbd,
  0xc0, 0x8f, 0x7f, 0xbe, 0x9c, 0xe8, 0x84, 0xbe, 0xcd, 0x2e, 0xa7, 0x3e,
  0x9d, 0x85, 0x94, 0x3e, 0xb5, 0xb0, 0xab, 0x3e, 0x16, 0xe5, 0xa7, 0xbe,
  0x15, 0x5d, 0x95, 0x3e, 0xee, 0x03, 0x35, 0x3e, 0x4a, 0xb8, 0x2e, 0x3e,
  0x45, 0x6b, 0xb3, 0x3e, 0xa6, 0x24, 0x15, 0xbe, 0xe4, 0xec, 0xed, 0x3d,
  0x25, 0x9b, 0x8f, 0x3e, 0xb9, 0x89, 0x32, 0xbe, 0x50, 0xf6, 0xc7, 0xbc,
  0x24, 0xe1, 0xd3, 0xbd, 0x98, 0x80, 0xbc, 0xbd, 0x0d, 0xdc, 0x91, 0x3e,
  0xc3, 0x4c, 0x64, 0xbe, 0x48, 0x67, 0xcf, 0xbd, 0xe0, 0xb5, 0x73, 0x3d,
  0x0a, 0xb7, 0x21, 0x3e, 0x00, 0xc0, 0xf5, 0x3d, 0x3c, 0xfa, 0xa1, 0xbe,
  0x82, 0xc4, 0xaf, 0xbe, 0xc8, 0x44, 0x87, 0xbd, 0x46, 0xad, 0x5e, 0x3e,
  0x0e, 0x46, 0xdd, 0xbd, 0x30, 0x93, 0x46, 0xbe, 0xe0, 0xf5, 0xca, 0xbc,
  0x6c, 0xad, 0x23, 0xbe, 0xd2, 0x04, 0x78, 0xbe, 0xc2, 0x94, 0x31, 0xbe,
  0xe6, 0xc5, 0x7a, 0x3e, 0x3f, 0xc7, 0xb1, 0xbe, 0x64, 0xec, 0xdc, 0x3d,
  0xc2, 0xcb, 0x74, 0x3e, 0xfe, 0x11, 0x5d, 0x3e, 0xc2, 0xac, 0x34, 0xbe,
  0xcb, 0xfa, 0xa1, 0x3e, 0x00, 0xa0, 0x90, 0x3b, 0x60, 0xc1, 0x27, 0x3c,
  0xaa, 0x14, 0x52, 0x3e, 0x9b, 0x44, 0x1d, 0xbe, 0xf5, 0x91, 0x92, 0xbe,
  0xa6, 0x1c, 0x30, 0x3e, 0x07, 0x64, 0xab, 0x3e, 0x8a, 0xc5, 0x6d, 0x3e,
  0x00, 0x98, 0xaa, 0x39, 0x8b, 0xc6, 0x95, 0xbe, 0x16, 0x7a, 0x8f, 0xbe,
  0x80, 0xf8, 0xc2, 0xbd, 0x4a, 0x18, 0x76, 0x3e, 0x89, 0x37, 0x0a, 0xbe,
  0x8c, 0x35, 0x7b, 0xbe, 0x84, 0xed, 0x08, 0x3e, 0x8d, 0x3a, 0x86, 0xbe,
  0x00, 0x31, 0xe3, 0xba, 0xf9, 0x87, 0x98, 0x3e, 0xd1, 0x75, 0x86, 0x3e,
  0xe0, 0xc1, 0x00, 0xbd, 0x43, 0x87, 0xa5, 0xbe, 0xba, 0xd8, 0x3e, 0xbe,
  0x92, 0xaf, 0xfb, 0xbd, 0x98, 0x29, 0xca, 0x3d, 0x00, 0xc7, 0x25, 0xbe,
  0x82, 0x85, 0x2a, 0x3e, 0x5b, 0x55, 0x8a, 0xbe, 0xbe, 0xa5, 0x35, 0x3e,
  0x26, 0xdb, 0x18, 0x3e, 0x50, 0xa4, 0xe2, 0x3d, 0x6c, 0xc5, 0xef, 0x3d,
  0x22, 0x11, 0x67, 0x3e, 0x4e, 0x6f, 0x0b, 0x3e, 0x05, 0x5f, 0xa2, 0x3e,
  0x40, 0x40, 0x42, 0x3d, 0x20, 0xc6, 0x6b, 0xbe, 0x0a, 0x0c, 0x4b, 0xbe,
  0x14, 0xd2, 0x82, 0xbe, 0x2a, 0x19, 0x60, 0xbe, 0x9c, 0x6d, 0x09, 0x3e,
  0x5c, 0xe7, 0xc2, 0x3d, 0xa6, 0x10, 0x55, 0x3e, 0x47, 0x51, 0x84, 0x3e,
  0xa0, 0x1c, 0x33, 0xbe, 0x40, 0x94, 0xf0, 0x3b, 0xb8, 0xf6, 0x31, 0x3d,
  0xb4, 0x1b, 0xf1, 0xbd, 0xe0, 0xe5, 0x56, 0x3d, 0x6c, 0x58, 0x9f, 0xbd,
  0x3d, 0xef, 0xac, 0x3e, 0xe0, 0xdf, 0x0a, 0xbc, 0xe0, 0x6b, 0x65, 0x3c,
  0xd9, 0x8d, 0x49, 0xbe, 0xac, 0x66, 0x89, 0xbe, 0xf2, 0x52, 0x55, 0x3e,
  0x52, 0xc2, 0xf9, 0xbd, 0xce, 0xd4, 0xa4, 0xbe, 0xd2, 0x92, 0x1f, 0x3e,
  0xa0, 0x05, 0xc4, 0x3c, 0x36, 0xc0, 0x6f, 0x3e, 0x9f, 0xa4, 0xb1, 0xbe,
  0xfd, 0x15, 0x63, 0xbe, 0xf8, 0x9a, 0x0d, 0x3d, 0x8c, 0x18, 0xd6, 0x3d,
  0x40, 0x27, 0xa1, 0xbc, 0xf4, 0x4c, 0xe5, 0xbd, 0xb2, 0x5d, 0x2d, 0x3e,
  0x0e, 0x0c, 0x5c, 0x3e, 0x70, 0x41, 0xd5, 0xbc, 0xe7, 0xf1, 0x85, 0x3e,
  0x20, 0xdb, 0xe2, 0x3d, 0x63, 0x78, 0x9d, 0x3e, 0x79, 0xbe, 0x53, 0xbe,
  0x16, 0x65, 0xac, 0xbe, 0x00, 0x1a, 0x6b, 0x3d, 0xf3, 0x5e, 0x68, 0xbe,
  0xf0, 0xc8, 0x0d, 0xbd, 0xfb, 0x03, 0x88, 0x3e, 0xf0, 0xc4, 0x21, 0xbd,
  0x75, 0xa0, 0x9e, 0xbe, 0xd4, 0x22, 0xa1, 0xbe, 0xe6, 0x10, 0x33, 0x3e,
  0xe4, 0x12, 0x8c, 0x3d, 0xa0, 0x2a, 0xfc, 0xbc, 0x30, 0xe2, 0xf4, 0xbd,
  0x0e, 0x45, 0x23, 0x3e, 0x28, 0x44, 0x9a, 0xbe, 0x06, 0x2c, 0x83, 0xbe,
  0x50, 0xf9, 0x08, 0xbe, 0x68, 0x06, 0x5d, 0x3d, 0x00, 0x7f, 0xd8, 0xba,
  0xe8, 0xe4, 0x8f, 0xbd, 0xeb, 0xc7, 0x9d, 0xbe, 0x84, 0xa2, 0xdd, 0xbd,
  0x60, 0xd7, 0xdf, 0x3c, 0xe5, 0x35, 0x3d, 0xbe, 0x48, 0x7d, 0x2d, 0xbd,
  0xa8, 0x36, 0x31, 0x3d, 0x9e, 0x5c, 0x77, 0xbe, 0x14, 0x52, 0xd0, 0x3d,
  0x60, 0x79, 0x83, 0xbe, 0xfc, 0x1b, 0xbb, 0x3d, 0x9c, 0xc4, 0xd1, 0x3d,
  0xa5, 0xec, 0x51, 0xbe, 0x59, 0x7e, 0x4f, 0xbe, 0x20, 0x07, 0x17, 0x3c,
  0x3c, 0x4b, 0x90, 0xbe, 0x1b, 0x45, 0xab, 0x3e, 0x5a, 0x1e, 0x19, 0x3e,
  0xd2, 0x34, 0x4e, 0x3e, 0xa8, 0x66, 0x82, 0xbe, 0xc0, 0x2c, 0x82, 0xbe,
  0x40, 0x9a, 0x3c, 0xbc, 0x14, 0xdb, 0x2b, 0xbe, 0x8b, 0x59, 0x23, 0xbe,
  0x32, 0xa2, 0x3a, 0x3e, 0x80, 0x37, 0x6e, 0xbb, 0xe1, 0xe7, 0x91, 0x3e,
  0xe4, 0x57, 0x87, 0xbe, 0x24, 0xce, 0x9c, 0xbe, 0x06, 0xcb, 0x64, 0xbe,
  0xdb, 0x3d, 0x83, 0x3e, 0xaa, 0x8a, 0x20, 0x3e, 0x46, 0xf5, 0x68, 0x3e,
  0x2a, 0x9e, 0x14, 0x3e, 0x0e, 0xcb, 0x4e, 0x3e, 0x14, 0x7b, 0xb0, 0xbd,
  0xc0, 0x6e, 0xe2, 0x3d, 0xcd, 0x95, 0xab, 0x3e, 0x42, 0xa7, 0x6f, 0x3e,
  0x58, 0xc9, 0x49, 0xbd, 0x5a, 0xbc, 0x5f, 0x3e, 0x70, 0x42, 0x65, 0xbe,
  0x00, 0x0c, 0x07, 0xbb, 0x05, 0x84, 0x37, 0xbe, 0xbd, 0x23, 0x92, 0x3e,
  0x43, 0x3b, 0xa6, 0x3e, 0x83, 0x8e, 0x05, 0xbe, 0x64, 0xa6, 0xa5, 0xbd,
  0x3e, 0x95, 0x94, 0xbe, 0x80, 0xb7, 0x10, 0x3c, 0x01, 0x6f, 0x1a, 0xbe,
  0x57, 0x5b, 0xaa, 0xbe, 0x00, 0x40, 0xf2, 0x3a, 0x80, 0x9c, 0x00, 0x3b,
  0x68, 0x23, 0x5d, 0xbd, 0xc4, 0x2b, 0x43, 0xbe, 0xf5, 0x1a, 0xa7, 0x3e,
  0x08, 0x6b, 0x90, 0xbd, 0xa2, 0x62, 0x00, 0xbe, 0xca, 0x66, 0x4a, 0x3e,
  0x08, 0x96, 0xac, 0xbe, 0x78, 0xe7, 0x8a, 0x3d, 0xd9, 0xf2, 0x4e, 0xbe,
  0x70, 0x3c, 0x73, 0xbd, 0x6f, 0x5b, 0xb3, 0x3e, 0x60, 0x0e, 0x2d, 0xbc,
  0x60, 0xda, 0x23, 0xbd, 0xbb, 0x42, 0x8b, 0x3e, 0x1b, 0x60, 0xa8, 0x3e,
  0xd4, 0x43, 0x8d, 0xbd, 0xe6, 0x80, 0x05, 0x3e, 0x4c, 0xa8, 0x5e, 0xbe,
  0x75, 0xe3, 0x84, 0x3e, 0xdf, 0x2f, 0x8e, 0x3e, 0x2a, 0x16, 0x75, 0x3e,
  0x91, 0x2c, 0x8a, 0x3e, 0x3a, 0xc0, 0x49, 0xbe, 0x08, 0x9a, 0x43, 0xbd,
  0xa9, 0xec, 0x8f, 0xbe, 0x56, 0xff, 0x77, 0x3e, 0x2c, 0xb2, 0x0a, 0x3e,
  0x1a, 0x77, 0x75, 0x3e, 0x46, 0x3a, 0x56, 0xbe, 0xc8, 0x4d, 0x0e, 0xbd,
  0xee, 0xf4, 0x37, 0x3e, 0xb8, 0x76, 0xae, 0x3d, 0xa8, 0xa6, 0x77, 0xbd,
  0x60, 0xf8, 0x3b, 0x3d, 0xdc, 0x9f, 0xa9, 0xbe, 0xd0, 0x11, 0xa3, 0x3c,
  0xa7, 0x92, 0x47, 0xbe, 0xc2, 0x8b, 0x08, 0x3e, 0xc8, 0x80, 0xbd, 0xbd,
  0x7e, 0x56, 0x23, 0x3e, 0xb6, 0x0d, 0x23, 0x3e, 0x78, 0x9d, 0xc2, 0xbd,
  0x9e, 0xca, 0x85, 0xbe, 0xda, 0xd3, 0x4d, 0xbe, 0x99, 0x6d, 0x68, 0xbe,
  0xf5, 0x97, 0x03, 0xbe, 0x70, 0x9e, 0xd9, 0xbc, 0x45, 0x13, 0x86, 0x3e,
  0x64, 0x3b, 0x83, 0x3d, 0x21, 0x4a, 0x32, 0xbe, 0xb0, 0x91, 0xfc, 0xbc,
  0xc5, 0x4b, 0x35, 0xbe, 0x26, 0x02, 0x24, 0x3e, 0x9c, 0xeb, 0x04, 0x3e,
  0x48, 0x04, 0xa0, 0xbd, 0x66, 0x57, 0xf3, 0xbd, 0x6a, 0xaa, 0x91, 0xbe,
  0xf2, 0x9b, 0x88, 0xbe, 0x30, 0x44, 0x4a, 0xbd, 0xc8, 0x24, 0x1e, 0xbe,
  0x19, 0x90, 0x06, 0xbe, 0xa0, 0x77, 0x62, 0x3c, 0x52, 0x47, 0x55, 0x3e,
  0x92, 0x76, 0x0f, 0x3e, 0x4a, 0x36, 0x2c, 0x3e, 0x00, 0x88, 0xe1, 0x3c,
  0x56, 0xe1, 0x3b, 0x3e, 0x0c, 0xe3, 0xc9, 0x3d, 0x93, 0xf3, 0x96, 0xbe,
  0xc0, 0xa0, 0xec, 0xbc, 0xc7, 0xe4, 0x5e, 0xbe, 0xea, 0xe1, 0x25, 0xbe,
  0x80, 0x92, 0xb6, 0x3c, 0xd5, 0xd0, 0xae, 0x3e, 0x0c, 0x58, 0x54, 0xbe,
  0x1a, 0x9b, 0x02, 0xbe, 0xe4, 0x72, 0x6e, 0xbe, 0x6e, 0x30, 0xb2, 0xbe,
  0xc0, 0x59, 0xae, 0xbe, 0xf4, 0x8a, 0x4d, 0xbe, 0x79, 0x6a, 0xa7, 0x3e,
  0x8b, 0xc8, 0xa8, 0xbe, 0x9e, 0xb8, 0x10, 0x3e, 0xc0, 0x4d, 0x0f, 0x3c,
  0x5d, 0x51, 0xae, 0x3e, 0x02, 0x44, 0x90, 0xbe, 0x60, 0x01, 0x8b, 0xbd,
  0x20, 0xf4, 0xaf, 0xbc, 0x22, 0x24, 0x90, 0xbe, 0x44, 0x72, 0x13, 0x3e,
  0xf0, 0xc4, 0xd6, 0xbc, 0xdf, 0x8d, 0x2f, 0xbe, 0xfe, 0xdd, 0x6c, 0x3e,
  0xb2, 0x41, 0x63, 0x3e, 0xc0, 0xd7, 0x92, 0x3c, 0x20, 0x61, 0xe7, 0x3c,
  0xf2, 0x31, 0x74, 0x3e, 0x3f, 0xc6, 0x80, 0x3e, 0x17, 0x51, 0xb4, 0x3e,
  0x8b, 0x39, 0x63, 0xbe, 0xce, 0x0e, 0x95, 0xbe, 0x73, 0x62, 0x66, 0xbe,
  0x8a, 0xdc, 0x49, 0x3e, 0x80, 0x93, 0x26, 0xbd, 0x69, 0x97, 0xa6, 0x3e,
  0x58, 0x28, 0x09, 0xbd, 0x9a, 0x83, 0x2e, 0x3e, 0xd3, 0x59, 0xac, 0x3e,
  0x9d, 0x1e, 0x85, 0x3e, 0x92, 0x1a, 0x62, 0x3e, 0x1c, 0x2b, 0xc1, 0x3d,
  0xcd, 0xa3, 0x4f, 0xbe, 0x49, 0x49, 0x65, 0xbe, 0xc0, 0x27, 0xc7, 0xbb,
  0x0d, 0xb7, 0x98, 0xbe, 0x98, 0xcd, 0x7f, 0xbd, 0x70, 0x17, 0xe5, 0x3d,
  0x4c, 0xcc, 0x9a, 0xbe, 0xd2, 0x79, 0x79, 0x3e, 0xf8, 0x89, 0x4f, 0x3d,
  0xa0, 0xca, 0x25, 0xbe, 0x1d, 0x74, 0xa4, 0x3e, 0xe8, 0xdb, 0x8d, 0xbd,
  0xf6, 0x1e, 0x27, 0x3e, 0xb4, 0xe9, 0xd5, 0x3d, 0xe4, 0x94, 0x96, 0xbd,
  0xaf, 0x11, 0x8a, 0x3e, 0x0d, 0xb8, 0x9d, 0xbe, 0xe8, 0x62, 0x86, 0x3d,
  0xa6, 0xd3, 0x1f, 0x3e, 0x07, 0x58, 0x7e, 0xbe, 0x70, 0xd1, 0x19, 0xbd,
  0x18, 0xfd, 0x6a, 0xbd, 0x00, 0x41, 0x04, 0x3e, 0x00, 0x78, 0x58, 0xbb,
  0xb2, 0x7d, 0xad, 0xbe, 0x68, 0x3c, 0x77, 0x3d, 0x29, 0x54, 0x19, 0xbe,
  0xe8, 0x03, 0x4e, 0xbd, 0x08, 0x67, 0xdb, 0x3d, 0xe4, 0x54, 0xdc, 0xbd,
  0x80, 0x8f, 0x51, 0xbc, 0x58, 0xe3, 0x24, 0xbd, 0x68, 0x2f, 0xc7, 0xbd,
  0xf9, 0x95, 0x0b, 0xbe, 0x8a, 0xb2, 0x03, 0x3e, 0xc0, 0x98, 0xd0, 0xbb,
  0x50, 0xe3, 0xce, 0x3d, 0x85, 0xd7, 0xa0, 0x3e, 0x82, 0x56, 0x87, 0xbe,
  0xd2, 0xc3, 0x07, 0x3e, 0x1e, 0x2b, 0x27, 0xbe, 0xf6, 0x64, 0x70, 0x3e,
  0xe5, 0xb2, 0x81, 0x3e, 0xd3, 0xde, 0x8c, 0x3e, 0xc3, 0xcf, 0x27, 0xbe,
  0x3c, 0x91, 0xa1, 0xbd, 0x8e, 0xe8, 0xff, 0xff, 0x10, 0x00, 0x00, 0x00,
  0x07, 0x00, 0x00, 0x00, 0x14, 0x00, 0x00, 0x00, 0x50, 0x00, 0x00, 0x00,
  0x02, 0x00, 0x00, 0x00, 0x1a, 0x00, 0x00, 0x00, 0x1a, 0x00, 0x00, 0x00,
  0x38, 0x00, 0x00, 0x00, 0x73, 0x65, 0x71, 0x75, 0x65, 0x6e, 0x74, 0x69,
  0x61, 0x6c, 0x5f, 0x31, 0x33, 0x31, 0x2f, 0x64, 0x65, 0x6e, 0x73, 0x65,
  0x5f, 0x33, 0x32, 0x38, 0x2f, 0x4d, 0x61, 0x74, 0x4d, 0x75, 0x6c, 0x2f,
  0x52, 0x65, 0x61, 0x64, 0x56, 0x61, 0x72, 0x69, 0x61, 0x62, 0x6c, 0x65,
  0x4f, 0x70, 0x2f, 0x74, 0x72, 0x61, 0x6e, 0x73, 0x70, 0x6f, 0x73, 0x65,
  0x00, 0x00, 0x00, 0x00, 0x44, 0xe8, 0xff, 0xff, 0x90, 0x0a, 0x00, 0x00,
  0x2e, 0xc5, 0x0e, 0xbe, 0x5a, 0x0f, 0x99, 0xbe, 0xc6, 0x86, 0x8d, 0x3e,
  0xb8, 0xc3, 0x11, 0x3e, 0xfc, 0xf9, 0x79, 0x3e, 0x62, 0x09, 0x40, 0xbe,
  0x43, 0xe7, 0x17, 0xbe, 0x60, 0xbe, 0xee, 0x3d, 0x8c, 0x29, 0x8d, 0xbe,
  0x52, 0x26, 0xe1, 0xbd, 0xec, 0x3d, 0xba, 0xbd, 0x7c, 0xb8, 0xcb, 0xbd,
  0x10, 0x4f, 0x5d, 0x3d, 0x8c, 0xe1, 0x2c, 0xbe, 0x62, 0xc1, 0x9d, 0xbe,
  0x70, 0x39, 0x6e, 0x3e, 0x7c, 0x18, 0x4c, 0x3e, 0xe8, 0x04, 0xa4, 0x3d,
  0xa0, 0xe5, 0x11, 0x3e, 0xd2, 0x1f, 0x87, 0xbe, 0xc0, 0xdd, 0x04, 0x3d,
  0x32, 0x05, 0x30, 0xbe, 0x3c, 0x57, 0x2b, 0x3e, 0xd6, 0xfb, 0x78, 0xbe,
  0xfc, 0x01, 0xa8, 0xbe, 0x40, 0x7f, 0x40, 0x3e, 0x00, 0x5b, 0x1a, 0xbc,
  0xbc, 0x2b, 0x70, 0x3e, 0xf0, 0x31, 0x4a, 0xbd, 0xe4, 0x87, 0x9b, 0x3e,
  0x36, 0xf7, 0x56, 0xbe, 0x77, 0xc5, 0xad, 0xbe, 0x7f, 0xa8, 0x70, 0xbe,
  0xcc, 0x62, 0x3d, 0x3e, 0x7c, 0x13, 0x84, 0xbe, 0x84, 0xe3, 0xf7, 0xbd,
  0x18, 0xfd, 0x82, 0x3d, 0xa6, 0xaa, 0xa0, 0xbe, 0xab, 0xeb, 0x48, 0xbe,
  0x0e, 0x8b, 0x22, 0x3e, 0xb4, 0x28, 0x64, 0xbe, 0xa2, 0x85, 0x59, 0xbe,
  0xee, 0x88, 0x76, 0xbe, 0x4e, 0x9a, 0x17, 0xbe, 0x68, 0x27, 0x10, 0x3e,
  0xdc, 0x7d, 0x7c, 0x3e, 0x78, 0x1f, 0x5c, 0x3d, 0xcc, 0x46, 0x3b, 0x3e,
  0xdc, 0x89, 0xd8, 0x3d, 0x58, 0x74, 0x5d, 0xbd, 0x90, 0x4b, 0x99, 0x3c,
  0x70, 0x7b, 0x64, 0xbe, 0x44, 0x0d, 0x90, 0x3d, 0xa1, 0x24, 0x5d, 0xbe,
  0x26, 0x0f, 0x81, 0x3e, 0xe8, 0xff, 0xeb, 0x3d, 0xc8, 0x2a, 0xdb, 0x3d,
  0x3a, 0x0f, 0x9c, 0xbe, 0xe8, 0xb4, 0x1a, 0xbe, 0xa0, 0xdf, 0x33, 0xbd,
  0x1b, 0xf8, 0x85, 0xbe, 0x00, 0x3a, 0x27, 0xbd, 0x9b, 0xd7, 0x9e, 0xbe,
  0xf0, 0xb7, 0x00, 0xbe, 0x76, 0x75, 0xa9, 0x3e, 0x78, 0x6d, 0x41, 0x3d,
  0x94, 0x85, 0x83, 0x3e, 0xb8, 0x9b, 0xa4, 0xbe, 0x56, 0xaa, 0x71, 0xbe,
  0x80, 0x7f, 0x02, 0x3d, 0x80, 0xea, 0x8e, 0x3d, 0x20, 0xe1, 0xe1, 0xbc,
  0x70, 0x12, 0x10, 0xbd, 0x90, 0xc5, 0xf3, 0x3d, 0x3a, 0xaf, 0x55, 0xbe,
  0xf0, 0x0e, 0x22, 0xbd, 0x80, 0x02, 0xa7, 0xbb, 0x5e, 0xa1, 0xa7, 0xbe,
  0xb0, 0x7e, 0xe9, 0x3c, 0xa8, 0x29, 0x76, 0x3e, 0x40, 0xdf, 0x82, 0x3d,
  0x64, 0xa9, 0x8a, 0xbd, 0x80, 0xf2, 0x97, 0x3b, 0xa4, 0xeb, 0x53, 0xbe,
  0x08, 0x46, 0x99, 0x3d, 0x0c, 0x62, 0xd7, 0x3d, 0x74, 0x98, 0x97, 0x3d,
  0x6e, 0x6e, 0xad, 0x3e, 0xb6, 0xf3, 0x45, 0xbe, 0xcc, 0x75, 0xa6, 0xbe,
  0x40, 0xce, 0x17, 0x3e, 0x26, 0x93, 0x9e, 0xbe, 0x48, 0x94, 0x6d, 0xbe,
  0xae, 0x33, 0xa1, 0x3e, 0x98, 0x41, 0xd2, 0xbd, 0xb0, 0x98, 0x68, 0x3e,
  0xbb, 0x29, 0x8b, 0xbe, 0xf0, 0x5a, 0x70, 0x3e, 0x88, 0x83, 0x3b, 0x3e,
  0x5e, 0x5a, 0x90, 0x3e, 0xc0, 0x68, 0xe0, 0xbc, 0x1d, 0x8e, 0x2c, 0xbe,
  0x0e, 0xf4, 0x9f, 0x3e, 0xc4, 0x54, 0x92, 0xbd, 0xaa, 0x6b, 0x90, 0x3e,
  0x20, 0x64, 0x24, 0x3e, 0xfb, 0xfb, 0x4a, 0xbe, 0xbc, 0x60, 0x71, 0x3e,
  0x90, 0xfe, 0xdd, 0x3d, 0xb3, 0x46, 0x6b, 0xbe, 0x90, 0x58, 0x24, 0x3d,
  0x29, 0x45, 0x01, 0xbe, 0xd7, 0xd5, 0x4c, 0xbe, 0x76, 0x5f, 0x96, 0x3e,
  0x08, 0x7e, 0x1e, 0x3d, 0x02, 0xf0, 0x75, 0xbe, 0x40, 0xe4, 0x60, 0x3c,
  0x8c, 0xab, 0x74, 0x3e, 0x31, 0xbf, 0x7a, 0xbe, 0x28, 0xbf, 0xac, 0x3e,
  0xf6, 0xb0, 0xa2, 0xbe, 0x38, 0x77, 0x35, 0xbd, 0xae, 0xec, 0xa7, 0x3e,
  0x46, 0xb8, 0xa7, 0x3e, 0xb0, 0xe7, 0xab, 0xbe, 0xa4, 0x2c, 0x45, 0x3e,
  0x3e, 0x69, 0x7c, 0xbe, 0xd8, 0x5a, 0x9d, 0x3e, 0xd2, 0x11, 0xcc, 0xbd,
  0x90, 0xf1, 0xfe, 0x3d, 0xe0, 0xd6, 0x0d, 0x3e, 0x40, 0x8b, 0x10, 0x3e,
  0xe4, 0x57, 0x2b, 0x3e, 0x5a, 0x67, 0x61, 0xbe, 0x98, 0xa3, 0x98, 0x3e,
  0x50, 0x3b, 0x3f, 0xbd, 0x54, 0xe3, 0x87, 0xbd, 0xb9, 0x3c, 0x49, 0xbe,
  0xe8, 0x22, 0x5e, 0x3e, 0xe4, 0xda, 0xa1, 0x3d, 0xa8, 0xdf, 0x76, 0x3d,
  0x30, 0x50, 0x86, 0x3e, 0x68, 0x46, 0x89, 0x3e, 0x30, 0xde, 0x8a, 0x3e,
  0x54, 0x6f, 0x98, 0x3e, 0x10, 0x55, 0x37, 0xbe, 0xf0, 0xe3, 0x95, 0x3c,
  0x34, 0x7e, 0x86, 0x3e, 0xcc, 0x59, 0xc3, 0x3d, 0x7d, 0x46, 0x8b, 0xbe,
  0xed, 0x0a, 0x2d, 0xbe, 0xd4, 0x6b, 0x61, 0x3e, 0xe4, 0xc2, 0x47, 0xbe,
  0x10, 0xbf, 0x5c, 0x3e, 0x5e, 0x2d, 0x65, 0xbe, 0xb7, 0xaf, 0x9c, 0xbe,
  0x2c, 0xf1, 0x77, 0x3e, 0x1c, 0xbc, 0xa0, 0xbe, 0x47, 0x48, 0x3b, 0xbe,
  0xb0, 0x7e, 0xe7, 0x3d, 0xf8, 0x92, 0x5d, 0x3e, 0x5e, 0x86, 0x1a, 0x3e,
  0xf0, 0xa0, 0x08, 0x3e, 0x6c, 0xb2, 0x97, 0xbe, 0x94, 0xb1, 0x86, 0x3d,
  0x5f, 0x3a, 0x4c, 0xbe, 0x80, 0xa1, 0x3b, 0x3e, 0x4e, 0x0a, 0x8a, 0xbe,
  0xd4, 0x66, 0x55, 0x3e, 0x01, 0xc8, 0x0e, 0xbe, 0x48, 0x90, 0x1b, 0xbd,
  0x88, 0x49, 0x83, 0xbe, 0x4c, 0x79, 0x4d, 0x3e, 0x1c, 0x14, 0x25, 0x3e,
  0xa4, 0xd4, 0x4b, 0x3e, 0xb8, 0x7f, 0x65, 0x3e, 0x02, 0x78, 0xa8, 0x3e,
  0x00, 0x1a, 0x42, 0xbb, 0xd0, 0x09, 0xaf, 0xbc, 0x7c, 0xbc, 0x86, 0xbd,
  0x40, 0xf6, 0x66, 0x3c, 0x67, 0x99, 0xab, 0xbe, 0xb0, 0x4a, 0x7a, 0xbd,
  0x18, 0x8b, 0x03, 0xbd, 0x08, 0x37, 0x45, 0x3e, 0x40, 0xb7, 0xea, 0x3c,
  0x61, 0x39, 0x69, 0xbe, 0xf4, 0x76, 0x5f, 0x3e, 0x00, 0x86, 0xe0, 0x3d,
  0xdc, 0x6f, 0x8b, 0x3d, 0x4c, 0xad, 0x2d, 0x3e, 0x44, 0x7f, 0x76, 0x3e,
  0xf0, 0x77, 0xc5, 0xbd, 0x36, 0x85, 0x48, 0xbe, 0x34, 0x52, 0x7c, 0xbe,
  0x80, 0xc8, 0xd1, 0x3d, 0x92, 0x15, 0x65, 0xbe, 0x34, 0x18, 0x85, 0xbe,
  0x02, 0xbc, 0x8e, 0x3e, 0x8e, 0xf9, 0x90, 0x3e, 0x98, 0xc1, 0xa5, 0xbd,
  0x68, 0x27, 0x75, 0xbe, 0x10, 0x4e, 0x89, 0x3c, 0x42, 0x6f, 0x80, 0x3e,
  0xfc, 0x5e, 0x92, 0xbe, 0x88, 0x45, 0x5a, 0x3e, 0x0e, 0x21, 0x9b, 0xbe,
  0xd6, 0xfe, 0x98, 0x3e, 0x2b, 0xaf, 0x3d, 0xbe, 0xcc, 0x66, 0x94, 0xbe,
  0x10, 0xa7, 0x6c, 0x3e, 0x10, 0xb8, 0x49, 0x3d, 0x48, 0xac, 0x0a, 0x3d,
  0xce, 0x38, 0x44, 0xbe, 0xf6, 0x46, 0x74, 0xbe, 0x94, 0x24, 0x33, 0x3e,
  0x8a, 0xbe, 0x99, 0x3e, 0xeb, 0x8b, 0x34, 0xbe, 0x30, 0x37, 0xc4, 0x3d,
  0x67, 0xb4, 0x2a, 0xbe, 0x21, 0x08, 0xac, 0xbe, 0xf4, 0xf8, 0xf8, 0xbd,
  0xe8, 0xab, 0x13, 0x3e, 0xdd, 0x94, 0x8c, 0xbe, 0xc8, 0x02, 0xee, 0x3d,
  0x1a, 0x19, 0xfe, 0xbd, 0xa4, 0xc4, 0x3c, 0x3e, 0x58, 0xf4, 0x98, 0xbe,
  0x54, 0x13, 0xff, 0x3d, 0xb8, 0x43, 0x01, 0xbe, 0x00, 0x0a, 0x9e, 0x3a,
  0x92, 0x42, 0x97, 0xbe, 0xd7, 0x5a, 0x82, 0xbe, 0x97, 0xcd, 0x47, 0xbe,
  0x6a, 0x94, 0x8e, 0xbe, 0xa0, 0x5a, 0x08, 0x3e, 0x50, 0x09, 0x8a, 0xbd,
  0x10, 0x3a, 0x26, 0x3d, 0x20, 0x45, 0x0b, 0xbc, 0xc8, 0x50, 0x3c, 0xbe,
  0xd0, 0xbb, 0x78, 0x3e, 0x2b, 0xda, 0x82, 0xbe, 0x4e, 0xa3, 0x88, 0xbe,
  0x08, 0xef, 0x9b, 0x3e, 0x8c, 0x10, 0x3b, 0xbe, 0x7c, 0xd1, 0xe0, 0x3d,
  0x36, 0xe9, 0x83, 0x3e, 0x6e, 0x40, 0x9b, 0xbe, 0x35, 0x1d, 0x4b, 0xbe,
  0x27, 0xe1, 0x49, 0xbe, 0xaa, 0x4f, 0xa9, 0x3e, 0x80, 0x08, 0x53, 0xbc,
  0x98, 0x68, 0x28, 0xbd, 0x9b, 0xbd, 0x36, 0xbe, 0x9e, 0x60, 0x79, 0xbe,
  0x38, 0x41, 0x00, 0xbe, 0xd4, 0x1e, 0x46, 0x3e, 0x88, 0x9c, 0x83, 0xbe,
  0x7f, 0xa5, 0x87, 0xbe, 0x58, 0x65, 0x10, 0xbd, 0xb0, 0x79, 0xd6, 0x3c,
  0x38, 0xcb, 0x06, 0x3e, 0xe7, 0x0c, 0xab, 0xbe, 0x8c, 0x5a, 0xac, 0x3e,
  0xf0, 0x50, 0x9d, 0xbe, 0x3b, 0xcc, 0x29, 0xbe, 0x42, 0xc5, 0x7b, 0xbe,
  0x80, 0xc3, 0xcf, 0x3d, 0xe8, 0xef, 0x41, 0x3d, 0x78, 0x95, 0x0b, 0xbd,
  0x48, 0x0e, 0xa3, 0x3e, 0x7a, 0x90, 0x98, 0x3e, 0x5c, 0x00, 0xdc, 0x3d,
  0xbc, 0x29, 0xbd, 0x3d, 0xa7, 0x22, 0x64, 0xbe, 0x14, 0x3b, 0xc1, 0xbd,
  0x74, 0xae, 0x89, 0xbe, 0x01, 0x24, 0x91, 0xbe, 0xdc, 0x8c, 0xe9, 0xbd,
  0xe8, 0xd6, 0x47, 0x3d, 0x8e, 0x12, 0xa5, 0x3e, 0x10, 0x57, 0xaf, 0x3c,
  0x80, 0x2d, 0x39, 0x3c, 0x60, 0xd0, 0x18, 0xbd, 0x4d, 0xeb, 0x8c, 0xbe,
  0x40, 0xbc, 0x90, 0x3d, 0x58, 0x95, 0x08, 0xbe, 0x6a, 0x58, 0xba, 0xbd,
  0x40, 0x55, 0xd7, 0xbb, 0x06, 0xb4, 0x3e, 0xbe, 0xd6, 0x3f, 0xa7, 0x3e,
  0x50, 0x84, 0x62, 0xbd, 0xe4, 0x8b, 0x13, 0xbe, 0x6c, 0xe7, 0xad, 0x3e,
  0x94, 0x80, 0xd0, 0x3d, 0xa8, 0xda, 0x50, 0x3e, 0x18, 0x1d, 0x7a, 0x3e,
  0x08, 0xd5, 0x2d, 0x3d, 0xa0, 0xcc, 0x64, 0x3e, 0x1c, 0x99, 0xf2, 0x3d,
  0x40, 0xc1, 0x58, 0xbc, 0xcc, 0x10, 0x98, 0x3e, 0x7c, 0x72, 0x7b, 0x3e,
  0x6f, 0xa9, 0xa2, 0xbe, 0x34, 0x91, 0x78, 0x3e, 0xe0, 0x71, 0x90, 0xbc,
  0xaf, 0xfb, 0x4d, 0xbe, 0xd6, 0x5c, 0x85, 0x3e, 0x25, 0x9a, 0x7a, 0xbe,
  0x79, 0x38, 0xa8, 0xbe, 0x98, 0x64, 0x5a, 0xbe, 0xc8, 0x96, 0x1f, 0xbd,
  0xd4, 0x89, 0x73, 0x3e, 0x4c, 0x2a, 0xde, 0x3d, 0xbc, 0x72, 0x2f, 0x3e,
  0x18, 0xcf, 0x67, 0x3e, 0x79, 0x3a, 0x35, 0xbe, 0x62, 0xbe, 0x8d, 0xbe,
  0xf8, 0x01, 0x5b, 0x3e, 0x6e, 0x4f, 0x1d, 0x3e, 0x5c, 0x17, 0xd7, 0x3d,
  0x68, 0x17, 0x39, 0x3d, 0xd0, 0x85, 0x0a, 0x3d, 0xe8, 0xe4, 0x8e, 0x3e,
  0x64, 0x41, 0xae, 0x3d, 0xcd, 0xaa, 0x5a, 0xbe, 0x76, 0x3e, 0x7c, 0xbe,
  0x28, 0x9d, 0x81, 0x3e, 0x2e, 0xa4, 0x0f, 0x3e, 0xc3, 0x01, 0x5e, 0xbe,
  0x1b, 0x30, 0x18, 0xbe, 0xae, 0xb5, 0x1c, 0x3e, 0x7c, 0x75, 0x87, 0x3d,
  0x00, 0x64, 0xc0, 0x3c, 0x10, 0xd0, 0x3c, 0x3e, 0x58, 0xc2, 0xab, 0xbe,
  0x95, 0x96, 0x76, 0xbe, 0x1a, 0x01, 0x99, 0x3e, 0xc5, 0xb6, 0x85, 0xbe,
  0x20, 0x4d, 0x2e, 0xbd, 0xac, 0xf6, 0x89, 0xbd, 0xdc, 0x77, 0xfa, 0xbd,
  0x9f, 0x1e, 0xa2, 0xbe, 0xd8, 0xaf, 0x18, 0xbe, 0xc8, 0x8e, 0x35, 0x3e,
  0xa0, 0x9c, 0xdf, 0x3d, 0x6c, 0xf7, 0xb4, 0xbd, 0x26, 0x81, 0x67, 0xbe,
  0xd4, 0xc3, 0x8a, 0x3e, 0xe5, 0xde, 0x14, 0xbe, 0x54, 0xcf, 0x8e, 0xbd,
  0x28, 0x0d, 0x33, 0x3e, 0x4c, 0x8f, 0x8e, 0x3d, 0x2e, 0x12, 0x1d, 0x3e,
  0xca, 0x5c, 0xaa, 0x3e, 0x48, 0xec, 0x87, 0x3e, 0x38, 0xb9, 0xc9, 0x3d,
  0x8e, 0xef, 0x9a, 0x3e, 0x1c, 0xe7, 0x1b, 0x3e, 0xcc, 0x91, 0x95, 0x3d,
  0x30, 0x56, 0x45, 0x3d, 0x60, 0xa5, 0x1a, 0xbd, 0x9e, 0x6f, 0xaa, 0x3e,
  0x30, 0x1a, 0x7d, 0x3e, 0xac, 0x86, 0xa3, 0xbd, 0x80, 0x9d, 0x5a, 0x3c,
  0xd8, 0x42, 0x43, 0x3d, 0xc0, 0xe6, 0x2e, 0xbd, 0x09, 0x76, 0x04, 0xbe,
  0xae, 0x21, 0x71, 0xbe, 0x02, 0xe0, 0x0c, 0x3e, 0xd8, 0xe1, 0x73, 0x3d,
  0x6a, 0x34, 0xe9, 0xbd, 0xa0, 0x09, 0xe7, 0xbc, 0x00, 0xc9, 0xa8, 0xbb,
  0xb0, 0xde, 0x72, 0x3e, 0xf8, 0x5f, 0x56, 0xbd, 0x84, 0x46, 0x7d, 0x3e,
  0xef, 0xa8, 0x78, 0xbe, 0x13, 0x65, 0xa5, 0xbe, 0xc4, 0x00, 0xd7, 0xbd,
  0x9c, 0xe2, 0x9a, 0x3d, 0xfe, 0x45, 0x22, 0x3e, 0xc0, 0x21, 0x9e, 0x3c,
  0x70, 0xcd, 0x99, 0x3d, 0x68, 0xee, 0x73, 0x3d, 0xe0, 0xfe, 0x04, 0xbd,
  0x16, 0x9c, 0xc3, 0xbd, 0x82, 0x79, 0xa7, 0x3e, 0x28, 0x90, 0xb4, 0x3d,
  0x32, 0xaf, 0x8b, 0x3e, 0xe4, 0x66, 0xd6, 0x3d, 0xc0, 0xaa, 0x0e, 0xbc,
  0x36, 0x11, 0x8b, 0x3e, 0x20, 0xdc, 0xec, 0x3c, 0x71, 0xc4, 0x79, 0xbe,
  0x05, 0xbe, 0xac, 0xbe, 0xb4, 0xd9, 0x82, 0x3e, 0xf6, 0x0a, 0x24, 0x3e,
  0xcf, 0x77, 0xa7, 0xbe, 0x36, 0xd9, 0x17, 0x3e, 0x9d, 0x33, 0x9c, 0xbe,
  0xa4, 0x7b, 0xaf, 0x3d, 0xd4, 0x7d, 0x72, 0x3e, 0x34, 0x1a, 0x9a, 0x3e,
  0xd0, 0x85, 0xab, 0xbc, 0xfa, 0xa2, 0x95, 0xbe, 0x90, 0x1a, 0x78, 0x3e,
  0x00, 0xfd, 0xee, 0x3b, 0x0c, 0x92, 0x46, 0x3e, 0x70, 0x1c, 0xb4, 0x3c,
  0xb0, 0x08, 0xa9, 0x3e, 0x00, 0x8c, 0x93, 0xbb, 0xe0, 0xd0, 0xdc, 0xbd,
  0x92, 0xce, 0x7c, 0xbe, 0x14, 0x85, 0x67, 0xbe, 0x76, 0x56, 0x1c, 0x3e,
  0x50, 0x92, 0xa4, 0xbe, 0xd6, 0x68, 0x9e, 0xbe, 0x50, 0x22, 0xae, 0xbd,
  0xb0, 0x52, 0xed, 0x3c, 0xdc, 0xc7, 0x76, 0xbe, 0xac, 0x8d, 0x7f, 0xbe,
  0x90, 0x13, 0xf3, 0xbc, 0x00, 0xaf, 0xae, 0x3a, 0x62, 0x3d, 0x3f, 0xbe,
  0xc4, 0x6e, 0x71, 0xbe, 0x4d, 0xb0, 0x09, 0xbe, 0x3e, 0x8f, 0x9f, 0x3e,
  0xe0, 0x78, 0xe0, 0x3d, 0x30, 0x2c, 0x57, 0x3e, 0x17, 0xcf, 0x83, 0xbe,
  0x90, 0xfb, 0x09, 0x3e, 0x40, 0xf2, 0x94, 0xbc, 0xae, 0xec, 0x86, 0x3e,
  0xaa, 0x4f, 0xa4, 0x3e, 0xd0, 0xc0, 0x6a, 0xbd, 0xc8, 0xe0, 0x1f, 0xbe,
  0xde, 0x07, 0x23, 0xbe, 0xf2, 0x51, 0x96, 0x3e, 0x38, 0xb4, 0xfc, 0x3d,
  0x80, 0x1d, 0x70, 0x3e, 0x78, 0x16, 0x99, 0xbd, 0xc0, 0x30, 0x68, 0x3c,
  0xa4, 0x0b, 0xc2, 0xbd, 0xe0, 0x41, 0x63, 0xbc, 0x54, 0x83, 0x52, 0x3e,
  0x82, 0x8b, 0x86, 0x3e, 0xe4, 0x81, 0xff, 0xbd, 0x7d, 0xfa, 0x90, 0xbe,
  0xf8, 0x58, 0x92, 0xbd, 0x22, 0xc7, 0x6c, 0xbe, 0xc8, 0x40, 0xa4, 0x3e,
  0xed, 0x55, 0x16, 0xbe, 0xec, 0xf3, 0x7e, 0xbe, 0x9c, 0x83, 0x21, 0x3e,
  0xb8, 0x52, 0x0c, 0x3e, 0xe0, 0xe8, 0x2b, 0x3e, 0xfa, 0xcc, 0x99, 0xbe,
  0x5a, 0xbc, 0x07, 0xbe, 0xac, 0xbf, 0xf1, 0x3d, 0xb4, 0x6e, 0xea, 0xbd,
  0x90, 0x7f, 0xca, 0x3c, 0x00, 0x1a, 0x44, 0x3a, 0xe0, 0x47, 0x2a, 0x3c,
  0x28, 0xe4, 0x76, 0xbd, 0x0c, 0x84, 0x87, 0x3e, 0x4c, 0x23, 0xf7, 0xbd,
  0xc3, 0xb6, 0x08, 0xbe, 0x90, 0x00, 0x66, 0xbe, 0x2a, 0x88, 0x95, 0xbe,
  0x40, 0x48, 0x4d, 0x3e, 0xcf, 0x1b, 0x3d, 0xbe, 0x3a, 0x67, 0x53, 0xbe,
  0x79, 0xc7, 0x1c, 0xbe, 0xb4, 0x92, 0x6a, 0x3e, 0xbc, 0x3e, 0x78, 0x3e,
  0x68, 0xbf, 0xed, 0x3d, 0x20, 0xfa, 0x81, 0xbd, 0x80, 0x77, 0x78, 0x3b,
  0x1c, 0xf0, 0xa5, 0x3e, 0x04, 0x55, 0x3e, 0xbe, 0x70, 0x5a, 0x87, 0xbd,
  0xd2, 0xd7, 0x86, 0xbe, 0xd8, 0x60, 0x55, 0xbe, 0xb8, 0xf4, 0xa6, 0x3d,
  0x00, 0x43, 0x2f, 0x3c, 0x99, 0x6c, 0x42, 0xbe, 0xbc, 0xd4, 0x2b, 0x3e,
  0x75, 0x20, 0x87, 0xbe, 0xf0, 0x95, 0x49, 0x3e, 0x48, 0x25, 0xbd, 0x3d,
  0x64, 0x4d, 0xb7, 0x3d, 0xb8, 0x01, 0x1b, 0xbe, 0x88, 0xfc, 0x83, 0x3d,
  0xe2, 0xbb, 0x80, 0x3e, 0xc2, 0xea, 0x3a, 0xbe, 0xa8, 0x25, 0x94, 0x3d,
  0xf0, 0x2d, 0xe5, 0xbd, 0x60, 0x3e, 0xa8, 0x3d, 0xa0, 0x37, 0xc1, 0x3c,
  0xe8, 0x8d, 0x61, 0x3e, 0x00, 0x5c, 0x68, 0xbb, 0xcc, 0x87, 0x37, 0x3e,
  0x90, 0xe4, 0x50, 0x3e, 0xc0, 0x5f, 0x78, 0x3d, 0x58, 0xa3, 0x30, 0x3e,
  0x20, 0x9f, 0xdc, 0x3c, 0xc2, 0x76, 0xfa, 0xbd, 0x18, 0xa0, 0xce, 0x3d,
  0xf6, 0x76, 0x9a, 0x3e, 0xbd, 0xea, 0xa7, 0xbe, 0x3e, 0xa0, 0xa5, 0x3e,
  0x24, 0xcb, 0x30, 0x3e, 0x56, 0x91, 0x90, 0x3e, 0x40, 0x38, 0x3d, 0x3e,
  0x3c, 0x2c, 0xfb, 0x3d, 0x88, 0x5d, 0xbe, 0xbd, 0x1c, 0xa2, 0x4f, 0x3e,
  0xe0, 0x9f, 0xbe, 0x3c, 0x78, 0xc3, 0x2f, 0x3e, 0x4e, 0xe6, 0xbd, 0xbd,
  0xec, 0xed, 0x7d, 0xbe, 0x2a, 0x15, 0xaa, 0x3e, 0x17, 0x1b, 0x5e, 0xbe,
  0xc0, 0xce, 0x60, 0x3c, 0xe8, 0x84, 0x5d, 0xbd, 0x08, 0x4d, 0xac, 0x3e,
  0xf8, 0x49, 0x20, 0xbd, 0x70, 0xd7, 0x5f, 0xbd, 0x6c, 0x9a, 0x92, 0xbe,
  0x84, 0xa4, 0xcd, 0xbd, 0x45, 0x8b, 0x03, 0xbe, 0x31, 0x48, 0x9b, 0xbe,
  0xcc, 0xbf, 0xa9, 0x3e, 0x8c, 0x7f, 0x84, 0xbe, 0x5c, 0xe2, 0x9a, 0x3e,
  0x6a, 0xd5, 0xd6, 0xbd, 0x30, 0x01, 0xd8, 0x3d, 0xc4, 0x59, 0xad, 0x3e,
  0x28, 0x83, 0x8b, 0x3e, 0x70, 0x55, 0x84, 0xbe, 0x26, 0xf0, 0x90, 0xbe,
  0xa8, 0xc0, 0xf7, 0x3d, 0x3c, 0x43, 0x18, 0x3e, 0x68, 0xc3, 0x10, 0xbe,
  0x83, 0xe9, 0xa3, 0xbe, 0xd7, 0x67, 0x75, 0xbe, 0xec, 0x14, 0xc6, 0x3d,
  0x32, 0x18, 0xa9, 0xbe, 0xbf, 0xfe, 0x49, 0xbe, 0x78, 0xeb, 0xf4, 0x3d,
  0x26, 0x8d, 0x0c, 0x3e, 0x80, 0xa0, 0xa4, 0x3b, 0xd6, 0x47, 0x55, 0xbe,
  0xd0, 0xa6, 0xa9, 0xbe, 0x58, 0x1e, 0x57, 0x3e, 0xb2, 0xd6, 0x84, 0xbe,
  0xe6, 0x44, 0x8c, 0x3e, 0x0c, 0x4c, 0x4c, 0x3e, 0xa8, 0x0b, 0x7c, 0xbe,
  0x16, 0x36, 0x9c, 0xbe, 0x3c, 0x1b, 0x99, 0x3d, 0x4a, 0x1f, 0x9d, 0xbe,
  0xcd, 0x9e, 0x36, 0xbe, 0x5e, 0xcd, 0x9b, 0x3e, 0x1a, 0x04, 0xa6, 0x3e,
  0x7a, 0xf0, 0xab, 0xbe, 0x6a, 0x72, 0x8d, 0x3e, 0x44, 0x91, 0x3c, 0x3e,
  0x78, 0x80, 0x90, 0x3d, 0x6a, 0x90, 0x02, 0x3e, 0x90, 0xfa, 0x75, 0x3e,
  0x78, 0xa6, 0xaa, 0x3e, 0x5c, 0xc6, 0xbe, 0x3d, 0x30, 0x26, 0x04, 0xbe,
  0xe6, 0x37, 0x99, 0x3e, 0xa0, 0x17, 0x3d, 0x3e, 0x34, 0x66, 0xd6, 0x3d,
  0xf5, 0x74, 0x2f, 0xbe, 0xb8, 0x7e, 0x77, 0xbd, 0xc4, 0x3f, 0x5d, 0x3e,
  0xe4, 0x33, 0xa8, 0x3e, 0x2a, 0xd7, 0xaa, 0x3e, 0x04, 0x5f, 0xa4, 0xbd,
  0x0a, 0x00, 0xa0, 0xbe, 0x5c, 0x63, 0x72, 0xbe, 0xe4, 0x79, 0x45, 0xbe,
  0xe0, 0x4a, 0x22, 0x3e, 0xd8, 0x9d, 0x76, 0xbe, 0x20, 0x63, 0x5d, 0xbc,
  0x9a, 0x28, 0xac, 0x3e, 0xde, 0xa9, 0x82, 0x3e, 0xa5, 0x9e, 0x77, 0xbe,
  0x65, 0xea, 0xa8, 0xbe, 0xe4, 0x84, 0x88, 0x3e, 0x56, 0x5e, 0x91, 0xbe,
  0x04, 0x95, 0x2c, 0x3e, 0xd1, 0xc5, 0x3a, 0xbe, 0xe8, 0x80, 0x20, 0x3d,
  0x80, 0x84, 0x09, 0x3e, 0xe4, 0x4f, 0xa1, 0xbe, 0x40, 0x02, 0x80, 0x3e,
  0xbc, 0xa1, 0x85, 0x3d, 0x78, 0xc3, 0x73, 0x3e, 0x84, 0xb5, 0xa0, 0x3e,
  0xe7, 0x2a, 0x47, 0xbe, 0xbc, 0x86, 0x2a, 0x3e, 0x8a, 0x0b, 0x19, 0x3e,
  0x7c, 0x1e, 0xe4, 0x3d, 0x5a, 0x66, 0xda, 0xbd, 0x1a, 0x96, 0x6e, 0xbe,
  0x3c, 0x1f, 0xab, 0xbe, 0xd0, 0x12, 0xaf, 0x3d, 0x10, 0x0c, 0x8f, 0x3c,
  0x4c, 0x37, 0x5c, 0x3e, 0x4d, 0x1d, 0x97, 0xbe, 0xb1, 0xfb, 0x42, 0xbe,
  0x20, 0x0b, 0xdd, 0xbc, 0x5d, 0xed, 0x05, 0xbe, 0xa0, 0x1b, 0x83, 0xbd,
  0x14, 0xeb, 0xa6, 0x3d, 0x0c, 0x65, 0x08, 0x3e, 0x6b, 0xe5, 0x86, 0xbe,
  0x81, 0x0a, 0x47, 0xbe, 0x20, 0x30, 0xbb, 0xbc, 0x93, 0x78, 0x98, 0xbe,
  0x05, 0x8b, 0x49, 0xbe, 0x35, 0x7f, 0x0e, 0xbe, 0x32, 0xec, 0xed, 0xbd,
  0xf4, 0xd8, 0x9f, 0x3d, 0x28, 0xae, 0x7d, 0xbd, 0x00, 0xd9, 0x4a, 0x3e,
  0xf6, 0x8f, 0x36, 0xbe, 0xd8, 0xfb, 0x47, 0xbd, 0xdc, 0x06, 0x78, 0x3e,
  0x60, 0xce, 0x51, 0xbc, 0xe4, 0x7f, 0xa8, 0x3e, 0x58, 0x60, 0x4d, 0xbe,
  0x68, 0x1f, 0x5e, 0x3e, 0xdc, 0x35, 0x99, 0xbe, 0xcc, 0x42, 0x70, 0x3e,
  0x38, 0x0e, 0x52, 0xbd, 0xe8, 0xb8, 0x8d, 0xbe, 0x3c, 0xda, 0x94, 0xbe,
  0xec, 0x19, 0x4b, 0x3e, 0xcc, 0x61, 0x66, 0xbe, 0x86, 0xec, 0x85, 0x3e,
  0x14, 0x3a, 0x58, 0x3e, 0xbc, 0x28, 0x9d, 0x3e, 0x10, 0x3f, 0xcd, 0x3c,
  0x5c, 0x48, 0x4b, 0x3e, 0x3c, 0xcc, 0x67, 0x3e, 0xf1, 0x6b, 0x91, 0xbe,
  0x70, 0xe4, 0xa7, 0x3e, 0x3c, 0x1b, 0xb3, 0x3d, 0x58, 0x0e, 0x6f, 0x3d,
  0x94, 0xc4, 0x05, 0xbe, 0x70, 0x12, 0x85, 0xbd, 0xe0, 0xfe, 0x16, 0x3e,
  0xf8, 0x89, 0x13, 0x3d, 0x58, 0xa8, 0x8a, 0xbe, 0x60, 0x4f, 0xa2, 0x3e,
  0x6f, 0x62, 0x52, 0xbe, 0xd0, 0x12, 0x6f, 0x3e, 0x94, 0xaf, 0x45, 0x3e,
  0x8c, 0x9e, 0x9b, 0xbe, 0x4d, 0x3e, 0x63, 0xbe, 0x2e, 0xea, 0x08, 0xbe,
  0xe0, 0x27, 0x6f, 0xbd, 0x3a, 0x3a, 0x69, 0xbe, 0x1e, 0xbd, 0x8f, 0x3e,
  0x90, 0xdf, 0xa6, 0xbc, 0xf4, 0x27, 0x87, 0x3e, 0xc2, 0x81, 0x07, 0xbe,
  0x93, 0x9c, 0x06, 0xbe, 0x86, 0xf3, 0xff, 0xff, 0x10, 0x00, 0x00, 0x00,
  0x06, 0x00, 0x00, 0x00, 0x10, 0x00, 0x00, 0x00, 0x38, 0x00, 0x00, 0x00,
  0x01, 0x00, 0x00, 0x00, 0x1a, 0x00, 0x00, 0x00, 0x24, 0x00, 0x00, 0x00,
  0x73, 0x65, 0x71, 0x75, 0x65, 0x6e, 0x74, 0x69, 0x61, 0x6c, 0x5f, 0x31,
  0x33, 0x31, 0x2f, 0x64, 0x65, 0x6e, 0x73, 0x65, 0x5f, 0x33, 0x32, 0x37,
  0x2f, 0x4d, 0x61, 0x74, 0x4d, 0x75, 0x6c, 0x5f, 0x62, 0x69, 0x61, 0x73,
  0x00, 0x00, 0x00, 0x00, 0x24, 0xf3, 0xff, 0xff, 0x68, 0x00, 0x00, 0x00,
  0x00, 0x00, 0x00, 0x00, 0x00, 0x00, 0x00, 0x00, 0x00, 0x00, 0x00, 0x00,
  0x00, 0x00, 0x00, 0x00, 0x00, 0x00, 0x00, 0x00, 0x00, 0x00, 0x00, 0x00,
  0x00, 0x00, 0x00, 0x00, 0x00, 0x00, 0x00, 0x00, 0x00, 0x00, 0x00, 0x00,
  0x00, 0x00, 0x00, 0x00, 0x00, 0x00, 0x00, 0x00, 0x00, 0x00, 0x00, 0x00,
  0x00, 0x00, 0x00, 0x00, 0x00, 0x00, 0x00, 0x00, 0x00, 0x00, 0x00, 0x00,
  0x00, 0x00, 0x00, 0x00, 0x00, 0x00, 0x00, 0x00, 0x00, 0x00, 0x00, 0x00,
  0x00, 0x00, 0x00, 0x00, 0x00, 0x00, 0x00, 0x00, 0x00, 0x00, 0x00, 0x00,
  0x00, 0x00, 0x00, 0x00, 0x00, 0x00, 0x00, 0x00, 0x00, 0x00, 0x00, 0x00,
  0x00, 0x00, 0x00, 0x00, 0x00, 0x00, 0x00, 0x00, 0x3e, 0xf4, 0xff, 0xff,
  0x10, 0x00, 0x00, 0x00, 0x05, 0x00, 0x00, 0x00, 0x14, 0x00, 0x00, 0x00,
  0x50, 0x00, 0x00, 0x00, 0x02, 0x00, 0x00, 0x00, 0x1a, 0x00, 0x00, 0x00,
  0x1a, 0x00, 0x00, 0x00, 0x38, 0x00, 0x00, 0x00, 0x73, 0x65, 0x71, 0x75,
  0x65, 0x6e, 0x74, 0x69, 0x61, 0x6c, 0x5f, 0x31, 0x33, 0x31, 0x2f, 0x64,
  0x65, 0x6e, 0x73, 0x65, 0x5f, 0x33, 0x32, 0x37, 0x2f, 0x4d, 0x61, 0x74,
  0x4d, 0x75, 0x6c, 0x2f, 0x52, 0x65, 0x61, 0x64, 0x56, 0x61, 0x72, 0x69,
  0x61, 0x62, 0x6c, 0x65, 0x4f, 0x70, 0x2f, 0x74, 0x72, 0x61, 0x6e, 0x73,
  0x70, 0x6f, 0x73, 0x65, 0x00, 0x00, 0x00, 0x00, 0xf4, 0xf3, 0xff, 0xff,
  0x90, 0x0a, 0x00, 0x00, 0x98, 0x9b, 0xfc, 0x3d, 0x5c, 0xf3, 0x4d, 0x3e,
  0x68, 0xd7, 0x63, 0x3d, 0x70, 0xf3, 0x6a, 0xbd, 0x08, 0x08, 0xa8, 0xbd,
  0xfc, 0x75, 0x5f, 0x3e, 0xb0, 0xe6, 0x4b, 0x3e, 0x50, 0x48, 0x9a, 0xbc,
  0xd4, 0x30, 0x30, 0x3e, 0x05, 0xe3, 0xa9, 0xbe, 0x00, 0x82, 0xab, 0x3a,
  0xb0, 0x7e, 0x08, 0x3d, 0x90, 0xac, 0xc3, 0x3c, 0xb0, 0x81, 0xa8, 0xbc,
  0x04, 0xbc, 0x3d, 0x3e, 0x62, 0x8e, 0x9a, 0x3e, 0x10, 0x39, 0xed, 0xbc,
  0xc4, 0xa1, 0xc5, 0x3d, 0xfa, 0xe6, 0x1f, 0x3e, 0x80, 0x56, 0x9f, 0x3b,
  0x30, 0x57, 0x50, 0x3d, 0xa8, 0x48, 0x4e, 0xbd, 0x80, 0xd1, 0xdd, 0xbc,
  0x80, 0x4c, 0x8b, 0xbb, 0xe8, 0x42, 0x5d, 0x3e, 0x40, 0x5f, 0x7a, 0x3e,
  0xa0, 0x1c, 0x13, 0x3c, 0x8e, 0x5c, 0x19, 0x3e, 0x44, 0xdb, 0xcb, 0x3d,
  0x8e, 0x75, 0x84, 0xbe, 0xe0, 0xb1, 0x85, 0x3d, 0x26, 0x64, 0x84, 0x3e,
  0x4c, 0xcb, 0x41, 0x3e, 0xd4, 0xfc, 0xd4, 0x3d, 0x78, 0x53, 0x82, 0xbd,
  0x64, 0xdc, 0xcc, 0x3d, 0x78, 0xb9, 0x84, 0x3e, 0x3e, 0x28, 0x85, 0x3e,
  0xc6, 0x40, 0xa0, 0xbe, 0x60, 0x01, 0x23, 0xbc, 0xa5, 0x32, 0x23, 0xbe,
  0x98, 0x05, 0x88, 0xbe, 0x48, 0x00, 0x90, 0x3e, 0x2e, 0x2a, 0x2c, 0xbe,
  0x40, 0x8e, 0x6b, 0x3d, 0x18, 0x7e, 0x66, 0x3d, 0x08, 0xe4, 0x5b, 0xbe,
  0xc4, 0x2e, 0x0e, 0xbe, 0x54, 0x69, 0xa4, 0xbd, 0x08, 0xa9, 0x4e, 0x3e,
  0x58, 0x77, 0x66, 0x3e, 0x6c, 0x97, 0xdd, 0x3d, 0x34, 0xb3, 0x73, 0x3e,
  0x80, 0xbe, 0x6c, 0xbb, 0xb0, 0xca, 0xc8, 0xbc, 0x08, 0x58, 0x88, 0x3e,
  0x14, 0xb3, 0x29, 0x3e, 0xe5, 0x96, 0x48, 0xbe, 0x48, 0xe5, 0x9c, 0x3e,
  0x81, 0xbf, 0x09, 0xbe, 0x44, 0xae, 0x9f, 0x3e, 0xd0, 0xcd, 0xa6, 0xbd,
  0xa0, 0x0b, 0xc5, 0x3c, 0x83, 0xa3, 0x18, 0xbe, 0xd0, 0x5e, 0x59, 0x3d,
  0x6d, 0xb0, 0x06, 0xbe, 0xac, 0xa8, 0x3a, 0x3e, 0x00, 0xfd, 0x60, 0x3d,
  0x66, 0x61, 0x30, 0xbe, 0x44, 0x40, 0x50, 0x3e, 0xc8, 0x9a, 0x12, 0xbe,
  0xb2, 0xea, 0x9f, 0x3e, 0xf8, 0xc6, 0xb5, 0xbd, 0x2b, 0x59, 0x2f, 0xbe,
  0x6e, 0xdb, 0x86, 0xbe, 0x34, 0xef, 0x7b, 0x3e, 0x0c, 0x44, 0xcc, 0x3d,
  0xfc, 0xca, 0x90, 0xbd, 0xe0, 0x44, 0xd3, 0x3c, 0xa8, 0x15, 0x6c, 0x3e,
  0xdc, 0xae, 0x80, 0x3e, 0xc8, 0x6f, 0x02, 0x3e, 0xa0, 0xa9, 0x74, 0x3e,
  0x10, 0xea, 0x0a, 0x3e, 0x94, 0x34, 0xa0, 0x3d, 0x43, 0x99, 0x17, 0xbe,
  0x5e, 0x03, 0x95, 0x3e, 0xc4, 0x37, 0xa4, 0x3e, 0x48, 0x23, 0x0e, 0x3e,
  0xa0, 0x2f, 0x66, 0xbd, 0xe0, 0x65, 0x1d, 0x3c, 0xf8, 0xa1, 0x83, 0xbd,
  0x74, 0x99, 0x50, 0x3e, 0x2c, 0x5c, 0x7e, 0xbe, 0xd0, 0x74, 0xea, 0xbc,
  0x30, 0xf4, 0x3f, 0x3d, 0xd8, 0xbf, 0xd6, 0xbd, 0x58, 0x86, 0x97, 0x3e,
  0x58, 0x51, 0x4a, 0xbd, 0xf8, 0xa8, 0xc1, 0x3d, 0x4c, 0x36, 0xab, 0x3e,
  0x98, 0x6b, 0x68, 0xbe, 0x4d, 0x3b, 0x9f, 0xbe, 0xd4, 0x05, 0x0f, 0x3e,
  0xce, 0x9e, 0x2b, 0xbe, 0x16, 0xa3, 0x80, 0x3e, 0xd5, 0xfe, 0x93, 0xbe,
  0x22, 0x41, 0x8d, 0x3e, 0x27, 0x64, 0x96, 0xbe, 0x64, 0x01, 0x2c, 0x3e,
  0xe4, 0x1c, 0xab, 0xbd, 0xbe, 0xe8, 0x9f, 0x3e, 0x2c, 0xe5, 0x0b, 0xbe,
  0x91, 0x11, 0xaa, 0xbe, 0x88, 0x4e, 0x8c, 0x3e, 0xc8, 0xb5, 0x50, 0x3e,
  0xb0, 0x6e, 0x73, 0x3e, 0x25, 0x3f, 0x9a, 0xbe, 0x64, 0xb5, 0x4b, 0x3e,
  0x00, 0x90, 0x68, 0xbd, 0x44, 0x94, 0x11, 0x3e, 0x5f, 0x44, 0x0c, 0xbe,
  0x18, 0xa1, 0x50, 0x3e, 0x80, 0x14, 0x29, 0xbc, 0xdc, 0x2f, 0x3c, 0x3e,
  0xa2, 0x8d, 0x7f, 0xbe, 0xfa, 0xe5, 0x8d, 0xbe, 0x9c, 0x48, 0x6a, 0x3e,
  0x64, 0xc1, 0x7e, 0x3e, 0xc7, 0x2b, 0x32, 0xbe, 0x94, 0x32, 0x8e, 0x3e,
  0xa0, 0x14, 0xa9, 0x3c, 0x2e, 0xeb, 0x8b, 0xbe, 0x70, 0xc7, 0x57, 0x3d,
  0x16, 0x32, 0xda, 0xbd, 0xfb, 0x3a, 0xab, 0xbe, 0x04, 0xb2, 0x2f, 0x3e,
  0x14, 0x5a, 0x7a, 0x3e, 0x80, 0x79, 0xda, 0xbb, 0x06, 0x0f, 0xd9, 0xbd,
  0x80, 0x20, 0x1b, 0x3e, 0x20, 0x53, 0xa9, 0x3c, 0xa8, 0x8b, 0x86, 0x3d,
  0x98, 0xe4, 0x98, 0xbe, 0xc8, 0x60, 0x85, 0x3d, 0xf0, 0x5c, 0xd7, 0x3c,
  0xc0, 0x1a, 0x9b, 0xbc, 0x7c, 0x6a, 0x87, 0xbd, 0xb0, 0x16, 0x7e, 0x3e,
  0xd0, 0xee, 0x2f, 0x3e, 0xa0, 0x02, 0xf6, 0xbc, 0x3e, 0xd6, 0x13, 0x3e,
  0xe0, 0xb3, 0x30, 0x3e, 0x23, 0x7c, 0x90, 0xbe, 0x54, 0x17, 0x04, 0x3e,
  0xa0, 0x61, 0xa2, 0x3e, 0x48, 0x08, 0xa3, 0xbe, 0xdb, 0x7b, 0xaa, 0xbe,
  0xca, 0x4e, 0x89, 0x3e, 0x30, 0xe8, 0x0f, 0x3e, 0x90, 0x4f, 0xf9, 0x3d,
  0x60, 0x6e, 0x39, 0x3d, 0x6a, 0x84, 0xc6, 0xbd, 0x00, 0x89, 0xc8, 0x3b,
  0xf4, 0xa2, 0x0f, 0x3e, 0xc8, 0xda, 0x3c, 0x3e, 0xc8, 0x01, 0x16, 0x3d,
  0x1a, 0x53, 0x53, 0xbe, 0x5c, 0x6f, 0x27, 0xbe, 0x68, 0x94, 0x28, 0x3e,
  0x60, 0xbc, 0x4f, 0xbd, 0x1a, 0x41, 0x2a, 0xbe, 0x77, 0x3a, 0x76, 0xbe,
  0xbe, 0x57, 0x22, 0x3e, 0x00, 0xc5, 0x02, 0x3e, 0x08, 0x2b, 0xac, 0x3d,
  0xc8, 0x41, 0x3f, 0x3e, 0x0c, 0xd2, 0x00, 0x3e, 0xac, 0x51, 0x84, 0x3d,
  0xb4, 0x76, 0x4f, 0x3e, 0x24, 0x4a, 0xe4, 0x3d, 0x80, 0x09, 0xbe, 0x3d,
  0x48, 0x27, 0xa6, 0x3e, 0x30, 0x45, 0x94, 0x3c, 0x26, 0x12, 0xaa, 0x3e,
  0x94, 0x97, 0x55, 0xbe, 0x04, 0xae, 0xd5, 0xbd, 0xb6, 0x16, 0x81, 0xbe,
  0x00, 0xb5, 0x41, 0xbe, 0x34, 0x33, 0xec, 0xbd, 0x28, 0x28, 0x63, 0x3e,
  0x9c, 0xa9, 0xe2, 0x3d, 0xf2, 0xac, 0x95, 0x3e, 0x5e, 0x97, 0x18, 0xbe,
  0x18, 0xcf, 0x11, 0x3d, 0x6c, 0x4f, 0x9d, 0x3e, 0xac, 0x54, 0x7e, 0x3e,
  0xba, 0x98, 0x7d, 0xbe, 0x68, 0x7d, 0xd3, 0x3d, 0x70, 0x47, 0x54, 0xbd,
  0x60, 0xc6, 0x4c, 0xbd, 0x00, 0x92, 0x31, 0x3b, 0xee, 0x3c, 0x99, 0xbe,
  0xa8, 0xaa, 0x8c, 0x3d, 0xcd, 0x78, 0xa3, 0xbe, 0xf6, 0x8d, 0x44, 0xbe,
  0xec, 0xd4, 0x03, 0x3e, 0x33, 0xc2, 0xa4, 0xbe, 0x37, 0xc8, 0x7a, 0xbe,
  0x06, 0x26, 0x9b, 0xbe, 0xb8, 0x03, 0xe7, 0x3d, 0xe4, 0x0d, 0x9c, 0x3e,
  0xf8, 0x64, 0x1b, 0x3e, 0xcc, 0x7f, 0xd2, 0x3d, 0xc4, 0x8c, 0x78, 0x3e,
  0xba, 0x50, 0x94, 0x3e, 0x00, 0x04, 0x2a, 0xbe, 0xd4, 0xf0, 0x37, 0x3e,
  0x66, 0xfa, 0x89, 0x3e, 0x49, 0x03, 0x98, 0xbe, 0xe0, 0xc7, 0x95, 0x3e,
  0x6c, 0xf8, 0x74, 0xbe, 0x3b, 0x0f, 0x7b, 0xbe, 0x95, 0xc1, 0x50, 0xbe,
  0xe0, 0x11, 0x9f, 0xbc, 0x44, 0x8f, 0xff, 0xbd, 0xe0, 0x0f, 0x4c, 0xbc,
  0x73, 0x19, 0x8b, 0xbe, 0x70, 0x79, 0xb8, 0x3c, 0x5c, 0xe6, 0x88, 0xbe,
  0xe4, 0xbb, 0xe4, 0x3d, 0xfe, 0xec, 0x65, 0xbe, 0xb9, 0x85, 0x15, 0xbe,
  0xb8, 0x73, 0x81, 0x3e, 0xa4, 0x0f, 0xa4, 0x3e, 0xf8, 0xc2, 0x03, 0xbd,
  0xf8, 0x03, 0x11, 0x3e, 0xaa, 0xa5, 0x95, 0x3e, 0x54, 0xac, 0x92, 0xbe,
  0x12, 0x8e, 0x94, 0xbe, 0xfe, 0x15, 0x99, 0x3e, 0x1e, 0xf7, 0x14, 0x3e,
  0xde, 0xda, 0xa1, 0x3e, 0x1a, 0xad, 0x91, 0x3e, 0x30, 0xbc, 0xb4, 0x3d,
  0xff, 0x6d, 0x8d, 0xbe, 0x30, 0x3c, 0x80, 0x3c, 0x3c, 0x54, 0xd1, 0x3d,
  0x18, 0xe8, 0xa7, 0xbd, 0x74, 0x12, 0x2b, 0x3e, 0x3b, 0x59, 0x57, 0xbe,
  0xb2, 0xc2, 0xc8, 0xbd, 0xd7, 0x1c, 0x4f, 0xbe, 0x78, 0xa3, 0x45, 0x3d,
  0xb0, 0xde, 0xcd, 0x3c, 0x76, 0x34, 0x9f, 0x3e, 0xa0, 0x16, 0x0b, 0x3e,
  0x80, 0x37, 0x02, 0xbc, 0x90, 0x19, 0x51, 0xbd, 0x34, 0xef, 0xee, 0xbd,
  0xa8, 0x32, 0x2a, 0x3d, 0xa0, 0x4e, 0xe0, 0x3d, 0x8e, 0x62, 0xad, 0x3e,
  0xbc, 0x4a, 0x35, 0x3e, 0xb1, 0xa5, 0x94, 0xbe, 0xfc, 0x90, 0x7c, 0x3e,
  0xa4, 0x1b, 0x8d, 0xbd, 0xc8, 0x00, 0x2a, 0xbd, 0x08, 0x3e, 0xa4, 0x3e,
  0xf8, 0xc1, 0x97, 0x3e, 0xe0, 0x4c, 0x3a, 0xbd, 0x20, 0xb0, 0x0b, 0xbd,
  0x54, 0x13, 0x55, 0x3e, 0xcd, 0xc4, 0x33, 0xbe, 0x7c, 0xe1, 0x41, 0x3e,
  0x40, 0x42, 0x69, 0xbc, 0x5c, 0x4f, 0xa8, 0x3d, 0x00, 0x32, 0xd0, 0x3a,
  0xd8, 0x43, 0x14, 0xbd, 0xd3, 0x83, 0x6e, 0xbe, 0x60, 0xca, 0x9d, 0x3e,
  0xe2, 0x5e, 0x5d, 0xbe, 0xb1, 0x3b, 0x86, 0xbe, 0x00, 0x14, 0xff, 0xbd,
  0xc0, 0x0a, 0x1c, 0x3c, 0x3a, 0xfd, 0x9e, 0x3e, 0xf2, 0xf5, 0xa1, 0xbe,
  0x5a, 0xb7, 0x82, 0x3e, 0x88, 0xdc, 0x88, 0xbd, 0x28, 0x62, 0x6d, 0xbd,
  0x4e, 0x34, 0x9c, 0x3e, 0x5c, 0xdc, 0x2a, 0x3e, 0x72, 0x4e, 0x8a, 0xbe,
  0xf8, 0xb4, 0xaf, 0x3d, 0x48, 0x54, 0x28, 0x3d, 0xf0, 0xe2, 0x5b, 0x3d,
  0xe6, 0x7f, 0xe3, 0xbd, 0x4c, 0x5f, 0x47, 0xbe, 0xe8, 0xc5, 0xf3, 0x3d,
  0x6c, 0x8c, 0x41, 0x3e, 0xf4, 0xde, 0x25, 0x3e, 0xf8, 0x66, 0x00, 0x3d,
  0xcc, 0xd8, 0xf3, 0xbd, 0xe0, 0x00, 0x10, 0x3e, 0x10, 0xd6, 0x8c, 0x3e,
  0xd0, 0xde, 0x8a, 0x3d, 0x42, 0xde, 0x1e, 0x3e, 0x0a, 0x08, 0x95, 0x3e,
  0xf0, 0xcd, 0x62, 0xbd, 0xca, 0xe2, 0x9b, 0xbe, 0x50, 0x7d, 0xa6, 0xbd,
  0x28, 0xf0, 0x75, 0x3e, 0xac, 0x2d, 0x50, 0x3e, 0xf8, 0xbc, 0xdb, 0x3d,
  0xe6, 0x16, 0x05, 0x3e, 0xfc, 0xad, 0xe2, 0x3d, 0x4c, 0x33, 0xa1, 0xbd,
  0x5a, 0xff, 0x87, 0x3e, 0xd9, 0x56, 0x3a, 0xbe, 0xc0, 0xdf, 0xd0, 0x3c,
  0xe0, 0xf4, 0x3b, 0xbd, 0xd8, 0x10, 0x99, 0x3e, 0x2a, 0xda, 0x75, 0xbe,
  0x76, 0x73, 0x8b, 0x3e, 0xd0, 0xbd, 0x06, 0xbd, 0x90, 0x3f, 0x13, 0xbd,
  0x20, 0x51, 0x13, 0x3e, 0x1c, 0x88, 0xee, 0xbd, 0x40, 0x3d, 0x78, 0x3c,
  0x7c, 0x95, 0x8e, 0x3e, 0x28, 0x1b, 0x29, 0x3d, 0xea, 0x84, 0x90, 0x3e,
  0x40, 0x21, 0xbf, 0x3b, 0x14, 0x5d, 0x03, 0x3e, 0x40, 0xf8, 0x9e, 0xbd,
  0x00, 0xc0, 0xa3, 0x3d, 0x20, 0x29, 0xa7, 0x3c, 0xd2, 0x43, 0x60, 0xbe,
  0x2c, 0xa9, 0xd6, 0x3d, 0x7e, 0xd4, 0xf6, 0xbd, 0xd0, 0xf1, 0x36, 0x3d,
  0xec, 0x80, 0x91, 0xbd, 0x5d, 0xc0, 0xa9, 0xbe, 0x84, 0x66, 0x69, 0xbe,
  0xc8, 0xe6, 0x99, 0x3e, 0xb3, 0xc8, 0x08, 0xbe, 0x80, 0xc8, 0x37, 0xbc,
  0xbc, 0x8a, 0x6f, 0x3e, 0xd5, 0xcd, 0x84, 0xbe, 0xb2, 0x07, 0x94, 0x3e,
  0x33, 0x36, 0x87, 0xbe, 0x18, 0x5d, 0x62, 0xbd, 0xdc, 0xe2, 0xdf, 0xbd,
  0xbc, 0x89, 0xb6, 0xbd, 0xf0, 0xb9, 0x46, 0xbe, 0xc7, 0xc0, 0x9b, 0xbe,
  0xc4, 0x77, 0x9d, 0xbd, 0x80, 0xde, 0x58, 0x3c, 0xb2, 0x6e, 0x94, 0x3e,
  0xb0, 0xc5, 0xb9, 0x3c, 0xe0, 0x81, 0x6a, 0xbc, 0x30, 0x81, 0x31, 0xbd,
  0x2f, 0x3d, 0xa0, 0xbe, 0x1c, 0x50, 0xc4, 0x3d, 0xd9, 0x9d, 0x57, 0xbe,
  0x50, 0xb9, 0x10, 0xbd, 0xf0, 0xec, 0x5d, 0xbe, 0x5e, 0xae, 0x9a, 0xbe,
  0x3d, 0xfc, 0x7c, 0xbe, 0xa5, 0xec, 0x08, 0xbe, 0x10, 0xe7, 0x83, 0xbc,
  0x6a, 0xed, 0xd5, 0xbd, 0x5c, 0x82, 0xcf, 0xbd, 0xe4, 0xf3, 0xa9, 0x3e,
  0xf0, 0x35, 0x23, 0x3e, 0xe6, 0xc1, 0x5a, 0xbe, 0xe0, 0x92, 0xf8, 0x3c,
  0xf4, 0x69, 0xa9, 0xbe, 0x8e, 0xea, 0x1e, 0x3e, 0x18, 0x62, 0x3c, 0xbd,
  0x2f, 0xa3, 0x80, 0xbe, 0xf8, 0xed, 0x84, 0x3d, 0xdc, 0xd1, 0x7c, 0x3e,
  0x44, 0x6f, 0x84, 0x3d, 0x33, 0x91, 0x84, 0xbe, 0xb8, 0x46, 0x05, 0xbd,
  0x10, 0x45, 0xf9, 0xbc, 0x08, 0xdc, 0xde, 0xbd, 0x40, 0x90, 0xb0, 0xbb,
  0x0c, 0x15, 0x0c, 0x3e, 0x58, 0x95, 0x0e, 0x3d, 0x00, 0xb2, 0xfb, 0x3a,
  0x8c, 0x1b, 0x95, 0x3e, 0xcc, 0x44, 0x70, 0x3e, 0x60, 0x58, 0x99, 0x3d,
  0x7c, 0x07, 0xe9, 0x3d, 0x48, 0x81, 0x3a, 0x3e, 0x62, 0xb4, 0x4f, 0xbe,
  0xe0, 0xbd, 0x2c, 0x3e, 0x50, 0x83, 0x48, 0x3e, 0xb8, 0x9e, 0xe4, 0xbd,
  0xe8, 0x05, 0x78, 0xbe, 0x0c, 0xd4, 0xdd, 0x3d, 0x06, 0x96, 0x70, 0xbe,
  0x24, 0x86, 0x4d, 0x3e, 0xd9, 0x9b, 0x5b, 0xbe, 0x2e, 0xd8, 0xe2, 0xbd,
  0x07, 0xfd, 0x35, 0xbe, 0x51, 0xe8, 0xa9, 0xbe, 0x0c, 0xa7, 0x16, 0xbe,
  0xfd, 0x4c, 0x27, 0xbe, 0x3c, 0x64, 0xda, 0x3d, 0xcc, 0x88, 0xf5, 0x3d,
  0x0f, 0x0a, 0x1f, 0xbe, 0x5e, 0x7a, 0x8c, 0x3e, 0x0b, 0x44, 0x68, 0xbe,
  0xa2, 0xe6, 0x96, 0xbe, 0x30, 0xf0, 0x35, 0x3e, 0x78, 0x38, 0xd9, 0x3d,
  0x54, 0x3d, 0x89, 0x3e, 0x45, 0xb8, 0x55, 0xbe, 0x60, 0xdd, 0x72, 0x3d,
  0xbc, 0xab, 0x82, 0x3d, 0x24, 0x53, 0x9a, 0xbe, 0x54, 0xfd, 0xe2, 0x3d,
  0x60, 0x0d, 0x40, 0x3e, 0x40, 0xba, 0x6c, 0x3e, 0x9e, 0x7e, 0xab, 0x3e,
  0x56, 0xca, 0x8f, 0x3e, 0xfa, 0xca, 0x89, 0x3e, 0x9c, 0x78, 0x11, 0x3e,
  0xa4, 0xdc, 0xa7, 0xbe, 0x5f, 0x3b, 0x4f, 0xbe, 0x98, 0xd2, 0x77, 0x3e,
  0x24, 0x73, 0x95, 0xbd, 0x5c, 0x0e, 0x27, 0xbe, 0x90, 0x3c, 0x65, 0x3e,
  0xbc, 0xa1, 0xa6, 0xbe, 0xc0, 0x83, 0x77, 0x3c, 0xd1, 0x02, 0x55, 0xbe,
  0x20, 0x7b, 0x50, 0x3e, 0xf6, 0x4c, 0x10, 0x3e, 0x54, 0x89, 0x60, 0x3e,
  0x58, 0xa8, 0x8f, 0xbe, 0x1b, 0xd5, 0x76, 0xbe, 0x9a, 0x7f, 0xbb, 0xbd,
  0xb5, 0x69, 0x17, 0xbe, 0x9f, 0xea, 0x56, 0xbe, 0x10, 0xf2, 0x51, 0xbe,
  0x21, 0x26, 0x03, 0xbe, 0x80, 0xfd, 0xc1, 0x3d, 0x28, 0x78, 0x33, 0x3e,
  0x36, 0x4c, 0x08, 0x3e, 0x88, 0x7a, 0xfa, 0xbd, 0x98, 0x20, 0xa2, 0x3e,
  0xa0, 0xb4, 0xe8, 0xbc, 0x46, 0x2e, 0x94, 0x3e, 0xb0, 0x9e, 0xd3, 0x3c,
  0xa0, 0xf6, 0xdc, 0x3d, 0x68, 0xc9, 0x92, 0xbd, 0x8e, 0x7e, 0xab, 0xbe,
  0x14, 0x43, 0x9f, 0x3e, 0x5c, 0x6d, 0xe0, 0x3d, 0xaa, 0x34, 0x26, 0xbe,
  0x01, 0x6b, 0x6b, 0xbe, 0x2c, 0xc7, 0x48, 0x3e, 0x60, 0xcc, 0x48, 0x3e,
  0x78, 0x00, 0xa7, 0xbd, 0x74, 0x6d, 0x0c, 0x3e, 0xf4, 0x7f, 0xa5, 0x3d,
  0x2c, 0x6a, 0x4e, 0x3e, 0x44, 0xd0, 0xb6, 0xbd, 0xe8, 0x30, 0x29, 0x3e,
  0xb9, 0xfc, 0xa0, 0xbe, 0x28, 0x9e, 0x31, 0xbd, 0x4c, 0x88, 0xc2, 0x3d,
  0xfa, 0x31, 0x85, 0xbe, 0x98, 0xdd, 0x81, 0x3d, 0x60, 0x22, 0xb0, 0x3c,
  0xb8, 0x4d, 0xef, 0xbd, 0x6a, 0x2a, 0x29, 0xbe, 0x36, 0x91, 0x84, 0x3e,
  0xb8, 0xca, 0x2f, 0x3e, 0x60, 0xa5, 0x01, 0xbc, 0x90, 0xe2, 0x7a, 0xbe,
  0x00, 0x60, 0x65, 0x3e, 0xa8, 0x54, 0x06, 0xbd, 0x71, 0xe6, 0x8f, 0xbe,
  0x78, 0xf5, 0xa2, 0xbe, 0x2f, 0x63, 0x7d, 0xbe, 0x5e, 0x3d, 0x8d, 0x3e,
  0xd8, 0xde, 0x31, 0x3e, 0x62, 0xdc, 0x97, 0x3e, 0x98, 0x0e, 0xfb, 0x3d,
  0xe0, 0x03, 0x0b, 0x3c, 0x8a, 0x9b, 0x56, 0xbe, 0x00, 0x46, 0x6f, 0x3c,
  0x80, 0x4c, 0x7a, 0xbb, 0x66, 0x4e, 0x0e, 0x3e, 0xe4, 0xdc, 0x78, 0x3e,
  0xc8, 0xcc, 0x96, 0x3d, 0x78, 0xe3, 0x77, 0x3e, 0x0c, 0x51, 0x41, 0xbe,
  0x40, 0xaa, 0xe7, 0xbd, 0x08, 0xed, 0x69, 0x3e, 0x74, 0xae, 0x32, 0x3e,
  0xd6, 0xb9, 0xd3, 0xbd, 0x00, 0x64, 0x44, 0xbb, 0xc2, 0x8e, 0xa4, 0xbe,
  0x08, 0x06, 0x7d, 0x3e, 0x90, 0xd1, 0x8c, 0x3e, 0x47, 0x7e, 0x4d, 0xbe,
  0xec, 0x8e, 0xb6, 0x3d, 0xc6, 0x6d, 0x7a, 0xbe, 0xe3, 0x33, 0x54, 0xbe,
  0xf0, 0xd8, 0xa6, 0xbc, 0x10, 0x82, 0x6b, 0x3e, 0x00, 0x59, 0xe6, 0xba,
  0xc0, 0x38, 0x95, 0xbb, 0x4c, 0xd0, 0x3b, 0x3e, 0x50, 0xa0, 0x9c, 0xbe,
  0xc0, 0x7f, 0x69, 0xbc, 0x68, 0x41, 0xcf, 0x3d, 0xd0, 0x1e, 0xb2, 0x3d,
  0x00, 0x50, 0xa4, 0x3e, 0x24, 0x08, 0xc5, 0x3d, 0xce, 0x75, 0x8f, 0xbe,
  0x70, 0xeb, 0x60, 0x3e, 0xc9, 0x6f, 0x05, 0xbe, 0x6c, 0x0d, 0x13, 0x3e,
  0x04, 0x27, 0xa8, 0xbd, 0x40, 0xb1, 0x1a, 0x3c, 0x30, 0xb1, 0x87, 0x3e,
  0xe3, 0x33, 0x94, 0xbe, 0x68, 0xdd, 0x68, 0x3e, 0xd8, 0x8f, 0x6d, 0x3d,
  0xc3, 0xfd, 0x33, 0xbe, 0x98, 0x6d, 0x21, 0xbd, 0xf2, 0x86, 0x5d, 0xbe,
  0x33, 0x03, 0x1f, 0xbe, 0x80, 0x17, 0x9b, 0xbc, 0x94, 0x49, 0x98, 0x3e,
  0x66, 0xd1, 0xe0, 0xbd, 0xf0, 0xeb, 0x0e, 0x3d, 0x73, 0x5b, 0x2d, 0xbe,
  0xb2, 0xcf, 0xa2, 0x3e, 0xa0, 0x09, 0x82, 0xbd, 0xa4, 0x6c, 0x02, 0x3e,
  0x06, 0x2c, 0xa6, 0x3e, 0xe9, 0x81, 0x03, 0xbe, 0x60, 0x86, 0x02, 0x3d,
  0xb8, 0x5c, 0xd9, 0x3d, 0x0e, 0xd6, 0x12, 0xbe, 0xc4, 0xb0, 0x94, 0xbd,
  0xdc, 0x9f, 0x39, 0x3e, 0x75, 0x34, 0xa5, 0xbe, 0xc7, 0x9c, 0x1c, 0xbe,
  0xe4, 0xa1, 0xb8, 0x3d, 0x18, 0x6e, 0x44, 0xbd, 0xe0, 0xff, 0x86, 0xbd,
  0x46, 0x3d, 0xf2, 0xbd, 0x1c, 0xda, 0x01, 0x3e, 0x86, 0xd6, 0x94, 0x3e,
  0xb1, 0xc0, 0x0c, 0xbe, 0x44, 0x2b, 0x3a, 0x3e, 0xc0, 0x7c, 0xea, 0x3d,
  0xac, 0xfb, 0xfd, 0x3d, 0x64, 0x3b, 0x45, 0xbe, 0x1d, 0x79, 0x89, 0xbe,
  0x94, 0x6c, 0x91, 0x3e, 0x4c, 0x1d, 0x4b, 0x3e, 0x00, 0xb0, 0xcd, 0xbc,
  0x04, 0x28, 0xfd, 0x3d, 0x14, 0xb6, 0x5d, 0x3e, 0xe6, 0xf2, 0x9c, 0x3e,
  0x12, 0xe9, 0xac, 0x3e, 0x07, 0x0f, 0xac, 0xbe, 0x90, 0x54, 0x33, 0x3e,
  0x29, 0x75, 0x19, 0xbe, 0xd6, 0x99, 0x8a, 0x3e, 0x20, 0xa7, 0x6c, 0x3e,
  0xb8, 0xd9, 0x03, 0xbd, 0xac, 0xf2, 0x35, 0x3e, 0x14, 0x84, 0x97, 0xbd,
  0x08, 0x48, 0x70, 0x3d, 0x69, 0x52, 0xab, 0xbe, 0xe0, 0x3b, 0x9b, 0xbc,
  0x0c, 0xc1, 0x76, 0x3e, 0x1c, 0x60, 0x84, 0xbd, 0x94, 0x65, 0x62, 0x3e,
  0x04, 0xfd, 0x56, 0x3e, 0x68, 0x01, 0xe5, 0x3d, 0x0c, 0x39, 0x38, 0x3e,
  0x24, 0xea, 0x42, 0x3e, 0x40, 0x33, 0x7b, 0x3e, 0x10, 0x5d, 0xdf, 0x3d,
  0xc8, 0xef, 0x96, 0x3e, 0x42, 0xc9, 0xe5, 0xbd, 0x40, 0x0d, 0x0f, 0xbc,
  0xb8, 0xc5, 0x90, 0x3e, 0xf4, 0x3c, 0x1e, 0x3e, 0x8e, 0x99, 0x11, 0x3e,
  0x34, 0x03, 0xd5, 0x3d, 0x88, 0x94, 0x37, 0x3d, 0xf0, 0x81, 0xb2, 0xbc,
  0xa0, 0x8b, 0x91, 0x3e, 0xf4, 0x16, 0xa4, 0x3d, 0x6c, 0x2d, 0x94, 0x3e,
  0xa0, 0x0b, 0xe0, 0xbd, 0x20, 0x7e, 0x57, 0x3e, 0xb0, 0xee, 0x29, 0xbe,
  0x3e, 0x78, 0xad, 0x3e, 0x30, 0x01, 0x53, 0x3e, 0x22, 0xfe, 0x9d, 0xbe,
  0xe4, 0x9a, 0xb0, 0x3d, 0xba, 0x6c, 0x20, 0x3e, 0xf2, 0x8c, 0xc0, 0xbd,
  0x1c, 0xbb, 0xaa, 0x3e, 0x20, 0x1d, 0x0d, 0x3d, 0x58, 0x85, 0x4f, 0xbd,
  0xf0, 0x69, 0xaa, 0x3e, 0x12, 0x1b, 0x9e, 0xbe, 0xd8, 0xb2, 0x4a, 0xbe,
  0x38, 0x54, 0x34, 0x3d, 0xc0, 0x25, 0xe4, 0xbb, 0xb6, 0x56, 0x87, 0x3e,
  0xcf, 0x59, 0x35, 0xbe, 0x58, 0x24, 0x18, 0xbe, 0xaa, 0x78, 0xd9, 0xbd,
  0xd8, 0xf2, 0x53, 0x3e, 0x14, 0x81, 0x65, 0xbe, 0x40, 0xe3, 0xf4, 0x3c,
  0xf2, 0x15, 0xf3, 0xbd, 0x40, 0x21, 0x9d, 0x3e, 0xbb, 0x9a, 0x6e, 0xbe,
  0x64, 0x1b, 0x90, 0xbe, 0x3c, 0x03, 0xa2, 0xbe, 0x94, 0x46, 0x93, 0x3d,
  0x18, 0xec, 0x84, 0x3e, 0x06, 0x66, 0xa3, 0xbe, 0x3e, 0x2b, 0xdb, 0xbd,
  0x76, 0xfc, 0x12, 0xbe, 0xac, 0x23, 0x6e, 0x3e, 0xd4, 0x0e, 0xba, 0x3d,
  0x70, 0xce, 0x52, 0x3e, 0x0c, 0x79, 0x8e, 0x3e, 0x00, 0x45, 0x3b, 0x3d,
  0x30, 0x18, 0xa2, 0xbe, 0xea, 0xc3, 0x92, 0x3e, 0x8c, 0x2b, 0xa3, 0xbd,
  0x08, 0x29, 0x31, 0x3e, 0x60, 0x27, 0x22, 0xbc, 0x46, 0x5c, 0x98, 0xbe,
  0xe0, 0x9a, 0x29, 0x3d, 0x3e, 0xf8, 0xb9, 0xbd, 0x4c, 0x86, 0x98, 0xbe,
  0xc8, 0x31, 0x6c, 0x3e, 0x46, 0xa5, 0x9b, 0x3e, 0x28, 0xee, 0x0a, 0x3e,
  0x10, 0x98, 0x26, 0xbe, 0x3c, 0xb1, 0x2c, 0x3e, 0x0b, 0xfd, 0x57, 0xbe,
  0xb0, 0x49, 0x68, 0x3e, 0x6c, 0xbe, 0x95, 0xbd, 0x60, 0xb0, 0x27, 0xbd,
  0xcd, 0x12, 0x26, 0xbe, 0x70, 0x0c, 0x9b, 0x3d, 0xf8, 0x6c, 0x38, 0x3d,
  0xd4, 0x2d, 0x26, 0x3e, 0xee, 0x39, 0xa1, 0xbe, 0x68, 0x87, 0xa2, 0x3e,
  0x6c, 0x15, 0xbf, 0xbd, 0xd0, 0x56, 0x57, 0x3e, 0xb9, 0x28, 0xab, 0xbe,
  0x28, 0x92, 0x91, 0xbe, 0x45, 0x63, 0x58, 0xbe, 0x36, 0xff, 0xff, 0xff,
  0x10, 0x00, 0x00, 0x00, 0x04, 0x00, 0x00, 0x00, 0x14, 0x00, 0x00, 0x00,
  0x20, 0x00, 0x00, 0x00, 0x02, 0x00, 0x00, 0x00, 0x01, 0x00, 0x00, 0x00,
  0x16, 0x00, 0x00, 0x00, 0x08, 0x00, 0x00, 0x00, 0x49, 0x64, 0x65, 0x6e,
  0x74, 0x69, 0x74, 0x79, 0x00, 0x00, 0x00, 0x00, 0xbc, 0xfe, 0xff, 0xff,
  0x6a, 0xff, 0xff, 0xff, 0x10, 0x00, 0x00, 0x00, 0x03, 0x00, 0x00, 0x00,
  0x14, 0x00, 0x00, 0x00, 0x34, 0x00, 0x00, 0x00, 0x02, 0x00, 0x00, 0x00,
  0x01, 0x00, 0x00, 0x00, 0x1a, 0x00, 0x00, 0x00, 0x1d, 0x00, 0x00, 0x00,
  0x73, 0x65, 0x71, 0x75, 0x65, 0x6e, 0x74, 0x69, 0x61, 0x6c, 0x5f, 0x31,
  0x33, 0x31, 0x2f, 0x64, 0x65, 0x6e, 0x73, 0x65, 0x5f, 0x33, 0x32, 0x38,
  0x2f, 0x52, 0x65, 0x6c, 0x75, 0x00, 0x00, 0x00, 0x04, 0xff, 0xff, 0xff,
  0xb2, 0xff, 0xff, 0xff, 0x10, 0x00, 0x00, 0x00, 0x02, 0x00, 0x00, 0x00,
  0x14, 0x00, 0x00, 0x00, 0x38, 0x00, 0x00, 0x00, 0x02, 0x00, 0x00, 0x00,
  0x01, 0x00, 0x00, 0x00, 0x1a, 0x00, 0x00, 0x00, 0x1d, 0x00, 0x00, 0x00,
  0x73, 0x65, 0x71, 0x75, 0x65, 0x6e, 0x74, 0x69, 0x61, 0x6c, 0x5f, 0x31,
  0x33, 0x31, 0x2f, 0x64, 0x65, 0x6e, 0x73, 0x65, 0x5f, 0x33, 0x32, 0x37,
  0x2f, 0x52, 0x65, 0x6c, 0x75, 0x00, 0x00, 0x00, 0x04, 0x00, 0x06, 0x00,
  0x04, 0x00, 0x00, 0x00, 0x00, 0x00, 0x0e, 0x00, 0x14, 0x00, 0x04, 0x00,
  0x00, 0x00, 0x08, 0x00, 0x0c, 0x00, 0x10, 0x00, 0x0e, 0x00, 0x00, 0x00,
  0x10, 0x00, 0x00, 0x00, 0x01, 0x00, 0x00, 0x00, 0x14, 0x00, 0x00, 0x00,
  0x2c, 0x00, 0x00, 0x00, 0x02, 0x00, 0x00, 0x00, 0x01, 0x00, 0x00, 0x00,
  0x1a, 0x00, 0x00, 0x00, 0x0f, 0x00, 0x00, 0x00, 0x64, 0x65, 0x6e, 0x73,
  0x65, 0x5f, 0x33, 0x32, 0x37, 0x5f, 0x69, 0x6e, 0x70, 0x75, 0x74, 0x00,
  0x08, 0x00, 0x0c, 0x00, 0x04, 0x00, 0x08, 0x00, 0x08, 0x00, 0x00, 0x00,
  0x10, 0x00, 0x00, 0x00, 0x04, 0x00, 0x00, 0x00, 0x01, 0x00, 0x00, 0x00,
  0x00, 0x00, 0x7f, 0x43, 0x01, 0x00, 0x00, 0x00, 0x00, 0x00, 0x00, 0x00,
  0x03, 0x00, 0x00, 0x00, 0x98, 0x00, 0x00, 0x00, 0x44, 0x00, 0x00, 0x00,
  0x04, 0x00, 0x00, 0x00, 0x88, 0xff, 0xff, 0xff, 0x00, 0x00, 0x00, 0x08,
  0x10, 0x00, 0x00, 0x00, 0x1c, 0x00, 0x00, 0x00, 0x28, 0x00, 0x00, 0x00,
  0x1c, 0x00, 0x00, 0x00, 0x03, 0x00, 0x00, 0x00, 0x06, 0x00, 0x00, 0x00,
  0x07, 0x00, 0x00, 0x00, 0x08, 0x00, 0x00, 0x00, 0x01, 0x00, 0x00, 0x00,
  0x00, 0x00, 0x00, 0x00, 0x00, 0x00, 0x00, 0x00, 0x04, 0x00, 0x04, 0x00,
  0x04, 0x00, 0x00, 0x00, 0xc4, 0xff, 0xff, 0xff, 0x00, 0x00, 0x00, 0x08,
  0x10, 0x00, 0x00, 0x00, 0x1c, 0x00, 0x00, 0x00, 0x24, 0x00, 0x00, 0x00,
  0x1c, 0x00, 0x00, 0x00, 0x03, 0x00, 0x00, 0x00, 0x04, 0x00, 0x00, 0x00,
  0x05, 0x00, 0x00, 0x00, 0x03, 0x00, 0x00, 0x00, 0x01, 0x00, 0x00, 0x00,
  0x06, 0x00, 0x00, 0x00, 0x00, 0x00, 0x00, 0x00, 0x8e, 0xff, 0xff, 0xff,
  0x00, 0x00, 0x00, 0x01, 0x14, 0x00, 0x18, 0x00, 0x00, 0x00, 0x08, 0x00,
  0x0c, 0x00, 0x07, 0x00, 0x10, 0x00, 0x00, 0x00, 0x00, 0x00, 0x14, 0x00,
  0x14, 0x00, 0x00, 0x00, 0x00, 0x00, 0x00, 0x08, 0x10, 0x00, 0x00, 0x00,
  0x1c, 0x00, 0x00, 0x00, 0x24, 0x00, 0x00, 0x00, 0x1c, 0x00, 0x00, 0x00,
  0x03, 0x00, 0x00, 0x00, 0x01, 0x00, 0x00, 0x00, 0x02, 0x00, 0x00, 0x00,
  0x03, 0x00, 0x00, 0x00, 0x01, 0x00, 0x00, 0x00, 0x04, 0x00, 0x00, 0x00,
  0x00, 0x00, 0x00, 0x00, 0xde, 0xff, 0xff, 0xff, 0x00, 0x00, 0x00, 0x01,
  0x01, 0x00, 0x00, 0x00, 0x04, 0x00, 0x00, 0x00, 0xfa, 0xff, 0xff, 0xff,
  0x00, 0x09, 0x06, 0x00, 0x06, 0x00, 0x05, 0x00, 0x06, 0x00, 0x00, 0x00,
  0x00, 0x09, 0x06, 0x00, 0x08, 0x00, 0x07, 0x00, 0x06, 0x00, 0x00, 0x00,
  0x00, 0x00, 0x00, 0x09
};
unsigned int DNN_hybrid_22_tflite_len = 9280;
