unsigned char DNN_IV_12_tflite[] = {
  0x1c, 0x00, 0x00, 0x00, 0x54, 0x46, 0x4c, 0x33, 0x00, 0x00, 0x12, 0x00,
  0x1c, 0x00, 0x04, 0x00, 0x08, 0x00, 0x0c, 0x00, 0x10, 0x00, 0x14, 0x00,
  0x00, 0x00, 0x18, 0x00, 0x12, 0x00, 0x00, 0x00, 0x03, 0x00, 0x00, 0x00,
  0xc4, 0x0e, 0x00, 0x00, 0x10, 0x00, 0x00, 0x00, 0x1c, 0x00, 0x00, 0x00,
  0x2c, 0x00, 0x00, 0x00, 0x0c, 0x00, 0x00, 0x00, 0x01, 0x00, 0x00, 0x00,
  0xe4, 0x00, 0x00, 0x00, 0x01, 0x00, 0x00, 0x00, 0xac, 0x00, 0x00, 0x00,
  0x0f, 0x00, 0x00, 0x00, 0x54, 0x4f, 0x43, 0x4f, 0x20, 0x43, 0x6f, 0x6e,
  0x76, 0x65, 0x72, 0x74, 0x65, 0x64, 0x2e, 0x00, 0x0c, 0x00, 0x00, 0x00,
  0x80, 0x00, 0x00, 0x00, 0x78, 0x00, 0x00, 0x00, 0x70, 0x00, 0x00, 0x00,
  0x68, 0x00, 0x00, 0x00, 0x5c, 0x00, 0x00, 0x00, 0x4c, 0x00, 0x00, 0x00,
  0x40, 0x00, 0x00, 0x00, 0x34, 0x00, 0x00, 0x00, 0x28, 0x00, 0x00, 0x00,
  0x1c, 0x00, 0x00, 0x00, 0x10, 0x00, 0x00, 0x00, 0x04, 0x00, 0x00, 0x00,
  0xca, 0xff, 0xff, 0xff, 0x50, 0x00, 0x00, 0x00, 0xd2, 0xff, 0xff, 0xff,
  0x1c, 0x01, 0x00, 0x00, 0xda, 0xff, 0xff, 0xff, 0xa8, 0x01, 0x00, 0x00,
  0xe2, 0xff, 0xff, 0xff, 0x8c, 0x04, 0x00, 0x00, 0xea, 0xff, 0xff, 0xff,
  0x20, 0x05, 0x00, 0x00, 0xf2, 0xff, 0xff, 0xff, 0x74, 0x08, 0x00, 0x00,
  0x20, 0xf3, 0xff, 0xff, 0x00, 0x00, 0x06, 0x00, 0x08, 0x00, 0x04, 0x00,
  0x06, 0x00, 0x00, 0x00, 0x30, 0x09, 0x00, 0x00, 0x80, 0xf2, 0xff, 0xff,
  0x84, 0xf2, 0xff, 0xff, 0x88, 0xf2, 0xff, 0xff, 0x8c, 0xf2, 0xff, 0xff,
  0x05, 0x00, 0x00, 0x00, 0x31, 0x2e, 0x35, 0x2e, 0x30, 0x00, 0x00, 0x00,
  0x04, 0xf3, 0xff, 0xff, 0x08, 0x00, 0x00, 0x00, 0x0b, 0x00, 0x00, 0x00,
  0x13, 0x00, 0x00, 0x00, 0x6d, 0x69, 0x6e, 0x5f, 0x72, 0x75, 0x6e, 0x74,
  0x69, 0x6d, 0x65, 0x5f, 0x76, 0x65, 0x72, 0x73, 0x69, 0x6f, 0x6e, 0x00,
  0x0c, 0x00, 0x14, 0x00, 0x04, 0x00, 0x08, 0x00, 0x0c, 0x00, 0x10, 0x00,
  0x0c, 0x00, 0x00, 0x00, 0x20, 0x00, 0x00, 0x00, 0x14, 0x00, 0x00, 0x00,
  0x08, 0x00, 0x00, 0x00, 0xe0, 0x0c, 0x00, 0x00, 0x01, 0x00, 0x00, 0x00,
  0x00, 0x00, 0x00, 0x00, 0x01, 0x00, 0x00, 0x00, 0x01, 0x00, 0x00, 0x00,
  0x0a, 0x00, 0x00, 0x00, 0x24, 0x08, 0x00, 0x00, 0x6c, 0x0c, 0x00, 0x00,
  0x50, 0x08, 0x00, 0x00, 0x94, 0x07, 0x00, 0x00, 0x04, 0x0c, 0x00, 0x00,
  0x18, 0x04, 0x00, 0x00, 0x90, 0x03, 0x00, 0x00, 0xb0, 0x0b, 0x00, 0x00,
  0x84, 0x00, 0x00, 0x00, 0x04, 0x00, 0x00, 0x00, 0xc6, 0xf3, 0xff, 0xff,
  0x10, 0x00, 0x00, 0x00, 0x0a, 0x00, 0x00, 0x00, 0x10, 0x00, 0x00, 0x00,
  0x34, 0x00, 0x00, 0x00, 0x01, 0x00, 0x00, 0x00, 0x0c, 0x00, 0x00, 0x00,
  0x23, 0x00, 0x00, 0x00, 0x73, 0x65, 0x71, 0x75, 0x65, 0x6e, 0x74, 0x69,
  0x61, 0x6c, 0x5f, 0x36, 0x39, 0x2f, 0x64, 0x65, 0x6e, 0x73, 0x65, 0x5f,
  0x31, 0x37, 0x34, 0x2f, 0x4d, 0x61, 0x74, 0x4d, 0x75, 0x6c, 0x5f, 0x62,
  0x69, 0x61, 0x73, 0x00, 0x60, 0xf3, 0xff, 0xff, 0x30, 0x00, 0x00, 0x00,
  0x00, 0x00, 0x00, 0x00, 0x00, 0x00, 0x00, 0x00, 0x00, 0x00, 0x00, 0x00,
  0x00, 0x00, 0x00, 0x00, 0x00, 0x00, 0x00, 0x00, 0x00, 0x00, 0x00, 0x00,
  0x00, 0x00, 0x00, 0x00, 0x00, 0x00, 0x00, 0x00, 0x00, 0x00, 0x00, 0x00,
  0x00, 0x00, 0x00, 0x00, 0x00, 0x00, 0x00, 0x00, 0x00, 0x00, 0x00, 0x00,
  0x42, 0xf4, 0xff, 0xff, 0x10, 0x00, 0x00, 0x00, 0x09, 0x00, 0x00, 0x00,
  0x14, 0x00, 0x00, 0x00, 0x4c, 0x00, 0x00, 0x00, 0x02, 0x00, 0x00, 0x00,
  0x0c, 0x00, 0x00, 0x00, 0x0e, 0x00, 0x00, 0x00, 0x37, 0x00, 0x00, 0x00,
  0x73, 0x65, 0x71, 0x75, 0x65, 0x6e, 0x74, 0x69, 0x61, 0x6c, 0x5f, 0x36,
  0x39, 0x2f, 0x64, 0x65, 0x6e, 0x73, 0x65, 0x5f, 0x31, 0x37, 0x34, 0x2f,
  0x4d, 0x61, 0x74, 0x4d, 0x75, 0x6c, 0x2f, 0x52, 0x65, 0x61, 0x64, 0x56,
  0x61, 0x72, 0x69, 0x61, 0x62, 0x6c, 0x65, 0x4f, 0x70, 0x2f, 0x74, 0x72,
  0x61, 0x6e, 0x73, 0x70, 0x6f, 0x73, 0x65, 0x00, 0xf4, 0xf3, 0xff, 0xff,
  0xa0, 0x02, 0x00, 0x00, 0x28, 0x66, 0x75, 0xbd, 0x79, 0x09, 0x89, 0xbe,
  0xe8, 0x3b, 0x60, 0xbe, 0xfc, 0x64, 0xa4, 0xbe, 0x12, 0xec, 0xc6, 0xbe,
  0x14, 0x44, 0x9c, 0x3e, 0xc4, 0x84, 0x4c, 0x3e, 0xf6, 0x7e, 0xe4, 0xbe,
  0x00, 0x58, 0x87, 0xb9, 0x65, 0xd9, 0xd7, 0xbe, 0x13, 0xfd, 0xf2, 0xbe,
  0x32, 0x4f, 0xe0, 0x3e, 0x10, 0xa4, 0xfd, 0x3d, 0x60, 0x0e, 0x8f, 0x3c,
  0x7c, 0xbb, 0x02, 0xbe, 0x9e, 0x22, 0x0b, 0xbe, 0x3e, 0x83, 0x30, 0xbe,
  0xe4, 0xf6, 0x82, 0xbe, 0x82, 0x99, 0x51, 0xbe, 0x1c, 0x3b, 0xc9, 0x3e,
  0xce, 0x6e, 0x82, 0xbe, 0x60, 0x76, 0xa5, 0x3c, 0xd8, 0x8b, 0xcc, 0xbe,
  0x98, 0x03, 0x33, 0xbe, 0x3c, 0x74, 0x94, 0x3e, 0x2e, 0x0d, 0x85, 0xbe,
  0xe0, 0xf5, 0x74, 0x3d, 0x74, 0xea, 0x0b, 0xbe, 0xa0, 0x54, 0x42, 0xbd,
  0x58, 0xd9, 0x21, 0x3e, 0x7e, 0x37, 0xb9, 0x3e, 0x7c, 0x2c, 0x77, 0xbe,
  0x29, 0x6f, 0xa1, 0xbe, 0xb0, 0xcc, 0x09, 0xbd, 0x9c, 0xef, 0xe8, 0xbe,
  0xa0, 0x6d, 0x03, 0x3d, 0xfe, 0x69, 0xd8, 0x3e, 0xec, 0x64, 0x56, 0x3e,
  0x8d, 0xd7, 0xc2, 0xbe, 0x8e, 0x02, 0x89, 0x3e, 0x7c, 0x68, 0x93, 0x3e,
  0xb0, 0xf8, 0x42, 0x3d, 0x98, 0xcf, 0x62, 0xbd, 0x60, 0x18, 0xfe, 0x3c,
  0xba, 0x6c, 0xb4, 0xbe, 0x5b, 0xc7, 0xa5, 0xbe, 0x2a, 0x65, 0x82, 0x3e,
  0xf0, 0x7c, 0x50, 0xbe, 0x28, 0xc5, 0xc5, 0x3d, 0xa0, 0xa8, 0xf2, 0xbd,
  0x62, 0x87, 0xdf, 0x3e, 0x20, 0xe7, 0x3b, 0x3e, 0xd0, 0x8b, 0x24, 0x3d,
  0x34, 0xfe, 0xe0, 0x3e, 0xa3, 0x87, 0xe4, 0xbe, 0xa8, 0x73, 0x4a, 0xbe,
  0x60, 0x1a, 0x6a, 0xbd, 0x44, 0x48, 0x99, 0xbe, 0x04, 0xe2, 0x0d, 0x3e,
  0xd8, 0xbf, 0xd6, 0x3d, 0xc0, 0x1d, 0xef, 0x3c, 0x57, 0x20, 0xee, 0xbe,
  0xdc, 0x93, 0x91, 0xbd, 0xfb, 0x92, 0x91, 0xbe, 0xc8, 0xc6, 0x63, 0xbe,
  0xb8, 0xd6, 0xf6, 0x3d, 0x58, 0x3a, 0xde, 0x3e, 0x4e, 0x9c, 0xec, 0x3e,
  0x64, 0x15, 0xd2, 0xbd, 0xcd, 0xea, 0x9c, 0xbe, 0xb8, 0xd2, 0x96, 0x3d,
  0x1c, 0xf1, 0xf9, 0xbd, 0x56, 0xf8, 0xc4, 0xbe, 0x58, 0x92, 0xd9, 0x3e,
  0x78, 0x60, 0xed, 0x3d, 0x82, 0x40, 0x8a, 0xbe, 0x0c, 0xd8, 0xb1, 0x3e,
  0x70, 0xf2, 0x22, 0x3d, 0xe0, 0xdb, 0x18, 0xbd, 0x18, 0x74, 0x02, 0xbd,
  0xfc, 0xd5, 0xd7, 0x3e, 0x6a, 0x0d, 0xcf, 0xbe, 0x0a, 0xf4, 0xe7, 0xbe,
  0xcc, 0xd3, 0xcc, 0x3e, 0x30, 0x8f, 0x80, 0x3d, 0x30, 0x9c, 0x4e, 0x3e,
  0xfc, 0xa5, 0x54, 0x3e, 0x32, 0x02, 0x66, 0xbe, 0x80, 0x5f, 0xc3, 0xbe,
  0xd2, 0x97, 0xe5, 0xbe, 0x42, 0x00, 0xd4, 0x3e, 0x84, 0x69, 0x38, 0x3e,
  0xd8, 0x28, 0xd6, 0xbd, 0xbc, 0xfd, 0xbc, 0xbd, 0x6a, 0x7d, 0xee, 0xbe,
  0x0f, 0x94, 0xb0, 0xbe, 0x80, 0x0f, 0xc9, 0x3e, 0xc7, 0x03, 0xb3, 0xbe,
  0x4e, 0x64, 0xbd, 0x3e, 0x14, 0x11, 0xb8, 0xbe, 0xcb, 0xa7, 0xee, 0xbe,
  0x70, 0xa7, 0xf1, 0x3d, 0x0f, 0x1a, 0x98, 0xbe, 0xb8, 0x6a, 0x9a, 0x3d,
  0x70, 0xce, 0xae, 0xbe, 0xf0, 0x73, 0xf0, 0x3e, 0xc0, 0x6f, 0x5f, 0x3d,
  0xaa, 0xf8, 0x54, 0xbe, 0xfc, 0x8d, 0x5a, 0x3e, 0x08, 0x7c, 0x72, 0x3e,
  0x98, 0xa5, 0xb0, 0x3e, 0x10, 0x39, 0x8e, 0x3c, 0x00, 0xf9, 0xea, 0x3c,
  0x24, 0x59, 0x68, 0x3e, 0xd4, 0x5b, 0x24, 0xbe, 0xc0, 0x12, 0x0e, 0xbd,
  0x5e, 0xc3, 0x82, 0x3e, 0xa0, 0xa3, 0x62, 0xbd, 0x7b, 0x21, 0xea, 0xbe,
  0x80, 0x70, 0x9a, 0xbe, 0xd0, 0x9a, 0x8e, 0x3d, 0x0e, 0x0f, 0x9d, 0xbe,
  0x22, 0x6e, 0x44, 0xbe, 0x42, 0x85, 0x93, 0x3e, 0x40, 0xfd, 0xab, 0x3b,
  0xcc, 0xc3, 0xb9, 0x3e, 0xb0, 0xf3, 0x56, 0xbd, 0xc4, 0xc3, 0xbb, 0xbe,
  0x5b, 0xda, 0xce, 0xbe, 0x18, 0xf1, 0xea, 0x3e, 0x56, 0xe5, 0x95, 0x3e,
  0x84, 0xad, 0xec, 0xbd, 0x54, 0x0d, 0x39, 0x3e, 0x64, 0x97, 0xca, 0x3e,
  0x94, 0x2a, 0xee, 0x3e, 0x20, 0xf9, 0x67, 0xbd, 0x26, 0x9a, 0xed, 0x3e,
  0xe2, 0x8f, 0xba, 0x3e, 0x6c, 0x7f, 0x97, 0x3e, 0xb6, 0x34, 0xd8, 0x3e,
  0x80, 0xdc, 0x38, 0x3d, 0x04, 0x1d, 0x9e, 0xbe, 0x94, 0x39, 0xc4, 0x3e,
  0x37, 0xee, 0x72, 0xbe, 0x3a, 0xb4, 0x43, 0xbe, 0x94, 0xf5, 0x14, 0x3e,
  0x6c, 0x3a, 0x1d, 0xbe, 0xce, 0x99, 0xd4, 0x3e, 0xce, 0x30, 0x93, 0xbe,
  0xb8, 0xa0, 0xb8, 0x3d, 0x80, 0xbf, 0x6d, 0xbd, 0x00, 0x48, 0x93, 0x3a,
  0xc0, 0x6b, 0x31, 0x3d, 0x35, 0x51, 0xcf, 0xbe, 0x50, 0xe7, 0x81, 0x3c,
  0xb8, 0xe9, 0x32, 0xbe, 0x68, 0x3f, 0x7a, 0x3e, 0x06, 0x90, 0xa9, 0x3e,
  0x30, 0x5a, 0x11, 0x3e, 0xa2, 0x01, 0xa2, 0xbe, 0x72, 0x4f, 0x81, 0xbe,
  0x9f, 0x41, 0x6d, 0xbe, 0xb2, 0xb9, 0x9a, 0xbe, 0x28, 0xd1, 0xbe, 0xbe,
  0xca, 0x9e, 0x61, 0xbe, 0x7f, 0xee, 0x84, 0xbe, 0xa0, 0x64, 0xe0, 0xbc,
  0xc8, 0xef, 0xf5, 0x3d, 0x46, 0xf7, 0xff, 0xff, 0x10, 0x00, 0x00, 0x00,
  0x08, 0x00, 0x00, 0x00, 0x10, 0x00, 0x00, 0x00, 0x34, 0x00, 0x00, 0x00,
  0x01, 0x00, 0x00, 0x00, 0x0e, 0x00, 0x00, 0x00, 0x23, 0x00, 0x00, 0x00,
  0x73, 0x65, 0x71, 0x75, 0x65, 0x6e, 0x74, 0x69, 0x61, 0x6c, 0x5f, 0x36,
  0x39, 0x2f, 0x64, 0x65, 0x6e, 0x73, 0x65, 0x5f, 0x31, 0x37, 0x33, 0x2f,
  0x4d, 0x61, 0x74, 0x4d, 0x75, 0x6c, 0x5f, 0x62, 0x69, 0x61, 0x73, 0x00,
  0xe0, 0xf6, 0xff, 0xff, 0x38, 0x00, 0x00, 0x00, 0x00, 0x00, 0x00, 0x00,
  0x00, 0x00, 0x00, 0x00, 0x00, 0x00, 0x00, 0x00, 0x00, 0x00, 0x00, 0x00,
  0x00, 0x00, 0x00, 0x00, 0x00, 0x00, 0x00, 0x00, 0x00, 0x00, 0x00, 0x00,
  0x00, 0x00, 0x00, 0x00, 0x00, 0x00, 0x00, 0x00, 0x00, 0x00, 0x00, 0x00,
  0x00, 0x00, 0x00, 0x00, 0x00, 0x00, 0x00, 0x00, 0x00, 0x00, 0x00, 0x00,
  0x00, 0x00, 0x00, 0x00, 0xca, 0xf7, 0xff, 0xff, 0x10, 0x00, 0x00, 0x00,
  0x07, 0x00, 0x00, 0x00, 0x14, 0x00, 0x00, 0x00, 0x4c, 0x00, 0x00, 0x00,
  0x02, 0x00, 0x00, 0x00, 0x0e, 0x00, 0x00, 0x00, 0x0e, 0x00, 0x00, 0x00,
  0x37, 0x00, 0x00, 0x00, 0x73, 0x65, 0x71, 0x75, 0x65, 0x6e, 0x74, 0x69,
  0x61, 0x6c, 0x5f, 0x36, 0x39, 0x2f, 0x64, 0x65, 0x6e, 0x73, 0x65, 0x5f,
  0x31, 0x37, 0x33, 0x2f, 0x4d, 0x61, 0x74, 0x4d, 0x75, 0x6c, 0x2f, 0x52,
  0x65, 0x61, 0x64, 0x56, 0x61, 0x72, 0x69, 0x61, 0x62, 0x6c, 0x65, 0x4f,
  0x70, 0x2f, 0x74, 0x72, 0x61, 0x6e, 0x73, 0x70, 0x6f, 0x73, 0x65, 0x00,
  0x7c, 0xf7, 0xff, 0xff, 0x10, 0x03, 0x00, 0x00, 0x2a, 0x23, 0xbe, 0xbe,
  0x00, 0xc4, 0x72, 0xbd, 0xcc, 0x0e, 0x20, 0x3e, 0x64, 0x32, 0xbf, 0x3e,
  0x50, 0x65, 0x25, 0x3d, 0xf0, 0x72, 0xb5, 0xbd, 0xe1, 0x72, 0xdb, 0xbe,
  0xdc, 0xb3, 0x7b, 0x3e, 0xf8, 0x73, 0xd4, 0xbe, 0x50, 0x3c, 0xdb, 0xbe,
  0x20, 0xf8, 0xcc, 0xbd, 0x14, 0x75, 0x22, 0x3e, 0x98, 0x8c, 0x63, 0x3e,
  0xb0, 0x8c, 0x9d, 0x3e, 0x0e, 0xfe, 0xb7, 0xbe, 0x0e, 0x09, 0x88, 0x3e,
  0x96, 0x5c, 0xa1, 0x3e, 0x8e, 0x83, 0x89, 0x3e, 0x01, 0xfb, 0x63, 0xbe,
  0xf0, 0x66, 0x8f, 0x3e, 0xc8, 0x74, 0x21, 0x3e, 0xa0, 0xa6, 0x59, 0x3e,
  0xf0, 0x87, 0xe2, 0x3d, 0xec, 0xd5, 0xba, 0xbe, 0x9e, 0xab, 0x85, 0x3e,
  0xa2, 0xb6, 0xa3, 0x3e, 0xe0, 0x57, 0xbe, 0x3d, 0x4e, 0xb4, 0xac, 0x3e,
  0x00, 0x16, 0xeb, 0xbc, 0xf8, 0xd9, 0x73, 0xbd, 0xfa, 0x7d, 0xcc, 0xbe,
  0x11, 0x1c, 0xb7, 0xbe, 0x08, 0x5b, 0x72, 0xbd, 0x50, 0x25, 0x66, 0xbe,
  0x80, 0xf1, 0xda, 0xbd, 0x08, 0xf2, 0xa7, 0x3d, 0x14, 0xac, 0xa0, 0xbe,
  0x38, 0x3f, 0xe0, 0xbd, 0xb0, 0x77, 0xfb, 0x3d, 0xae, 0xe0, 0xd4, 0x3e,
  0xb8, 0xba, 0xad, 0xbe, 0xf4, 0x1b, 0xd1, 0xbd, 0x00, 0x8d, 0xc7, 0x3e,
  0x38, 0xea, 0x93, 0x3d, 0x68, 0xcc, 0x52, 0x3e, 0x4e, 0x95, 0xb3, 0xbe,
  0x20, 0x2e, 0xcd, 0x3d, 0xc0, 0x2d, 0x2e, 0x3c, 0x54, 0x22, 0xa8, 0x3e,
  0x72, 0x00, 0xdc, 0xbe, 0x18, 0x61, 0xf2, 0x3d, 0xec, 0x03, 0x98, 0x3e,
  0xe0, 0x8e, 0xb2, 0x3d, 0xa0, 0x71, 0xec, 0x3e, 0xd0, 0x3b, 0x00, 0x3e,
  0x30, 0x9d, 0x2f, 0xbe, 0xfa, 0x06, 0xd3, 0xbe, 0x30, 0x1c, 0xdd, 0x3c,
  0x40, 0xff, 0xc5, 0x3c, 0x80, 0x46, 0xe0, 0x3d, 0x20, 0xc1, 0xc4, 0x3d,
  0x12, 0x90, 0x3b, 0xbe, 0xa0, 0xc6, 0x75, 0x3d, 0xec, 0x08, 0x5e, 0x3e,
  0x76, 0x0e, 0xbd, 0x3e, 0x10, 0x90, 0xc1, 0xbe, 0x78, 0x75, 0xb8, 0x3d,
  0x84, 0x0b, 0x94, 0x3e, 0xac, 0x93, 0x42, 0x3e, 0xe0, 0xf5, 0xb5, 0x3d,
  0x4c, 0x3f, 0x8e, 0x3e, 0x79, 0x03, 0xd2, 0xbe, 0x08, 0xbb, 0x50, 0x3e,
  0x7d, 0x70, 0x94, 0xbe, 0xd4, 0x81, 0x47, 0x3e, 0x00, 0xda, 0x5d, 0xba,
  0xa8, 0x9a, 0xde, 0x3e, 0x9c, 0xce, 0x65, 0x3e, 0x20, 0x46, 0x18, 0xbd,
  0x0c, 0xd0, 0x17, 0x3e, 0xc8, 0x4c, 0x9a, 0x3e, 0xb6, 0x51, 0xb9, 0xbe,
  0xe8, 0x8a, 0xa5, 0x3e, 0x6a, 0x65, 0xe3, 0xbe, 0xa0, 0x4a, 0xef, 0xbd,
  0x44, 0xda, 0x27, 0x3e, 0x2a, 0x0d, 0xb2, 0x3e, 0x54, 0x77, 0xfc, 0xbd,
  0xd4, 0x88, 0x6c, 0x3e, 0x6c, 0x50, 0x9c, 0x3e, 0x26, 0x71, 0x40, 0xbe,
  0x70, 0x1e, 0x2f, 0x3d, 0xa0, 0x2d, 0x90, 0x3d, 0x68, 0x43, 0xbc, 0x3e,
  0xd0, 0x8c, 0xda, 0x3e, 0x3d, 0x49, 0x6c, 0xbe, 0xd8, 0x0f, 0xd6, 0x3e,
  0xe2, 0x95, 0xc2, 0xbe, 0xa8, 0x7b, 0x72, 0x3e, 0x00, 0x0f, 0xc0, 0x3d,
  0xf9, 0x63, 0xbe, 0xbe, 0x84, 0x18, 0xb2, 0x3e, 0xd0, 0x85, 0x84, 0xbe,
  0xb0, 0xf0, 0xdb, 0x3c, 0xd4, 0x2d, 0x14, 0x3e, 0x40, 0xd7, 0x5a, 0x3c,
  0x54, 0xe3, 0xc1, 0x3e, 0xe4, 0xcb, 0x0e, 0x3e, 0x5e, 0x81, 0xe1, 0xbe,
  0xd0, 0x25, 0x0e, 0xbd, 0x02, 0x01, 0xc8, 0xbe, 0x9c, 0x4b, 0x47, 0x3e,
  0x97, 0xe0, 0x7e, 0xbe, 0x74, 0x88, 0x69, 0x3e, 0x98, 0x43, 0xc5, 0x3e,
  0x30, 0x43, 0xe9, 0x3c, 0xc0, 0x6d, 0xdf, 0xbd, 0xb4, 0x07, 0xb5, 0xbe,
  0x14, 0xbb, 0xcd, 0xbd, 0xbc, 0x25, 0x82, 0xbe, 0xcc, 0x1e, 0xd5, 0x3e,
  0x22, 0x6f, 0x82, 0xbe, 0x90, 0xab, 0xd8, 0x3d, 0xe4, 0x1e, 0xb2, 0xbd,
  0x78, 0x66, 0x8d, 0xbd, 0x94, 0xf0, 0xb3, 0xbd, 0x84, 0x95, 0x93, 0x3e,
  0x3c, 0xbe, 0x27, 0x3e, 0xfc, 0x24, 0x31, 0x3e, 0x88, 0x21, 0xf5, 0xbd,
  0xa0, 0x90, 0xba, 0xbd, 0xc4, 0x8c, 0x10, 0xbe, 0x52, 0x1a, 0xa4, 0x3e,
  0xf4, 0x92, 0x3f, 0x3e, 0xf6, 0xfe, 0x90, 0xbe, 0xe2, 0x0a, 0xc8, 0x3e,
  0x71, 0x9b, 0x76, 0xbe, 0x54, 0xbc, 0xe4, 0xbd, 0x72, 0xc4, 0x17, 0xbe,
  0x8f, 0xc8, 0xb7, 0xbe, 0xe6, 0xab, 0xab, 0x3e, 0x40, 0xf1, 0xaf, 0xbe,
  0xfc, 0xc6, 0x66, 0xbe, 0x70, 0xd5, 0xbf, 0xbc, 0xec, 0x5f, 0x77, 0x3e,
  0x48, 0x11, 0xd5, 0x3e, 0x90, 0x0a, 0xcf, 0x3e, 0x48, 0xb5, 0xf7, 0x3d,
  0xec, 0x20, 0xe8, 0xbe, 0xdc, 0x70, 0xd0, 0xbe, 0x4b, 0x36, 0xd6, 0xbe,
  0xd8, 0xda, 0x64, 0x3e, 0x2c, 0xa4, 0x96, 0x3e, 0x30, 0x45, 0xc6, 0x3e,
  0x5a, 0x44, 0xe6, 0x3e, 0x8c, 0x30, 0x65, 0xbe, 0x70, 0x12, 0xd4, 0xbd,
  0xc0, 0x9a, 0xf8, 0xbb, 0x6e, 0xf7, 0x86, 0x3e, 0x28, 0xc8, 0xcc, 0x3e,
  0x40, 0x25, 0xed, 0xbc, 0xb0, 0x26, 0x6a, 0x3e, 0xfa, 0xf1, 0x2d, 0xbe,
  0x0c, 0x13, 0xdf, 0x3e, 0xba, 0x19, 0x34, 0xbe, 0x72, 0x2c, 0xdf, 0xbe,
  0x14, 0x11, 0x1b, 0x3e, 0x3c, 0x35, 0x98, 0xbe, 0xc0, 0x25, 0x78, 0x3d,
  0xf8, 0xca, 0x87, 0x3e, 0xe0, 0x6c, 0xaf, 0x3d, 0x0b, 0x19, 0xaf, 0xbe,
  0xbc, 0x3d, 0xbc, 0xbe, 0xd8, 0x67, 0x19, 0xbe, 0x58, 0x60, 0x8c, 0xbe,
  0x1e, 0x9f, 0xc0, 0xbe, 0x80, 0x41, 0xe9, 0x3e, 0x00, 0xbe, 0x4a, 0xbc,
  0x0e, 0xcc, 0x27, 0xbe, 0x80, 0xdd, 0xaa, 0xbe, 0xd2, 0x15, 0x98, 0x3e,
  0xdf, 0x13, 0x9a, 0xbe, 0xe0, 0xf2, 0x68, 0x3e, 0xae, 0x49, 0x9d, 0x3e,
  0xb4, 0xea, 0x16, 0x3e, 0xb2, 0x80, 0xb9, 0x3e, 0xe0, 0xaa, 0x48, 0xbd,
  0x82, 0x8e, 0x56, 0xbe, 0xbe, 0xaf, 0x8a, 0xbe, 0x80, 0xde, 0x8b, 0xbd,
  0x22, 0x9f, 0x67, 0xbe, 0xd4, 0xd6, 0x21, 0xbe, 0x58, 0x1d, 0x81, 0x3e,
  0xac, 0x23, 0xb6, 0xbe, 0x20, 0x30, 0x84, 0x3c, 0x2c, 0xd5, 0x7b, 0x3e,
  0x3e, 0xfb, 0xff, 0xff, 0x10, 0x00, 0x00, 0x00, 0x06, 0x00, 0x00, 0x00,
  0x10, 0x00, 0x00, 0x00, 0x34, 0x00, 0x00, 0x00, 0x01, 0x00, 0x00, 0x00,
  0x0e, 0x00, 0x00, 0x00, 0x23, 0x00, 0x00, 0x00, 0x73, 0x65, 0x71, 0x75,
  0x65, 0x6e, 0x74, 0x69, 0x61, 0x6c, 0x5f, 0x36, 0x39, 0x2f, 0x64, 0x65,
  0x6e, 0x73, 0x65, 0x5f, 0x31, 0x37, 0x32, 0x2f, 0x4d, 0x61, 0x74, 0x4d,
  0x75, 0x6c, 0x5f, 0x62, 0x69, 0x61, 0x73, 0x00, 0xd8, 0xfa, 0xff, 0xff,
  0x38, 0x00, 0x00, 0x00, 0x00, 0x00, 0x00, 0x00, 0x00, 0x00, 0x00, 0x00,
  0x00, 0x00, 0x00, 0x00, 0x00, 0x00, 0x00, 0x00, 0x00, 0x00, 0x00, 0x00,
  0x00, 0x00, 0x00, 0x00, 0x00, 0x00, 0x00, 0x00, 0x00, 0x00, 0x00, 0x00,
  0x00, 0x00, 0x00, 0x00, 0x00, 0x00, 0x00, 0x00, 0x00, 0x00, 0x00, 0x00,
  0x00, 0x00, 0x00, 0x00, 0x00, 0x00, 0x00, 0x00, 0x00, 0x00, 0x00, 0x00,
  0xc2, 0xfb, 0xff, 0xff, 0x10, 0x00, 0x00, 0x00, 0x05, 0x00, 0x00, 0x00,
  0x14, 0x00, 0x00, 0x00, 0x20, 0x00, 0x00, 0x00, 0x02, 0x00, 0x00, 0x00,
  0x01, 0x00, 0x00, 0x00, 0x0c, 0x00, 0x00, 0x00, 0x08, 0x00, 0x00, 0x00,
  0x49, 0x64, 0x65, 0x6e, 0x74, 0x69, 0x74, 0x79, 0x00, 0x00, 0x00, 0x00,
  0x48, 0xfb, 0xff, 0xff, 0xf6, 0xfb, 0xff, 0xff, 0x10, 0x00, 0x00, 0x00,
  0x04, 0x00, 0x00, 0x00, 0x14, 0x00, 0x00, 0x00, 0x4c, 0x00, 0x00, 0x00,
  0x02, 0x00, 0x00, 0x00, 0x0e, 0x00, 0x00, 0x00, 0x0e, 0x00, 0x00, 0x00,
  0x37, 0x00, 0x00, 0x00, 0x73, 0x65, 0x71, 0x75, 0x65, 0x6e, 0x74, 0x69,
  0x61, 0x6c, 0x5f, 0x36, 0x39, 0x2f, 0x64, 0x65, 0x6e, 0x73, 0x65, 0x5f,
  0x31, 0x37, 0x32, 0x2f, 0x4d, 0x61, 0x74, 0x4d, 0x75, 0x6c, 0x2f, 0x52,
  0x65, 0x61, 0x64, 0x56, 0x61, 0x72, 0x69, 0x61, 0x62, 0x6c, 0x65, 0x4f,
  0x70, 0x2f, 0x74, 0x72, 0x61, 0x6e, 0x73, 0x70, 0x6f, 0x73, 0x65, 0x00,
  0xa8, 0xfb, 0xff, 0xff, 0x10, 0x03, 0x00, 0x00, 0xaa, 0x45, 0xaa, 0xbe,
  0xc6, 0xfb, 0xbd, 0xbe, 0x30, 0xfc, 0xe2, 0xbe, 0xb4, 0xd2, 0xbf, 0x3e,
  0x70, 0x13, 0x45, 0x3e, 0xc0, 0x87, 0x42, 0xbe, 0x12, 0x62, 0x99, 0xbe,
  0xda, 0x6e, 0xbb, 0x3e, 0x80, 0x58, 0xa3, 0xbe, 0xb0, 0xa7, 0xba, 0x3e,
  0xfa, 0x47, 0xa6, 0xbe, 0x8a, 0xcc, 0xc8, 0x3e, 0xd6, 0xc2, 0xc9, 0x3e,
  0x5a, 0xbe, 0x91, 0x3e, 0xc0, 0x25, 0xb5, 0xbd, 0x3c, 0x7b, 0x8c, 0x3e,
  0xf0, 0x2c, 0x57, 0x3e, 0x30, 0x92, 0x3e, 0x3d, 0xae, 0x9f, 0x81, 0xbe,
  0x58, 0xb1, 0x97, 0xbd, 0x88, 0x7e, 0xb1, 0x3e, 0x40, 0x38, 0xef, 0x3c,
  0x00, 0xe0, 0x10, 0x3e, 0x62, 0x59, 0x96, 0xbe, 0x72, 0x42, 0xd2, 0xbe,
  0x39, 0x9c, 0x95, 0xbe, 0x00, 0xff, 0xa3, 0x3d, 0xec, 0x7c, 0x0d, 0x3e,
  0x46, 0x8a, 0xc0, 0x3e, 0x5e, 0xbe, 0xb2, 0x3e, 0x8f, 0x02, 0xd1, 0xbe,
  0xd0, 0x83, 0xcc, 0xbc, 0x22, 0xe4, 0x2c, 0xbe, 0x00, 0x38, 0x22, 0xba,
  0x10, 0x6a, 0x88, 0xbe, 0x5a, 0x80, 0xc0, 0x3e, 0xad, 0xf4, 0xc6, 0xbe,
  0x40, 0x76, 0xd3, 0x3e, 0x24, 0xbd, 0xca, 0x3e, 0xe0, 0xba, 0xe9, 0x3d,
  0x56, 0x49, 0xc0, 0x3e, 0x54, 0x5a, 0x52, 0xbe, 0x64, 0x21, 0x88, 0x3e,
  0x88, 0x2d, 0x86, 0x3e, 0x64, 0x83, 0xb9, 0xbe, 0x90, 0x6d, 0x6d, 0x3e,
  0x20, 0x8b, 0xd3, 0xbc, 0x51, 0xbd, 0xc2, 0xbe, 0x94, 0xa0, 0x72, 0xbe,
  0xe8, 0x93, 0x14, 0x3e, 0x28, 0x04, 0x71, 0x3e, 0x5e, 0x9c, 0xde, 0xbe,
  0x0e, 0x3b, 0xb7, 0x3e, 0x64, 0x67, 0x79, 0xbe, 0x57, 0x8a, 0xd2, 0xbe,
  0xf8, 0xb4, 0x4a, 0x3e, 0x72, 0x3f, 0x9f, 0xbe, 0x74, 0x3e, 0x63, 0x3e,
  0x7c, 0xda, 0x2d, 0x3e, 0x84, 0x6e, 0x32, 0x3e, 0xb6, 0x7e, 0xe2, 0xbe,
  0x22, 0x77, 0x8a, 0xbe, 0x3c, 0x39, 0x09, 0xbe, 0x28, 0x96, 0x86, 0xbd,
  0xb0, 0xac, 0x40, 0xbe, 0x46, 0x99, 0x3d, 0xbe, 0x68, 0x68, 0x2a, 0xbd,
  0x34, 0xed, 0xa5, 0x3e, 0x02, 0x0d, 0x89, 0x3e, 0x50, 0xbf, 0x4b, 0xbe,
  0x40, 0xcb, 0x7e, 0xbc, 0xde, 0x93, 0xd4, 0xbe, 0x68, 0x51, 0x98, 0xbd,
  0x18, 0x41, 0x97, 0x3d, 0xbc, 0x4e, 0x33, 0x3e, 0xd4, 0x0c, 0x0e, 0xbe,
  0x48, 0x49, 0xc6, 0x3e, 0xd4, 0xc6, 0x8e, 0xbe, 0x02, 0xa7, 0x83, 0xbe,
  0x4e, 0x27, 0x8c, 0xbe, 0x9e, 0xfa, 0xd5, 0x3e, 0xc0, 0x1a, 0x65, 0xbc,
  0x90, 0xd0, 0xea, 0x3d, 0x71, 0xbc, 0xa5, 0xbe, 0xe4, 0x6d, 0xb4, 0xbe,
  0xf6, 0xfc, 0xa9, 0xbe, 0x80, 0xf2, 0x29, 0x3d, 0xc8, 0xf1, 0x55, 0xbd,
  0x28, 0x6f, 0xd7, 0x3d, 0xb7, 0x7d, 0xd3, 0xbe, 0x90, 0x84, 0xe0, 0xbc,
  0x58, 0x38, 0x94, 0x3e, 0x68, 0x67, 0x98, 0xbe, 0x90, 0x53, 0xad, 0x3e,
  0xac, 0x32, 0xca, 0x3e, 0x78, 0x66, 0x7c, 0x3e, 0x20, 0x31, 0xbd, 0x3e,
  0x02, 0x22, 0x1b, 0xbe, 0x30, 0xa4, 0x2e, 0x3d, 0x86, 0xf6, 0xd8, 0xbe,
  0x88, 0x4b, 0xb6, 0x3d, 0x5f, 0x64, 0xcf, 0xbe, 0x04, 0x78, 0xa1, 0xbe,
  0x80, 0x60, 0xd8, 0x3e, 0xea, 0x18, 0xd7, 0xbe, 0xca, 0x31, 0x78, 0xbe,
  0xe4, 0x1b, 0xc8, 0xbd, 0x90, 0x9d, 0x62, 0x3e, 0x07, 0xe8, 0xb5, 0xbe,
  0x4c, 0x2a, 0xba, 0xbe, 0x74, 0xa9, 0x0f, 0x3e, 0xd4, 0xda, 0x13, 0xbe,
  0xe0, 0x9b, 0xe3, 0xbd, 0x90, 0x73, 0xfb, 0xbc, 0x00, 0x8e, 0x41, 0xba,
  0xc4, 0x60, 0xea, 0xbe, 0x20, 0x20, 0x46, 0xbc, 0x18, 0x68, 0xcd, 0x3d,
  0xbb, 0x4b, 0xda, 0xbe, 0x44, 0x53, 0xfe, 0xbd, 0xa6, 0xc8, 0x29, 0xbe,
  0x28, 0x21, 0x97, 0xbe, 0xae, 0xd7, 0x8d, 0x3e, 0x80, 0x9a, 0xf8, 0x3c,
  0x38, 0x1a, 0x8e, 0xbe, 0x18, 0x09, 0xa6, 0xbd, 0x60, 0xad, 0xa9, 0x3c,
  0xac, 0x7d, 0x8e, 0xbe, 0x05, 0x00, 0x76, 0xbe, 0xd1, 0x6c, 0xcf, 0xbe,
  0x0c, 0x68, 0x91, 0x3e, 0x48, 0x04, 0x01, 0x3d, 0x6a, 0xf6, 0xca, 0x3e,
  0xcc, 0xa2, 0xfb, 0xbd, 0x50, 0xe7, 0x91, 0x3c, 0xf8, 0xe3, 0x98, 0x3e,
  0x52, 0x39, 0xa9, 0x3e, 0xc8, 0x69, 0xb6, 0x3d, 0x90, 0x03, 0x0c, 0xbe,
  0x88, 0x88, 0xbf, 0xbd, 0x68, 0x61, 0x0d, 0xbe, 0x5a, 0x3f, 0xd3, 0xbe,
  0xc0, 0x8a, 0xe7, 0x3b, 0xc2, 0xf4, 0xa2, 0xbe, 0x12, 0xbf, 0xa0, 0xbe,
  0x24, 0x21, 0x23, 0x3e, 0xe3, 0xa7, 0x9e, 0xbe, 0x78, 0x8c, 0x11, 0x3e,
  0xaa, 0x65, 0xae, 0x3e, 0x72, 0xb0, 0x91, 0x3e, 0x98, 0x98, 0x7e, 0xbd,
  0x44, 0x42, 0xa6, 0xbd, 0xd0, 0x51, 0xdb, 0x3e, 0x98, 0x81, 0x6f, 0xbd,
  0x8c, 0x73, 0xd3, 0xbe, 0xdc, 0xd1, 0x5c, 0x3e, 0xe6, 0x36, 0x46, 0xbe,
  0x80, 0xa1, 0x43, 0x3b, 0xc4, 0x15, 0x67, 0xbe, 0x34, 0x6f, 0x95, 0x3e,
  0x28, 0xff, 0xde, 0x3d, 0x9e, 0x90, 0x33, 0xbe, 0xa0, 0x15, 0x4b, 0x3e,
  0x10, 0x17, 0x69, 0x3d, 0xec, 0x1b, 0x89, 0xbe, 0xf7, 0x8a, 0x6a, 0xbe,
  0x3a, 0xa8, 0x81, 0xbe, 0x44, 0xae, 0xff, 0xbd, 0xb2, 0x72, 0xe4, 0xbe,
  0x74, 0x7e, 0x12, 0x3e, 0x10, 0xaf, 0x32, 0xbe, 0x74, 0x4c, 0xe5, 0x3e,
  0x08, 0x61, 0x43, 0x3e, 0x3d, 0xfb, 0xd0, 0xbe, 0xbe, 0x10, 0x91, 0xbe,
  0xe0, 0xff, 0x41, 0x3d, 0x64, 0xb1, 0xf4, 0xbd, 0x5e, 0x24, 0xce, 0xbe,
  0x38, 0xd7, 0xae, 0x3e, 0x0a, 0x33, 0x9d, 0x3e, 0x08, 0x9d, 0x48, 0x3e,
  0x76, 0x3d, 0xc8, 0x3e, 0xfc, 0xb0, 0xff, 0xbd, 0x30, 0x8a, 0x71, 0x3e,
  0x10, 0x35, 0xd2, 0x3c, 0xd0, 0xc6, 0x59, 0xbd, 0x21, 0x85, 0x61, 0xbe,
  0x2c, 0xd8, 0x9e, 0xbe, 0xd4, 0xe9, 0x2f, 0xbe, 0xdc, 0x75, 0x08, 0x3e,
  0x6a, 0x47, 0xb1, 0x3e, 0x3c, 0xbf, 0x99, 0x3e, 0x64, 0xbe, 0x35, 0x3e,
  0x7c, 0x84, 0xb4, 0x3e, 0xa2, 0x69, 0xcb, 0x3e, 0x60, 0x5b, 0xd8, 0x3e,
  0x6a, 0xff, 0xff, 0xff, 0x10, 0x00, 0x00, 0x00, 0x03, 0x00, 0x00, 0x00,
  0x14, 0x00, 0x00, 0x00, 0x34, 0x00, 0x00, 0x00, 0x02, 0x00, 0x00, 0x00,
  0x01, 0x00, 0x00, 0x00, 0x0e, 0x00, 0x00, 0x00, 0x1c, 0x00, 0x00, 0x00,
  0x73, 0x65, 0x71, 0x75, 0x65, 0x6e, 0x74, 0x69, 0x61, 0x6c, 0x5f, 0x36,
  0x39, 0x2f, 0x64, 0x65, 0x6e, 0x73, 0x65, 0x5f, 0x31, 0x37, 0x33, 0x2f,
  0x52, 0x65, 0x6c, 0x75, 0x00, 0x00, 0x00, 0x00, 0x04, 0xff, 0xff, 0xff,
  0xb2, 0xff, 0xff, 0xff, 0x10, 0x00, 0x00, 0x00, 0x02, 0x00, 0x00, 0x00,
  0x14, 0x00, 0x00, 0x00, 0x38, 0x00, 0x00, 0x00, 0x02, 0x00, 0x00, 0x00,
  0x01, 0x00, 0x00, 0x00, 0x0e, 0x00, 0x00, 0x00, 0x1c, 0x00, 0x00, 0x00,
  0x73, 0x65, 0x71, 0x75, 0x65, 0x6e, 0x74, 0x69, 0x61, 0x6c, 0x5f, 0x36,
  0x39, 0x2f, 0x64, 0x65, 0x6e, 0x73, 0x65, 0x5f, 0x31, 0x37, 0x32, 0x2f,
  0x52, 0x65, 0x6c, 0x75, 0x00, 0x00, 0x00, 0x00, 0x04, 0x00, 0x06, 0x00,
  0x04, 0x00, 0x00, 0x00, 0x00, 0x00, 0x0e, 0x00, 0x14, 0x00, 0x04, 0x00,
  0x00, 0x00, 0x08, 0x00, 0x0c, 0x00, 0x10, 0x00, 0x0e, 0x00, 0x00, 0x00,
  0x10, 0x00, 0x00, 0x00, 0x01, 0x00, 0x00, 0x00, 0x14, 0x00, 0x00, 0x00,
  0x2c, 0x00, 0x00, 0x00, 0x02, 0x00, 0x00, 0x00, 0x01, 0x00, 0x00, 0x00,
  0x0e, 0x00, 0x00, 0x00, 0x0f, 0x00, 0x00, 0x00, 0x64, 0x65, 0x6e, 0x73,
  0x65, 0x5f, 0x31, 0x37, 0x32, 0x5f, 0x69, 0x6e, 0x70, 0x75, 0x74, 0x00,
  0x08, 0x00, 0x0c, 0x00, 0x04, 0x00, 0x08, 0x00, 0x08, 0x00, 0x00, 0x00,
  0x10, 0x00, 0x00, 0x00, 0x04, 0x00, 0x00, 0x00, 0x01, 0x00, 0x00, 0x00,
  0x00, 0x00, 0x7f, 0x43, 0x01, 0x00, 0x00, 0x00, 0x00, 0x00, 0x00, 0x00,
  0x03, 0x00, 0x00, 0x00, 0x98, 0x00, 0x00, 0x00, 0x44, 0x00, 0x00, 0x00,
  0x04, 0x00, 0x00, 0x00, 0x88, 0xff, 0xff, 0xff, 0x00, 0x00, 0x00, 0x08,
  0x10, 0x00, 0x00, 0x00, 0x1c, 0x00, 0x00, 0x00, 0x28, 0x00, 0x00, 0x00,
  0x1c, 0x00, 0x00, 0x00, 0x03, 0x00, 0x00, 0x00, 0x07, 0x00, 0x00, 0x00,
  0x08, 0x00, 0x00, 0x00, 0x09, 0x00, 0x00, 0x00, 0x01, 0x00, 0x00, 0x00,
  0x00, 0x00, 0x00, 0x00, 0x00, 0x00, 0x00, 0x00, 0x04, 0x00, 0x04, 0x00,
  0x04, 0x00, 0x00, 0x00, 0xc4, 0xff, 0xff, 0xff, 0x00, 0x00, 0x00, 0x08,
  0x10, 0x00, 0x00, 0x00, 0x1c, 0x00, 0x00, 0x00, 0x24, 0x00, 0x00, 0x00,
  0x1c, 0x00, 0x00, 0x00, 0x03, 0x00, 0x00, 0x00, 0x04, 0x00, 0x00, 0x00,
  0x05, 0x00, 0x00, 0x00, 0x06, 0x00, 0x00, 0x00, 0x01, 0x00, 0x00, 0x00,
  0x07, 0x00, 0x00, 0x00, 0x00, 0x00, 0x00, 0x00, 0x8e, 0xff, 0xff, 0xff,
  0x00, 0x00, 0x00, 0x01, 0x14, 0x00, 0x18, 0x00, 0x00, 0x00, 0x08, 0x00,
  0x0c, 0x00, 0x07, 0x00, 0x10, 0x00, 0x00, 0x00, 0x00, 0x00, 0x14, 0x00,
  0x14, 0x00, 0x00, 0x00, 0x00, 0x00, 0x00, 0x08, 0x10, 0x00, 0x00, 0x00,
  0x1c, 0x00, 0x00, 0x00, 0x24, 0x00, 0x00, 0x00, 0x1c, 0x00, 0x00, 0x00,
  0x03, 0x00, 0x00, 0x00, 0x01, 0x00, 0x00, 0x00, 0x02, 0x00, 0x00, 0x00,
  0x03, 0x00, 0x00, 0x00, 0x01, 0x00, 0x00, 0x00, 0x04, 0x00, 0x00, 0x00,
  0x00, 0x00, 0x00, 0x00, 0xde, 0xff, 0xff, 0xff, 0x00, 0x00, 0x00, 0x01,
  0x01, 0x00, 0x00, 0x00, 0x04, 0x00, 0x00, 0x00, 0xfa, 0xff, 0xff, 0xff,
  0x00, 0x09, 0x06, 0x00, 0x06, 0x00, 0x05, 0x00, 0x06, 0x00, 0x00, 0x00,
  0x00, 0x09, 0x06, 0x00, 0x08, 0x00, 0x07, 0x00, 0x06, 0x00, 0x00, 0x00,
  0x00, 0x00, 0x00, 0x09
};
unsigned int DNN_IV_12_tflite_len = 3856;
